<pad>	0
<s>	0
</s>	0
<unk>	0
▁	-2.89736
s	-3.02153
▁the	-3.22288
▁.	-3.32742
,	-3.36329
ed	-3.91706
▁to	-3.92571
▁a	-4.02667
▁of	-4.03687
▁in	-4.17638
y	-4.19737
ing	-4.21959
▁and	-4.22107
d	-4.47079
▁s	-4.60381
▁The	-4.95605
▁on	-5.0251
▁be	-5.05255
▁for	-5.0982
▁that	-5.13231
ly	-5.25716
▁is	-5.28768
▁was	-5.37546
m	-5.4225
▁with	-5.43062
e	-5.49881
▁sai	-5.62801
aid	-5.65242
▁at	-5.69477
▁fro	-5.73124
▁it	-5.76059
▁by	-5.76465
▁has	-5.78149
▁an	-5.83125
n	-5.83531
en	-5.85369
▁have	-5.86961
▁he	-5.88436
▁his	-5.91849
▁as	-5.94554
▁are	-5.99237
▁year	-6.0344
▁were	-6.07589
▁will	-6.08518
t	-6.13767
▁who	-6.16676
▁not	-6.17392
▁S	-6.17872
ies	-6.18372
▁I	-6.21318
▁A	-6.29511
▁had	-6.29712
▁U	-6.32979
▁after	-6.344
a	-6.42624
▁say	-6.43433
▁their	-6.44293
▁but	-6.44709
▁people	-6.49524
▁its	-6.50299
more	-6.52414
▁Korea	-6.52423
about	-6.53267
st	-6.55731
▁which	-6.5716
er	-6.58474
▁two	-6.58973
▁up	-6.61239
▁would	-6.62522
▁government	-6.64743
al	-6.65044
▁her	-6.66654
▁official	-6.67767
▁t	-6.68635
▁or	-6.69877
this	-6.70329
▁one	-6.72959
▁than	-6.73954
▁out	-6.75377
▁over	-6.75473
also	-6.7567
▁North	-6.79939
r	-6.80711
▁other	-6.83129
▁CNN	-6.85878
▁first	-6.87352
▁last	-6.87893
o	-6.88246
▁time	-6.89916
▁day	-6.91287
ld	-6.91373
ce	-6.9178
▁In	-6.93016
es	-6.94234
▁Korean	-6.94794
▁It	-6.9492
▁into	-6.95147
▁President	-6.96339
▁He	-6.97407
▁she	-6.97591
▁when	-6.98018
▁South	-6.98609
▁new	-7.02381
on	-7.04484
▁all	-7.05011
in	-7.05086
▁police	-7.06618
▁report	-7.07252
▁we	-7.0773
an	-7.08758
▁week	-7.09707
▁percent	-7.10888
▁call	-7.11008
▁some	-7.121
▁month	-7.12833
▁man	-7.13097
▁president	-7.14737
▁But	-7.15066
▁again	-7.15331
▁United	-7.16932
▁could	-7.17594
▁can	-7.20161
▁no	-7.21773
▁al	-7.22146
▁country	-7.22232
▁Monda	-7.2383
▁Iraq	-7.2452
▁there	-7.25024
▁Tuesday	-7.26163
▁million	-7.26424
▁militar	-7.27688
ese	-7.28059
▁you	-7.30033
▁three	-7.30372
▁Obama	-7.31971
▁kill	-7.32061
▁him	-7.34596
▁according	-7.34706
esday	-7.34893
▁Japan	-7.35177
▁go	-7.35399
▁Wed	-7.36682
i	-7.36915
▁attack	-7.37068
▁like	-7.3749
▁Sunday	-7.37764
▁world	-7.37998
ish	-7.38261
▁old	-7.38768
▁We	-7.39166
▁before	-7.39978
▁China	-7.40774
▁Bush	-7.40916
cause	-7.41532
▁C	-7.41764
▁nuclear	-7.41862
▁down	-7.42505
▁state	-7.42864
ment	-7.43434
▁group	-7.43541
▁where	-7.43754
▁what	-7.45027
▁since	-7.46394
▁New	-7.46677
▁high	-7.47455
ion	-7.47679
▁Thursday	-7.4774
▁near	-7.47978
▁show	-7.48242
▁home	-7.48266
▁off	-7.48316
▁back	-7.48522
▁most	-7.49299
l	-7.49308
▁any	-7.49671
▁includ	-7.50396
tween	-7.51651
▁States	-7.51768
▁them	-7.5192
made	-7.52254
▁if	-7.52902
▁reported	-7.53038
▁N	-7.5338
▁force	-7.53789
▁under	-7.54479
▁American	-7.54939
▁now	-7.55499
▁m	-7.55633
▁dur	-7.56751
▁just	-7.56815
▁take	-7.58522
▁part	-7.60102
▁four	-7.6116
▁through	-7.61185
▁former	-7.61278
▁want	-7.6158
▁so	-7.62581
▁re	-7.6283
ial	-7.6378
▁end	-7.64139
▁plan	-7.65584
▁us	-7.67478
▁statement	-7.6877
▁help	-7.69888
▁long	-7.70208
able	-7.70974
▁D	-7.71235
▁election	-7.71752
▁did	-7.72045
▁found	-7.72086
▁nation	-7.72287
▁get	-7.72636
▁whil	-7.72942
▁being	-7.73002
▁work	-7.73552
▁troop	-7.74764
ember	-7.74983
uch	-7.75083
▁party	-7.75896
▁do	-7.76334
▁US	-7.76891
▁National	-7.76933
▁leader	-7.7714
▁city	-7.77267
man	-7.77522
hose	-7.77842
▁won	-7.77893
▁may	-7.77935
▁right	-7.78504
other	-7.78708
▁make	-7.7886
▁second	-7.78995
▁nex	-7.79121
▁six	-7.79201
▁how	-7.79637
▁securit	-7.79736
round	-7.79743
▁release	-7.80021
▁issue	-7.80151
▁talks	-7.80492
▁war	-7.81623
▁Minister	-7.81792
▁our	-7.82686
ary	-7.82792
▁death	-7.83355
▁large	-7.84185
▁need	-7.84889
ity	-7.84942
▁start	-7.85071
ve	-7.85358
▁fire	-7.86334
▁late	-7.86351
▁five	-7.86353
▁news	-7.86623
▁T	-7.86872
▁area	-7.86992
▁Afghan	-7.87033
▁still	-7.87034
▁Seoul	-7.87834
▁see	-7.88322
▁number	-7.88845
▁famil	-7.90084
▁un	-7.902
▁come	-7.90315
▁set	-7.91243
▁hour	-7.91414
▁W	-7.91998
▁recent	-7.9225
out	-7.9292
ic	-7.93178
▁Clinton	-7.93306
▁close	-7.93514
▁way	-7.93562
▁use	-7.93692
▁market	-7.94823
▁point	-7.95094
▁public	-7.96067
▁meeting	-7.96071
le	-7.96449
▁lead	-7.96571
▁charge	-7.96631
▁place	-7.96681
ok	-7.96771
▁top	-7.96798
▁B	-7.97
▁site	-7.97337
▁program	-7.97524
▁support	-7.97663
▁return	-7.97865
▁head	-7.98502
▁Iraqi	-7.98591
▁Brit	-7.98615
▁spokesm	-7.99439
▁th	-7.99538
▁follow	-7.99544
▁car	-7.99698
very	-7.99782
company	-7.99882
est	-8.00592
▁believe	-8.00901
▁billion	-8.0142
▁leas	-8.01545
▁base	-8.01716
▁look	-8.02123
▁visit	-8.0288
▁House	-8.03816
▁M	-8.04028
▁should	-8.04347
early	-8.04411
▁case	-8.05289
▁office	-8.05372
▁arrest	-8.05835
▁K	-8.06033
▁Saturday	-8.06076
ether	-8.06704
▁think	-8.06805
▁Chin	-8.06939
▁campaign	-8.07
▁Friday	-8.07667
▁di	-8.07674
▁every	-8.07718
▁ye	-8.07726
▁children	-8.08364
▁minister	-8.08394
▁Part	-8.08473
▁political	-8.08932
▁Washington	-8.09012
▁well	-8.0907
▁countr	-8.09695
▁vote	-8.09927
▁play	-8.09958
gan	-8.09989
land	-8.10328
▁claim	-8.10907
▁She	-8.11129
▁price	-8.11249
▁remain	-8.11654
▁good	-8.11656
▁Kim	-8.12185
▁members	-8.1229
▁York	-8.12937
▁team	-8.12954
▁And	-8.13392
▁name	-8.1341
▁An	-8.13561
▁This	-8.13683
▁came	-8.13743
▁move	-8.14524
expected	-8.14669
▁add	-8.14753
▁international	-8.15026
▁arm	-8.15131
ever	-8.15474
▁know	-8.15729
▁authorit	-8.15752
▁Lee	-8.15813
▁sever	-8.16268
▁court	-8.16381
▁There	-8.16609
▁even	-8.16686
▁face	-8.16813
▁capital	-8.16843
▁deal	-8.16905
▁H	-8.17266
sterda	-8.17356
▁agenc	-8.1816
▁left	-8.18242
▁try	-8.18255
▁power	-8.18336
▁open	-8.18409
▁change	-8.18867
▁John	-8.18883
▁wom	-8.19324
▁wh	-8.19442
▁ago	-8.19989
▁continue	-8.19994
ame	-8.20205
▁economic	-8.20419
▁night	-8.20957
▁human	-8.2131
▁injur	-8.21943
▁national	-8.22259
▁Pakistan	-8.22593
▁allow	-8.22688
▁ask	-8.22737
▁Democratic	-8.22853
▁later	-8.2289
ers	-8.22989
▁run	-8.23088
▁f	-8.23583
▁Ministr	-8.24128
▁turn	-8.2416
▁On	-8.24362
▁both	-8.24366
▁order	-8.24576
one	-8.25014
▁test	-8.25025
▁w	-8.25117
▁Iran	-8.25185
such	-8.25399
us	-8.25459
▁chief	-8.25889
ation	-8.26368
▁life	-8.26414
istan	-8.26467
▁my	-8.26719
▁effort	-8.27207
▁among	-8.27358
▁own	-8.2764
▁Prime	-8.28105
▁bank	-8.28341
▁result	-8.28556
▁system	-8.28889
day	-8.28964
▁econom	-8.29104
▁business	-8.29467
▁At	-8.29567
▁problem	-8.29619
▁World	-8.30255
▁State	-8.30289
▁service	-8.30391
▁dead	-8.3052
▁appear	-8.3053
▁Roh	-8.30696
h	-8.30749
▁foreign	-8.31105
▁soldier	-8.31315
▁past	-8.31463
▁major	-8.31714
▁earlie	-8.3185
is	-8.31893
▁student	-8.31933
▁hit	-8.32044
▁Police	-8.3258
▁men	-8.32626
▁candidate	-8.32717
▁real	-8.3276
▁militant	-8.32875
▁win	-8.32987
to	-8.33377
▁third	-8.33508
▁L	-8.34014
▁minute	-8.34143
▁concern	-8.34303
▁media	-8.34992
▁main	-8.35115
▁demand	-8.35267
▁opposition	-8.35271
▁fight	-8.35384
▁local	-8.35429
▁record	-8.35466
held	-8.35507
▁Taliban	-8.35596
▁half	-8.35725
ready	-8.35749
▁p	-8.36332
▁few	-8.36404
▁sign	-8.36502
▁your	-8.36728
▁leaders	-8.36925
▁weapon	-8.37059
▁That	-8.37066
▁decision	-8.37223
▁protest	-8.37535
▁F	-8.37768
self	-8.37819
▁question	-8.37886
▁put	-8.38045
▁oil	-8.38748
▁don	-8.39048
▁worker	-8.39238
u	-8.39256
▁White	-8.39333
▁morning	-8.39351
▁Palestinian	-8.39555
▁give	-8.39652
▁German	-8.39724
▁final	-8.39863
th	-8.40011
▁McCain	-8.40231
▁region	-8.40274
▁P	-8.40371
▁health	-8.40587
▁reach	-8.40839
▁house	-8.40847
▁train	-8.40896
▁clear	-8.40939
▁money	-8.40955
▁agree	-8.4106
▁Hill	-8.41891
▁law	-8.41909
▁rule	-8.42182
▁increase	-8.42287
ty	-8.42647
▁does	-8.42863
▁If	-8.42891
▁school	-8.42997
▁spokes	-8.42998
▁unti	-8.43503
ten	-8.43741
▁suspect	-8.4405
▁Time	-8.44147
▁financial	-8.4439
▁Al	-8.44541
▁killing	-8.44663
▁building	-8.4471
▁source	-8.45103
▁led	-8.45431
▁water	-8.45477
▁level	-8.45649
head	-8.45651
▁AP	-8.4585
formation	-8.46782
▁strong	-8.46961
taken	-8.47483
▁agreement	-8.47531
▁free	-8.47601
coming	-8.47659
▁hope	-8.47677
▁hospital	-8.47796
▁bomb	-8.47996
▁possibl	-8.48174
▁wound	-8.4854
▁along	-8.48884
▁film	-8.48975
▁Press	-8.49028
▁Jan	-8.49053
▁French	-8.49094
▁line	-8.49329
▁miles	-8.49453
▁term	-8.49472
▁O	-8.49527
▁Israeli	-8.49547
▁become	-8.49658
▁E	-8.49722
▁Israel	-8.49909
▁Sen	-8.50026
▁Beijing	-8.50212
▁keep	-8.50509
▁cut	-8.50759
▁small	-8.5078
▁best	-8.51315
▁Universit	-8.51507
▁eight	-8.51533
▁Barack	-8.5154
▁province	-8.51663
across	-8.51723
▁attempt	-8.52699
▁confirm	-8.52952
▁Secretar	-8.52952
▁b	-8.53016
▁How	-8.5328
yang	-8.53568
▁thi	-8.53649
known	-8.53882
▁consider	-8.5427
▁European	-8.54288
▁video	-8.54793
▁announc	-8.54881
▁operation	-8.54895
▁Web	-8.54987
▁officer	-8.54995
▁space	-8.55358
▁current	-8.55412
▁Depart	-8.55566
▁Russia	-8.55711
each	-8.55814
taking	-8.55917
▁Baghdad	-8.56006
ive	-8.56092
▁offer	-8.56354
▁No	-8.5641
▁conference	-8.56453
▁young	-8.5685
▁travel	-8.56965
▁mak	-8.56972
▁condition	-8.57048
▁person	-8.57169
▁rate	-8.57211
▁great	-8.57409
▁air	-8.57454
▁violen	-8.57596
▁Islam	-8.57619
▁control	-8.57772
um	-8.58174
▁station	-8.58297
go	-8.58614
▁reporter	-8.58671
▁plann	-8.59012
▁border	-8.59024
▁general	-8.59037
▁seven	-8.5923
away	-8.59321
▁me	-8.59345
▁far	-8.59488
▁London	-8.5964
▁investigation	-8.59663
▁include	-8.59665
▁woman	-8.5968
went	-8.60072
▁big	-8.60101
w	-8.60676
▁these	-8.60735
▁One	-8.60873
▁gas	-8.61108
▁action	-8.61191
▁California	-8.61722
▁town	-8.61808
▁administration	-8.61892
▁fund	-8.62114
▁Republican	-8.62374
▁member	-8.62548
▁alleged	-8.6293
▁food	-8.62993
▁full	-8.63034
▁Pyong	-8.63206
▁post	-8.63241
▁article	-8.63463
se	-8.63465
▁might	-8.64063
▁global	-8.6409
▁southern	-8.64284
▁thousand	-8.64302
▁launch	-8.64502
▁live	-8.64571
▁cause	-8.64797
▁grow	-8.64846
▁victim	-8.64927
son	-8.65014
▁Man	-8.65261
▁Foreign	-8.65362
▁safe	-8.65788
▁talk	-8.65983
▁target	-8.66019
▁Internet	-8.66025
▁comment	-8.66068
▁join	-8.66071
age	-8.66351
▁cit	-8.66465
▁outside	-8.67094
nternational	-8.67348
▁got	-8.67364
▁Brita	-8.67484
▁G	-8.6756
▁immediate	-8.67567
▁cris	-8.68112
te	-8.68315
▁here	-8.68793
▁interview	-8.69129
▁France	-8.69373
▁short	-8.69713
▁May	-8.69813
▁key	-8.69913
p	-8.69969
▁March	-8.70061
▁never	-8.70079
▁hold	-8.70159
uar	-8.70173
▁Sept	-8.70785
▁Some	-8.70795
▁center	-8.70801
▁side	-8.70856
▁working	-8.70954
▁Olympic	-8.70969
▁director	-8.70987
▁cost	-8.71308
▁find	-8.71381
▁must	-8.71445
▁Securit	-8.72372
▁provide	-8.72769
BC	-8.73466
▁After	-8.73535
▁June	-8.73561
▁compani	-8.73684
▁shot	-8.73929
▁study	-8.7434
thing	-8.7438
▁race	-8.74512
▁stop	-8.74523
▁civilian	-8.74737
▁fall	-8.74737
▁My	-8.75132
▁America	-8.75156
▁game	-8.75224
▁plane	-8.75298
▁body	-8.75325
▁event	-8.75351
▁Dec	-8.75415
▁Associate	-8.75692
▁newspaper	-8.75701
▁due	-8.75726
▁accus	-8.75958
▁hard	-8.75987
▁Russian	-8.76054
▁For	-8.7611
▁toward	-8.76162
▁thing	-8.76297
▁tell	-8.76312
▁trade	-8.76379
▁anti	-8.76524
▁emergenc	-8.76699
▁Jul	-8.76764
little	-8.7691
cy	-8.76952
▁damage	-8.77145
▁senior	-8.77274
▁mean	-8.77302
▁George	-8.77406
ther	-8.77501
▁central	-8.77796
▁carry	-8.77927
▁share	-8.77963
▁England	-8.78141
▁pay	-8.78306
▁Bank	-8.78408
▁peace	-8.78654
▁measure	-8.78755
▁victor	-8.79137
▁search	-8.79146
▁suicide	-8.79184
ness	-8.79303
▁process	-8.79304
ough	-8.79408
▁Nov	-8.79546
▁interest	-8.79675
▁ruling	-8.79891
▁expect	-8.80044
▁weekend	-8.80162
▁girl	-8.80254
ally	-8.80555
▁list	-8.80795
▁northern	-8.80911
▁Gaza	-8.80929
▁Ap	-8.80953
▁future	-8.8116
▁previous	-8.8116
▁hostage	-8.81172
▁ve	-8.81173
woman	-8.81282
▁lot	-8.8138
▁phone	-8.8139
▁meet	-8.81749
▁involv	-8.82325
ton	-8.82708
▁couple	-8.82714
▁bring	-8.82859
ife	-8.8302
▁movie	-8.83112
▁pass	-8.83265
raf	-8.83307
▁less	-8.83395
▁develop	-8.83439
▁prime	-8.83541
▁com	-8.83837
▁estimate	-8.83904
▁per	-8.83965
▁low	-8.84028
though	-8.84109
▁child	-8.84336
▁age	-8.84461
lost	-8.84476
ril	-8.84577
▁suggest	-8.84746
▁serious	-8.84802
een	-8.84949
ous	-8.85039
▁policy	-8.85164
▁better	-8.85348
▁send	-8.85455
ship	-8.85545
▁goal	-8.85591
▁Congress	-8.85599
▁terrorist	-8.85721
ber	-8.85865
▁dollar	-8.85875
z	-8.86173
▁too	-8.86372
ru	-8.86661
▁hundred	-8.86673
▁Feb	-8.86675
▁strike	-8.86833
▁Musha	-8.8688
▁bill	-8.86901
▁stay	-8.86956
▁sent	-8.87025
▁poll	-8.8719
▁hand	-8.87206
▁Court	-8.8722
▁missile	-8.87239
g	-8.87284
▁storm	-8.87332
urther	-8.87651
▁TV	-8.87866
▁fuel	-8.88033
▁Pa	-8.88107
▁East	-8.88115
hind	-8.88475
▁lawmaker	-8.88582
▁role	-8.88593
▁break	-8.886
▁ga	-8.88614
▁When	-8.88637
▁threat	-8.88855
▁incident	-8.88857
▁heart	-8.88938
eries	-8.88993
▁You	-8.89055
eda	-8.89061
▁threaten	-8.89419
▁direct	-8.8973
ought	-8.898
▁project	-8.89874
▁Europe	-8.89879
▁seek	-8.89883
▁wide	-8.90024
▁His	-8.90096
▁mother	-8.90495
▁father	-8.90899
▁complete	-8.90959
▁announce	-8.91016
▁David	-8.91088
▁important	-8.91102
▁More	-8.91188
▁Asia	-8.91263
or	-8.91386
▁job	-8.91589
▁activit	-8.91728
▁cell	-8.91791
▁City	-8.91924
▁cover	-8.91927
▁soon	-8.92031
▁hav	-8.92405
▁airport	-8.9251
ry	-8.92516
▁season	-8.92605
ard	-8.92769
less	-8.92883
ier	-8.93016
▁round	-8.93214
▁discuss	-8.93315
▁Arm	-8.93474
▁Tw	-8.93591
▁vehicle	-8.93659
▁seat	-8.93665
▁stock	-8.9376
▁light	-8.93836
▁With	-8.93921
▁industry	-8.93949
▁television	-8.9398
▁ground	-8.94034
▁San	-8.94284
ance	-8.94301
▁India	-8.94515
▁executive	-8.94826
▁prison	-8.94827
▁sex	-8.94888
▁inside	-8.95016
▁act	-8.95343
▁accept	-8.954
▁crash	-8.95706
▁press	-8.95809
bout	-8.9585
▁star	-8.95965
▁Democrat	-8.95966
co	-8.96148
na	-8.96371
▁pro	-8.96438
▁computer	-8.96572
▁August	-8.96895
▁Center	-8.9691
▁figure	-8.96956
▁R	-8.96989
▁foot	-8.97091
▁histor	-8.97097
mar	-8.97447
▁organization	-8.97503
▁All	-8.97522
▁front	-8.97797
▁different	-8.9784
▁private	-8.98102
▁mission	-8.98252
by	-8.98371
▁General	-8.98401
▁thought	-8.98598
▁player	-8.98607
▁decade	-8.98705
▁judge	-8.98752
▁step	-8.99044
▁warn	-8.99117
side	-8.99394
▁evidence	-8.99622
▁total	-8.99792
▁count	-8.99926
▁fail	-8.99997
▁conduct	-9.00119
▁resident	-9.00241
▁rebel	-9.00248
▁negotiation	-9.0025
▁voter	-9.00254
▁flight	-9.00261
vez	-9.00298
▁pressure	-9.00398
▁As	-9.00465
▁scientist	-9.00548
▁Australia	-9.00562
▁So	-9.00702
▁south	-9.01032
▁supporter	-9.0142
▁Nation	-9.01472
▁disease	-9.01488
▁message	-9.01518
▁elect	-9.01569
▁Council	-9.01796
▁push	-9.01797
▁room	-9.01906
▁son	-9.02017
▁leave	-9.02107
▁protect	-9.02331
▁despi	-9.02429
▁hyun	-9.02433
▁coast	-9.0262
ri	-9.02731
▁primar	-9.02737
▁expert	-9.02743
▁happen	-9.02839
f	-9.02878
wide	-9.02947
▁spend	-9.03066
amid	-9.03158
▁trip	-9.03406
▁special	-9.03429
▁met	-9.03694
▁speak	-9.03856
▁War	-9.03876
▁risk	-9.04019
▁situation	-9.04019
way	-9.04473
▁ever	-9.0461
▁Angel	-9.04676
▁fell	-9.04696
▁Park	-9.04758
▁Pakistani	-9.04894
▁land	-9.04961
▁communit	-9.05046
▁crew	-9.05316
▁research	-9.05344
▁energ	-9.05448
▁link	-9.05487
▁illegal	-9.05637
▁gain	-9.0574
▁Hama	-9.05757
▁detail	-9.05963
▁loss	-9.05966
▁Florid	-9.05966
▁Octo	-9.05987
▁sell	-9.06123
▁West	-9.06317
▁lower	-9.06477
▁parliament	-9.06595
▁discover	-9.06696
▁Gen	-9.06759
▁friend	-9.06858
▁aim	-9.06883
given	-9.06972
▁pull	-9.07305
▁road	-9.07332
▁walk	-9.0739
▁Senat	-9.07674
▁de	-9.07782
▁request	-9.07947
▁ministr	-9.07947
▁rival	-9.07996
▁stage	-9.08141
▁speech	-9.08281
▁According	-9.08299
▁denie	-9.08311
▁attend	-9.08315
▁nine	-9.08327
▁summit	-9.08351
▁sentence	-9.08352
▁north	-9.08475
▁federal	-9.08617
▁medical	-9.08971
▁mid	-9.08972
▁technolog	-9.0913
▁create	-9.09169
▁Moo	-9.09229
▁Brown	-9.09292
▁Leban	-9.09293
▁lawyer	-9.09301
▁position	-9.09487
▁hotel	-9.09635
▁Thai	-9.09644
▁something	-9.09748
▁enter	-9.09757
▁watch	-9.09788
O	-9.10019
▁stand	-9.1008
▁doctor	-9.10308
▁delegate	-9.10312
▁animal	-9.10323
▁Union	-9.10329
▁decided	-9.10474
▁To	-9.10598
▁UN	-9.10638
▁address	-9.1065
▁Muslim	-9.10655
▁Agenc	-9.10675
▁dozen	-9.10706
▁ll	-9.10864
biggest	-9.10882
yet	-9.10961
▁begin	-9.10991
▁island	-9.1101
▁tri	-9.1117
▁quick	-9.11689
▁crime	-9.117
▁daughter	-9.11861
▁battle	-9.11879
▁Defen	-9.11961
▁word	-9.1202
▁prosecutor	-9.12038
▁rise	-9.12161
▁liv	-9.12223
▁host	-9.12287
▁wor	-9.12354
▁crowd	-9.12395
▁growth	-9.12421
▁ship	-9.12425
▁boy	-9.12478
▁Ric	-9.12606
▁co	-9.12661
▁focus	-9.12683
▁passenger	-9.12734
▁receive	-9.12765
came	-9.12823
▁affect	-9.12851
▁account	-9.12867
▁parent	-9.12948
▁People	-9.13085
▁J	-9.13099
▁tog	-9.13104
▁protester	-9.13125
▁missing	-9.13234
▁express	-9.13576
▁view	-9.13675
▁Asian	-9.13733
▁bus	-9.13755
▁saw	-9.13761
▁chance	-9.14177
▁apparent	-9.14538
▁form	-9.14564
▁product	-9.14575
▁defense	-9.14875
▁fee	-9.1494
▁approv	-9.15011
▁popular	-9.15218
▁treat	-9.15252
▁involve	-9.15436
▁urg	-9.15644
▁online	-9.15831
▁Sarkozy	-9.15937
▁scene	-9.15942
▁reason	-9.16082
▁gett	-9.16131
▁kind	-9.1627
▁prevent	-9.163
▁bombing	-9.16308
▁tax	-9.16345
▁Ki	-9.16349
▁heavy	-9.16662
▁Robert	-9.16663
▁black	-9.1668
▁jail	-9.1668
▁Hong	-9.16686
▁carrie	-9.16723
▁feel	-9.16802
▁Texa	-9.17032
▁Co	-9.17153
▁Earl	-9.17242
ra	-9.1729
▁nomination	-9.17412
▁legal	-9.17657
▁survey	-9.17778
▁match	-9.18094
▁seem	-9.18271
night	-9.18584
▁relations	-9.18778
c	-9.1879
▁credit	-9.18874
▁runn	-9.18981
▁serve	-9.19024
▁destroy	-9.19429
▁pick	-9.19491
▁blood	-9.19556
▁matter	-9.19679
▁Australian	-9.19979
▁Tokyo	-9.19997
▁blast	-9.19998
▁Paul	-9.20005
▁buy	-9.20246
▁warning	-9.2032
▁delay	-9.20375
▁network	-9.20376
▁Authorit	-9.20389
▁fan	-9.20592
▁murder	-9.20743
▁park	-9.20757
▁quarter	-9.20759
▁raise	-9.21101
▁idea	-9.21838
▁Bhut	-9.21898
▁Iranian	-9.21918
▁Cha	-9.22222
ung	-9.22235
▁Pe	-9.22246
▁tour	-9.22582
▁summer	-9.22669
▁coalition	-9.2267
▁Turke	-9.22825
▁bad	-9.23303
▁rescue	-9.23318
▁board	-9.23323
whil	-9.23352
▁Force	-9.23605
▁suffer	-9.23939
▁states	-9.24139
▁title	-9.24232
▁population	-9.24238
▁bid	-9.24245
▁sanction	-9.24263
▁die	-9.24407
▁Paris	-9.24603
▁difficult	-9.24622
▁Cup	-9.24665
▁consumer	-9.24682
▁Los	-9.24806
za	-9.24875
▁firm	-9.25017
▁development	-9.25163
ves	-9.25267
▁schedule	-9.25301
▁document	-9.25333
k	-9.25494
ways	-9.25556
▁Her	-9.25683
▁plant	-9.25721
▁communist	-9.25856
▁image	-9.25858
▁unit	-9.25905
▁trial	-9.26082
▁date	-9.262
▁resolution	-9.26215
▁deep	-9.26326
▁committee	-9.26437
pent	-9.26456
▁story	-9.26481
▁hear	-9.26613
▁average	-9.26687
▁debate	-9.26907
▁appeal	-9.27017
▁chairman	-9.27036
▁publish	-9.27155
el	-9.27191
▁doing	-9.27233
▁ceremon	-9.27422
▁analyst	-9.27427
ful	-9.27774
▁love	-9.27799
▁beat	-9.27846
▁Africa	-9.27941
▁lives	-9.27945
▁cat	-9.282
▁polls	-9.28241
▁letter	-9.28287
▁production	-9.28302
re	-9.28508
▁husband	-9.28647
▁recover	-9.28651
▁Michael	-9.2866
▁c	-9.28766
▁sea	-9.28818
▁contain	-9.28833
▁effect	-9.29039
▁Commission	-9.29058
▁Committee	-9.29058
▁fear	-9.29069
▁intelligen	-9.29071
▁Grand	-9.29379
x	-9.29445
▁book	-9.29481
▁music	-9.29779
▁almo	-9.29822
▁democrac	-9.29886
▁What	-9.29888
▁employee	-9.29889
id	-9.30143
▁shooting	-9.30276
▁dispute	-9.30332
▁sales	-9.3053
▁though	-9.3054
▁wait	-9.30868
▁let	-9.30874
▁store	-9.30877
▁remark	-9.31062
▁moment	-9.31151
▁similar	-9.31227
▁Put	-9.31611
▁drug	-9.31814
▁facilit	-9.31946
▁Per	-9.31956
▁pound	-9.31988
▁Street	-9.31989
truck	-9.31993
▁African	-9.32296
vice	-9.32322
▁present	-9.32621
▁flood	-9.32837
stead	-9.32855
▁Now	-9.32891
▁accident	-9.33036
ia	-9.33167
▁fact	-9.33213
▁identifi	-9.33216
▁Count	-9.33255
▁neighbor	-9.33267
▁caus	-9.33443
ither	-9.33532
▁period	-9.33637
▁journalist	-9.33774
▁Red	-9.34014
▁ra	-9.34093
▁increasing	-9.34133
▁Las	-9.34363
▁Air	-9.34437
▁afternoon	-9.34572
▁Dow	-9.34622
ois	-9.34641
▁majorit	-9.34745
▁Wall	-9.34834
▁field	-9.34875
▁joint	-9.34992
▁English	-9.35005
▁white	-9.35041
▁personal	-9.35067
▁paper	-9.35073
▁tourist	-9.35093
▁reform	-9.3536
▁certain	-9.35443
▁initial	-9.35445
eague	-9.35509
ah	-9.35619
▁rest	-9.35645
▁challenge	-9.35728
▁cross	-9.35732
▁Ban	-9.35752
ar	-9.35755
▁Day	-9.3585
▁kilometer	-9.35884
▁huge	-9.35924
▁mov	-9.35933
▁Kong	-9.36157
▁reject	-9.3627
▁potential	-9.36327
▁NAT	-9.36343
▁annual	-9.36362
▁sexual	-9.36422
▁bodie	-9.36519
▁draw	-9.36632
▁care	-9.36637
▁contract	-9.36637
▁commander	-9.36926
▁detain	-9.37209
giving	-9.37211
▁centur	-9.37219
▁access	-9.37336
▁burn	-9.3736
wood	-9.37496
▁receiv	-9.37611
▁Saudi	-9.37666
▁course	-9.3767
▁finish	-9.37909
▁rally	-9.38132
▁leav	-9.38241
▁exchange	-9.38413
▁contact	-9.38569
▁Service	-9.38569
▁learn	-9.38571
▁poor	-9.38571
▁eastern	-9.38646
▁block	-9.38669
▁driv	-9.38698
▁Be	-9.38756
▁announcement	-9.39135
▁Dr	-9.39182
▁rais	-9.39193
insula	-9.39278
▁design	-9.3939
ler	-9.39409
▁Association	-9.3948
▁ban	-9.39499
▁Mean	-9.39505
▁Indian	-9.39617
▁require	-9.39702
▁wear	-9.39831
▁Turk	-9.39908
▁News	-9.39936
▁Harr	-9.40021
▁patient	-9.40032
ern	-9.40361
▁streets	-9.40391
▁response	-9.40399
▁suspend	-9.40399
▁broke	-9.40463
▁reduce	-9.40516
▁manager	-9.40518
▁deliver	-9.40755
▁progress	-9.40843
▁Assembly	-9.40862
▁investment	-9.40915
▁collapse	-9.40938
▁quot	-9.41133
▁De	-9.4114
▁opening	-9.4123
▁spoke	-9.41282
ong	-9.41397
▁raid	-9.41608
▁Go	-9.41685
▁arriv	-9.41853
▁treatment	-9.41872
▁jobs	-9.41879
▁La	-9.41998
▁forward	-9.42079
▁hearing	-9.42145
▁Illin	-9.422
▁prisoner	-9.42258
▁attorney	-9.42264
▁Taiwan	-9.42264
▁sure	-9.42412
▁availab	-9.42442
▁track	-9.42821
▁lift	-9.43028
time	-9.43117
▁dog	-9.43278
▁single	-9.43401
▁critical	-9.43573
▁material	-9.43682
rought	-9.43738
▁terroris	-9.43776
▁check	-9.43804
▁trad	-9.44032
▁size	-9.44125
▁session	-9.44165
▁understand	-9.4448
▁Arab	-9.44634
▁explosion	-9.44645
▁relationship	-9.44646
▁union	-9.44696
▁probabl	-9.44701
▁Hu	-9.44761
▁staff	-9.44999
▁secretar	-9.4501
▁village	-9.45018
GNP	-9.4514
ley	-9.45428
▁Corp	-9.4559
▁Spa	-9.4593
▁respond	-9.46097
▁allegation	-9.46127
▁Su	-9.46209
▁experience	-9.46233
▁Sea	-9.46369
▁professor	-9.46592
▁Chief	-9.46593
▁Health	-9.46608
▁diplomatic	-9.46623
▁spread	-9.46762
▁relat	-9.46902
▁radio	-9.46932
▁district	-9.47125
▁slow	-9.4718
▁fast	-9.47403
ite	-9.47523
▁Mexic	-9.47524
ING	-9.4757
▁nominee	-9.47579
ir	-9.4774
▁holding	-9.47806
▁Ko	-9.48029
▁success	-9.48049
▁Earth	-9.48078
▁Virginia	-9.48092
▁limit	-9.48094
▁factor	-9.4835
▁partie	-9.48492
▁researcher	-9.48525
▁themsel	-9.48588
▁non	-9.48624
▁abo	-9.48759
▁Bill	-9.48931
▁female	-9.49079
▁senator	-9.49079
▁Chica	-9.49081
▁Italian	-9.49104
▁camp	-9.49217
▁avoid	-9.4942
▁Smith	-9.49571
▁Shiite	-9.49586
▁actual	-9.49587
▁brother	-9.49595
▁winning	-9.49599
special	-9.49707
▁independent	-9.49751
▁responsibilit	-9.50092
▁Middle	-9.50092
oo	-9.50149
▁amount	-9.50162
▁canno	-9.50354
▁sold	-9.504
▁investigat	-9.50448
▁Chung	-9.50605
ASA	-9.50755
▁nothing	-9.50774
▁drive	-9.50959
rising	-9.51103
▁helicopter	-9.51115
▁territor	-9.51115
▁particular	-9.51117
▁secret	-9.5119
done	-9.51215
▁lack	-9.51217
▁tie	-9.51271
▁blame	-9.51436
▁Mo	-9.51496
▁produce	-9.51506
▁award	-9.51551
ory	-9.51648
▁separate	-9.51649
▁citizens	-9.51656
▁lea	-9.52262
▁Most	-9.52304
▁Office	-9.52559
off	-9.52651
▁refus	-9.52654
▁investor	-9.52699
▁relative	-9.52707
▁church	-9.52746
▁committ	-9.52762
▁decline	-9.52914
▁ready	-9.53048
▁movement	-9.53432
body	-9.53477
where	-9.53479
▁Dae	-9.53492
▁Kar	-9.53642
▁insurgent	-9.53719
▁club	-9.53749
▁rare	-9.53787
▁warm	-9.53948
▁St	-9.53955
▁Ital	-9.54062
ak	-9.54097
▁file	-9.54097
▁criminal	-9.54249
▁toll	-9.545
▁Mark	-9.54643
▁Prince	-9.54669
▁range	-9.54721
▁rain	-9.54783
▁data	-9.5482
▁Jones	-9.54824
▁insist	-9.5484
▁gun	-9.55011
▁promise	-9.55087
▁pledge	-9.55193
▁rose	-9.55194
▁resign	-9.55291
▁conservative	-9.55317
▁barrel	-9.55321
▁actor	-9.55405
▁Federal	-9.55467
▁convict	-9.55797
▁maintain	-9.55853
▁Former	-9.55868
▁Western	-9.55871
▁winner	-9.55872
▁gather	-9.56031
▁fly	-9.56093
▁natural	-9.56309
▁common	-9.56396
▁reactor	-9.564
▁camera	-9.56439
▁Group	-9.56442
▁code	-9.56454
▁extend	-9.56562
▁steps	-9.56572
▁boat	-9.56576
▁build	-9.56665
▁worth	-9.56685
▁Dur	-9.5674
aught	-9.56939
▁satellite	-9.56954
kept	-9.56964
▁meter	-9.56997
▁dropp	-9.57162
▁value	-9.57172
▁describe	-9.57242
▁Star	-9.57275
▁approach	-9.57302
▁resume	-9.57386
▁labor	-9.57423
▁earthquake	-9.57483
▁peaceful	-9.57504
▁finding	-9.5768
▁King	-9.57823
▁establish	-9.57906
▁operat	-9.57926
▁bomber	-9.57955
▁owner	-9.58027
▁responsibl	-9.58033
▁condemn	-9.58033
▁Carolina	-9.58043
▁honor	-9.58073
▁Peter	-9.58092
ni	-9.58334
▁review	-9.58588
▁education	-9.58616
▁occurr	-9.58629
▁defeat	-9.58634
▁Shin	-9.58653
▁shut	-9.58722
ie	-9.58837
▁drop	-9.58968
▁fill	-9.59072
▁rock	-9.59097
▁represent	-9.59131
▁contest	-9.59169
▁read	-9.59177
▁additional	-9.59259
▁vot	-9.59506
▁fine	-9.59551
▁truck	-9.59704
▁export	-9.59877
▁universit	-9.60053
▁stopp	-9.60085
▁social	-9.60177
▁Official	-9.60261
▁drink	-9.60261
▁giant	-9.60261
▁prosecution	-9.60264
▁aircraft	-9.60268
▁jump	-9.6028
▁attention	-9.60289
▁abuse	-9.60325
▁massive	-9.60361
▁significant	-9.60371
▁voice	-9.60418
▁original	-9.60464
▁Uri	-9.60466
▁broadcast	-9.60601
upreme	-9.60652
▁accuse	-9.60715
ware	-9.60792
▁envoy	-9.60826
▁deput	-9.6083
▁quit	-9.60842
▁mail	-9.60893
▁born	-9.60953
up	-9.6099
▁red	-9.61016
▁visitor	-9.61225
▁releas	-9.6138
▁demonstration	-9.61399
▁EU	-9.61444
oft	-9.61509
▁continu	-9.61592
▁writ	-9.61609
▁kidnapp	-9.61646
low	-9.61882
▁dail	-9.61907
▁ambassador	-9.61966
ney	-9.61969
▁speed	-9.62021
▁normal	-9.62036
▁admitted	-9.62109
UK	-9.6227
▁Other	-9.626
▁Pennsylvania	-9.62767
▁refugee	-9.62815
▁Indonesia	-9.62821
▁corrupt	-9.62887
▁friends	-9.62988
▁Ohio	-9.63119
▁regard	-9.6312
▁Re	-9.63498
▁usual	-9.63708
▁boost	-9.63725
▁driver	-9.63804
▁discussion	-9.63812
hile	-9.63991
▁II	-9.63999
▁En	-9.6404
▁Tibet	-9.64198
▁photo	-9.64284
▁Institute	-9.64285
▁custod	-9.64285
▁prompt	-9.64285
▁brain	-9.64285
▁device	-9.64303
▁provid	-9.64306
men	-9.64372
▁bit	-9.64732
▁evening	-9.64864
▁benefit	-9.64873
▁transport	-9.64873
▁activist	-9.64877
▁department	-9.64884
▁criticism	-9.64885
▁Under	-9.64897
rote	-9.64974
cific	-9.65043
▁declar	-9.65144
▁arrive	-9.65242
▁governor	-9.65252
▁criticiz	-9.65298
▁aide	-9.65378
▁necessar	-9.65465
▁performance	-9.65475
▁marriage	-9.65478
▁Abbas	-9.65541
▁guilt	-9.65617
▁describ	-9.65727
▁score	-9.65944
▁hands	-9.66062
▁cancer	-9.66063
▁index	-9.66094
D	-9.66257
▁terror	-9.66289
rt	-9.66392
▁western	-9.66479
▁Both	-9.66665
▁opportunit	-9.66674
▁customer	-9.66816
most	-9.66997
▁model	-9.67144
▁regime	-9.67256
▁impact	-9.67261
▁holiday	-9.67262
▁surprise	-9.6728
▁investigator	-9.6734
▁hurt	-9.67351
▁Cho	-9.6737
NA	-9.67591
▁explosive	-9.67867
▁monitor	-9.67867
▁beginning	-9.67875
▁scandal	-9.67879
▁politician	-9.67882
▁Feder	-9.6789
▁Jer	-9.68055
▁inter	-9.68078
▁intend	-9.68239
▁schools	-9.68425
▁conflict	-9.68477
▁Le	-9.68542
construction	-9.686
▁career	-9.68719
▁Georgia	-9.68784
▁double	-9.68811
▁card	-9.68922
▁Cabinet	-9.6909
▁kid	-9.69102
▁parliamentar	-9.69122
▁Kurd	-9.69129
▁tough	-9.69132
▁civil	-9.6917
▁weather	-9.69217
▁surger	-9.6943
▁Mosco	-9.69482
BI	-9.69492
▁Island	-9.69763
▁mass	-9.69811
▁Pen	-9.69939
▁bak	-9.69971
▁Micros	-9.70017
▁fighter	-9.70062
▁Ben	-9.70079
nterior	-9.70096
▁Richard	-9.70224
▁negotiator	-9.70345
▁Span	-9.70412
▁sharp	-9.70665
▁repeated	-9.70811
▁airline	-9.70863
ey	-9.70867
▁save	-9.70946
▁language	-9.70954
▁sides	-9.71037
▁formal	-9.71397
▁severe	-9.71495
▁Ky	-9.71572
▁commercial	-9.71588
▁produc	-9.71592
▁Se	-9.7164
▁standard	-9.71728
▁adopt	-9.71749
ian	-9.71872
▁defend	-9.7192
▁polic	-9.72069
ium	-9.7214
▁import	-9.72147
▁Myung	-9.72242
board	-9.72262
▁buil	-9.72282
▁combat	-9.72292
▁proposal	-9.72312
▁ex	-9.72854
▁failure	-9.72855
▁James	-9.72864
▁Marine	-9.73112
▁difference	-9.73494
▁assault	-9.73494
▁Royal	-9.73515
▁justice	-9.73527
▁package	-9.73536
▁Game	-9.73576
▁El	-9.73628
▁replace	-9.73718
▁brief	-9.73951
▁Lad	-9.73967
▁east	-9.74006
▁River	-9.7415
▁games	-9.74305
▁creat	-9.74307
▁Centr	-9.74363
▁mountain	-9.74396
▁Tot	-9.74442
▁stress	-9.74521
▁independen	-9.74575
▁sale	-9.74691
▁pre	-9.747
▁class	-9.74786
▁possibilit	-9.74788
▁panel	-9.7479
▁route	-9.7498
▁improve	-9.75283
▁whom	-9.75387
▁Ali	-9.75646
▁trouble	-9.75676
▁traditional	-9.75771
well	-9.75803
▁wave	-9.76087
▁recall	-9.76101
▁domestic	-9.76102
▁fac	-9.7642
▁author	-9.76443
▁Colombia	-9.76465
▁ice	-9.76528
▁By	-9.7668
▁traffic	-9.76703
BS	-9.76711
▁screen	-9.76729
▁trigger	-9.76762
▁specific	-9.76783
▁answer	-9.76866
abe	-9.76869
▁option	-9.76919
▁resolve	-9.76921
seas	-9.77102
▁maker	-9.77136
▁gold	-9.77234
▁Y	-9.77264
▁soft	-9.77271
▁commission	-9.77278
▁addition	-9.77292
▁Watch	-9.7743
▁quake	-9.77431
▁diplomat	-9.7745
▁penalt	-9.77456
▁violent	-9.77467
▁telephone	-9.77475
▁indicate	-9.77484
▁Mi	-9.77501
▁sound	-9.77523
▁Wa	-9.77582
▁Abe	-9.77746
ters	-9.77951
ist	-9.78006
▁withdraw	-9.78065
▁bas	-9.78409
lbo	-9.78646
▁reveal	-9.78776
▁cash	-9.78776
▁Sunni	-9.78781
▁Holly	-9.78879
▁Th	-9.7898
▁fresh	-9.79456
▁supply	-9.79477
▁Jong	-9.79479
▁street	-9.79648
▁controll	-9.7965
▁baby	-9.7977
ran	-9.80016
▁electric	-9.80166
▁profit	-9.8018
▁snow	-9.80206
TON	-9.8024
▁secure	-9.80415
▁tension	-9.80437
▁middle	-9.80831
▁Prosecutor	-9.80834
▁neighborhood	-9.80834
rew	-9.80956
▁exist	-9.81075
▁prove	-9.81152
▁mind	-9.81316
▁fifth	-9.81526
▁headquarter	-9.81529
▁dangerous	-9.81537
▁Open	-9.8154
▁ran	-9.81541
▁deadline	-9.81547
▁appearance	-9.81588
▁Mary	-9.81716
▁Financ	-9.8178
▁complex	-9.81914
▁industrial	-9.81917
▁Shari	-9.81934
▁regional	-9.82045
▁bridge	-9.82057
▁piece	-9.8216
▁restaurant	-9.82224
▁positive	-9.82224
▁loan	-9.82226
▁Our	-9.82244
town	-9.82274
▁shuttle	-9.82293
▁tree	-9.82331
▁bin	-9.82415
▁Hera	-9.82519
C	-9.82524
▁command	-9.82577
▁Gates	-9.82609
▁struggl	-9.82772
▁Reu	-9.82815
▁respect	-9.82899
▁Research	-9.82939
▁agent	-9.82952
▁forecast	-9.83015
▁apartment	-9.83022
▁capture	-9.8315
▁location	-9.83196
▁teacher	-9.83206
▁feature	-9.83228
▁remove	-9.83234
▁Green	-9.83419
▁fish	-9.83434
▁moon	-9.83446
▁Yah	-9.8352
▁individual	-9.83637
▁Nav	-9.83688
▁vow	-9.83702
▁rank	-9.83725
▁rocket	-9.83736
▁pilot	-9.83742
ergy	-9.84043
▁Desp	-9.84152
▁ID	-9.84255
▁spot	-9.84286
▁college	-9.84352
▁cnn	-9.84353
DON	-9.84356
▁Mug	-9.84358
▁successful	-9.84365
htt	-9.84366
▁powerful	-9.84401
▁Francis	-9.84412
▁perform	-9.84533
▁Olme	-9.84629
nel	-9.8466
▁climat	-9.84691
▁grand	-9.84994
▁Toda	-9.85058
▁Brazil	-9.85064
▁LON	-9.85067
▁astronaut	-9.85071
▁degree	-9.85071
▁anniversar	-9.85091
▁male	-9.85225
▁rape	-9.85384
▁blow	-9.85436
▁environment	-9.85458
▁alliance	-9.85557
▁Even	-9.85562
▁showing	-9.85636
ma	-9.85674
▁urge	-9.85747
▁behavior	-9.85798
▁Justi	-9.86131
▁mark	-9.86153
▁compar	-9.86395
▁zone	-9.86486
▁Christmas	-9.86526
▁advance	-9.86526
▁magazine	-9.8653
▁adviser	-9.86599
▁km	-9.86809
ol	-9.87152
▁flights	-9.87224
▁port	-9.87231
▁confidence	-9.87261
▁expand	-9.87261
▁blue	-9.87261
▁Christophe	-9.87261
▁Since	-9.87292
▁controversial	-9.87357
gone	-9.87361
▁influence	-9.87609
▁fel	-9.87721
▁wrong	-9.87992
▁Whi	-9.88002
▁square	-9.88002
▁display	-9.88002
▁Thre	-9.88006
▁disaster	-9.88013
▁content	-9.88024
▁referr	-9.88039
▁page	-9.88083
▁predict	-9.88089
▁surrounding	-9.88143
▁environmental	-9.88239
▁bear	-9.88291
▁Trade	-9.88542
▁happ	-9.88552
▁Christian	-9.88597
▁High	-9.88625
▁supplie	-9.88661
▁heat	-9.88729
▁entire	-9.88748
▁row	-9.88754
▁else	-9.88761
▁birth	-9.88788
▁straight	-9.88791
▁Blai	-9.88809
▁mine	-9.88842
▁item	-9.88895
ham	-9.88967
▁adult	-9.89028
lew	-9.89033
▁Gold	-9.89102
▁door	-9.89108
▁sleep	-9.89237
▁choice	-9.89241
▁legislati	-9.89486
▁crude	-9.895
▁Yo	-9.89504
▁pack	-9.89504
▁Tibetan	-9.89611
▁virus	-9.89686
▁Burma	-9.89778
▁propos	-9.90184
▁Embass	-9.90257
▁throw	-9.90263
▁Four	-9.90286
▁regular	-9.90326
▁Mad	-9.90339
▁coach	-9.90348
▁welcome	-9.90356
▁famous	-9.90547
▁drugs	-9.90643
▁Vice	-9.90694
▁Po	-9.90768
ea	-9.90777
▁cancel	-9.90807
▁pen	-9.90819
▁transfer	-9.90822
▁govern	-9.90946
▁planet	-9.90987
▁extreme	-9.91021
▁vessel	-9.91021
▁Black	-9.91022
▁Apple	-9.91032
▁Yang	-9.91065
▁type	-9.9115
▁fair	-9.91185
▁user	-9.91223
▁engineer	-9.91242
▁makes	-9.91248
▁twi	-9.91335
▁solution	-9.91362
▁style	-9.91405
▁clean	-9.91531
lso	-9.9172
▁floor	-9.9179
▁ticket	-9.9179
▁Sudan	-9.91792
▁Charles	-9.91815
▁resignation	-9.91827
▁propert	-9.9208
▁whe	-9.92136
▁declare	-9.92177
ch	-9.92182
▁flu	-9.9234
▁Malik	-9.92362
ntagon	-9.92541
▁mosque	-9.92565
▁mobile	-9.92574
▁recession	-9.92574
▁Am	-9.92576
▁abandon	-9.92586
▁explain	-9.92771
la	-9.93004
▁politic	-9.93043
▁Abu	-9.93048
▁William	-9.93186
▁hole	-9.93319
▁competition	-9.93347
▁opinion	-9.93348
▁Oscar	-9.93349
▁fears	-9.93409
▁sometime	-9.93481
▁marri	-9.93523
▁ET	-9.93639
▁schedul	-9.9369
▁Canad	-9.93713
▁asp	-9.93746
▁Tom	-9.93822
▁Hussein	-9.94134
▁affair	-9.94134
▁Communist	-9.94158
▁heavi	-9.94162
ASH	-9.94179
▁seed	-9.94267
▁bann	-9.94331
be	-9.94376
▁flow	-9.94512
▁determine	-9.94644
at	-9.94743
imbabwe	-9.9484
istrict	-9.94885
▁embass	-9.94927
▁surge	-9.94971
▁management	-9.94987
▁kick	-9.95002
▁prepared	-9.95336
IA	-9.95354
▁active	-9.95519
▁true	-9.95584
▁dismiss	-9.95597
▁Gord	-9.95688
▁exile	-9.95733
▁communication	-9.95733
▁Cross	-9.95759
▁green	-9.95859
▁kne	-9.96091
▁wall	-9.96211
▁Steve	-9.9627
▁hop	-9.96334
▁Singapore	-9.96444
▁currenc	-9.96534
▁euro	-9.96537
ta	-9.96725
▁Syria	-9.96925
▁winds	-9.96974
▁doubt	-9.97058
berg	-9.97218
▁presen	-9.97244
▁Church	-9.97347
▁Ronald	-9.97348
▁reflect	-9.97394
▁Human	-9.97416
▁cent	-9.97451
▁gunm	-9.97459
▁setting	-9.97488
back	-9.97523
▁Dian	-9.9765
▁cast	-9.97769
ro	-9.97796
▁Space	-9.97865
▁speci	-9.98074
▁qualit	-9.98165
▁Condoleez	-9.98167
▁societ	-9.98167
▁Kosov	-9.98168
▁enem	-9.98173
▁commitment	-9.98199
▁hair	-9.98287
▁Williams	-9.98336
ification	-9.9836
▁Ne	-9.98437
▁V	-9.98572
▁kidnapping	-9.98646
▁scale	-9.98701
▁tank	-9.98822
▁singer	-9.98935
▁eye	-9.98951
▁Organization	-9.98993
▁losing	-9.98995
▁crackdown	-9.98995
▁riot	-9.99014
▁concert	-9.9902
▁resort	-9.9902
▁Bay	-9.99028
▁serving	-9.99087
▁halt	-9.99115
▁shift	-9.99161
▁tear	-9.99215
▁allie	-9.99267
inhu	-9.99305
▁protection	-9.99321
▁touch	-9.99362
▁photograph	-9.99406
▁effective	-9.99445
▁west	-9.99795
▁Egypt	-9.99819
▁Portug	-9.99828
▁draft	-9.99833
▁correspondent	-9.99834
▁alert	-9.99848
▁Tony	-9.99854
▁sun	-9.99922
▁withdrawal	-9.99984
▁Do	-10.0013
▁Jew	-10.0014
▁Right	-10.0015
▁escape	-10.0016
▁signal	-10.0048
▁southwest	-10.0055
▁Hospital	-10.0067
▁Treasur	-10.0067
▁Soviet	-10.0067
▁Stock	-10.0067
▁eventual	-10.0067
overall	-10.0076
▁critic	-10.0084
▁partner	-10.0087
▁earn	-10.0123
▁complain	-10.013
▁spark	-10.013
it	-10.0132
▁southeast	-10.0133
▁practice	-10.0135
▁smoke	-10.0138
▁whole	-10.0146
▁appoint	-10.0146
▁implement	-10.0151
▁window	-10.0152
▁dialogue	-10.0152
▁sector	-10.0153
▁violation	-10.0156
▁Sever	-10.016
▁Bas	-10.0208
▁counter	-10.0223
mer	-10.0227
▁militia	-10.0237
▁boycott	-10.0237
▁Mr	-10.0239
▁connection	-10.024
▁Madr	-10.0242
▁income	-10.0244
▁version	-10.0246
▁Martin	-10.0262
▁foreigner	-10.0265
▁jet	-10.0267
▁laws	-10.0279
ball	-10.0285
▁favor	-10.0295
▁clashe	-10.0303
▁suffering	-10.0303
▁producer	-10.0304
▁bar	-10.0314
▁deploy	-10.0317
▁promis	-10.0318
▁stem	-10.0321
▁audience	-10.0323
▁delegation	-10.0323
▁CEO	-10.0323
▁Beckham	-10.0323
▁Philippine	-10.0323
▁football	-10.0324
▁sense	-10.0343
ester	-10.0347
▁hunt	-10.0357
▁determined	-10.0358
iz	-10.0369
▁constitution	-10.0385
alone	-10.0392
lief	-10.0402
▁tournament	-10.041
▁various	-10.041
▁Michi	-10.0411
▁freedom	-10.0412
ily	-10.0423
ner	-10.0424
▁casualt	-10.0426
▁shock	-10.0448
▁Dan	-10.0449
▁character	-10.0457
▁probe	-10.0457
▁Del	-10.0466
b	-10.0468
house	-10.0469
drew	-10.0478
▁suit	-10.0482
▁God	-10.0489
▁apolog	-10.0494
▁easi	-10.0496
▁danger	-10.0496
▁fraud	-10.0498
▁unveil	-10.0498
▁Among	-10.0499
▁museum	-10.0501
▁chose	-10.0508
▁march	-10.0508
▁Lone	-10.0513
▁Chen	-10.0519
zai	-10.0529
live	-10.0536
▁Exchange	-10.0586
▁religious	-10.0586
▁electronic	-10.0586
▁Saddam	-10.0586
▁Airport	-10.0587
▁Senator	-10.0593
▁ranking	-10.0594
▁actress	-10.0597
▁Chi	-10.0605
▁cap	-10.0613
un	-10.0615
▁broad	-10.0623
▁self	-10.0627
▁rich	-10.0628
▁forest	-10.0636
▁Hyun	-10.0646
▁Arabia	-10.0647
▁Speak	-10.066
hi	-10.0669
▁slight	-10.0672
▁opponent	-10.0676
▁enjoy	-10.0676
▁Edward	-10.0676
▁Government	-10.0676
▁declaration	-10.0679
▁reaction	-10.0679
▁asset	-10.0684
▁Show	-10.0685
▁stake	-10.0694
▁farmer	-10.073
▁indicat	-10.0747
▁Ji	-10.0753
▁Catholic	-10.0766
▁Simpson	-10.0766
▁Vietnam	-10.0766
▁Kennedy	-10.0766
▁demonstrator	-10.0767
EC	-10.0782
▁shop	-10.0793
▁register	-10.0795
▁worrie	-10.0796
▁river	-10.0823
▁picture	-10.0823
▁ending	-10.0827
▁guard	-10.0838
▁historic	-10.0843
▁fix	-10.0844
▁Republic	-10.0848
▁extra	-10.0854
▁NEW	-10.0857
junta	-10.0858
▁decide	-10.0886
▁Ahmadi	-10.0891
▁sub	-10.0904
▁Every	-10.0911
▁dark	-10.0918
▁Cuba	-10.0922
▁survive	-10.093
▁council	-10.094
▁Affair	-10.0948
▁budget	-10.0949
▁Sadr	-10.095
▁table	-10.095
▁Province	-10.0951
▁teen	-10.0954
▁chang	-10.0956
▁Nad	-10.0958
▁Arizo	-10.096
▁flame	-10.0965
J	-10.097
▁leg	-10.0983
▁impos	-10.0984
▁Don	-10.0989
▁Inc	-10.0991
▁fled	-10.1002
urani	-10.1003
▁Kenya	-10.1011
▁Jose	-10.1016
▁Han	-10.1023
dministration	-10.1033
▁object	-10.1033
▁strateg	-10.1036
▁tape	-10.1036
▁Nicola	-10.1041
▁weight	-10.1041
▁Labor	-10.1041
▁virtual	-10.1042
▁From	-10.1044
▁color	-10.1051
▁orbit	-10.1055
ribal	-10.106
di	-10.1066
▁bag	-10.107
▁hot	-10.1071
▁wealth	-10.1073
▁stoo	-10.1073
using	-10.1077
aks	-10.1088
▁il	-10.1098
▁torch	-10.1102
▁lose	-10.1123
ical	-10.113
▁alcohol	-10.1131
▁edge	-10.1131
▁trust	-10.1132
▁Massac	-10.1134
▁temperature	-10.1135
▁sister	-10.1135
▁Spear	-10.1135
huse	-10.1142
▁Gov	-10.1148
▁ensure	-10.1148
line	-10.1154
▁pictures	-10.1169
▁wing	-10.1175
▁rush	-10.1176
▁wind	-10.121
▁refuse	-10.121
▁Inter	-10.1212
▁dress	-10.1222
▁northeast	-10.1223
▁machine	-10.1229
▁obtain	-10.1229
▁purpose	-10.1229
▁remote	-10.1229
▁enrich	-10.1229
▁Election	-10.1232
▁Teh	-10.1244
▁Ang	-10.1248
▁promote	-10.125
▁statu	-10.1251
▁pain	-10.1262
▁ease	-10.1263
▁climb	-10.127
▁witness	-10.1296
▁studie	-10.1305
▁license	-10.1313
cient	-10.1323
▁prize	-10.1324
▁exact	-10.1324
▁rapid	-10.1324
▁Joong	-10.1324
▁favorite	-10.1326
▁debt	-10.1333
▁mayor	-10.1335
▁g	-10.1337
tan	-10.1338
tts	-10.1341
▁Fat	-10.1345
broad	-10.1346
▁minor	-10.1346
▁complaint	-10.1351
▁artist	-10.1352
▁dut	-10.1357
hire	-10.1357
▁enforce	-10.137
▁taxe	-10.1371
▁art	-10.1374
▁Ni	-10.1383
▁impose	-10.1419
▁trillion	-10.142
▁example	-10.142
▁rallie	-10.142
▁equipment	-10.142
▁Iowa	-10.1421
▁ethnic	-10.1423
▁finance	-10.1424
▁memor	-10.1426
▁jur	-10.1427
▁basic	-10.1431
▁invite	-10.1436
field	-10.1436
▁witnesse	-10.1448
▁box	-10.145
ez	-10.1468
▁trail	-10.1491
ick	-10.1508
▁hous	-10.1516
▁Constitution	-10.1517
▁narrow	-10.1517
▁School	-10.1517
▁crucial	-10.1517
▁trapp	-10.1518
▁broken	-10.1519
▁Of	-10.1522
ogle	-10.1526
▁multi	-10.1527
▁warrant	-10.1532
▁generation	-10.1533
▁Tour	-10.1537
▁culture	-10.1537
▁auto	-10.155
▁leak	-10.156
▁plot	-10.1575
▁Li	-10.1575
▁exercise	-10.1578
▁Super	-10.1583
j	-10.1595
▁Mahmoud	-10.1615
▁subject	-10.1615
▁unemploy	-10.1615
▁representative	-10.1615
▁waters	-10.1615
▁regulation	-10.1616
▁Wi	-10.1617
▁bailout	-10.1617
▁inspector	-10.1617
▁survivor	-10.1619
▁band	-10.1621
▁mile	-10.1622
▁physical	-10.1626
▁speculation	-10.1627
ism	-10.1639
▁strengthen	-10.1641
▁ring	-10.1647
▁encourage	-10.1654
▁cold	-10.1663
ack	-10.1665
▁roll	-10.168
A	-10.1684
▁whale	-10.1687
▁destructi	-10.1691
▁cooperati	-10.1692
▁Samsun	-10.1704
▁highway	-10.1706
orrow	-10.1712
▁oppose	-10.1713
▁invasion	-10.1714
▁magnitude	-10.1714
▁perfect	-10.1714
▁Dutch	-10.1714
▁dream	-10.1715
▁Nevada	-10.1715
▁Economic	-10.1716
▁Sa	-10.1719
▁Mike	-10.172
haps	-10.1729
▁Ma	-10.1734
▁democratic	-10.1735
▁standing	-10.1742
▁surface	-10.1744
▁stars	-10.1767
hua	-10.1794
ter	-10.1797
▁Daniel	-10.1814
▁Nobel	-10.1815
▁Premier	-10.1815
ling	-10.1816
▁outbreak	-10.1817
RK	-10.182
ju	-10.1823
▁founder	-10.1836
▁handed	-10.1842
gun	-10.1844
pool	-10.1861
▁Santa	-10.1862
▁seiz	-10.1862
▁employ	-10.1865
▁spy	-10.1866
F	-10.1871
aba	-10.1881
▁Nepal	-10.1882
ado	-10.1894
▁attract	-10.1912
▁guarantee	-10.1915
▁temporar	-10.1915
▁Governor	-10.1915
▁lawsuit	-10.1915
▁offensive	-10.1916
itarian	-10.1916
▁wake	-10.1916
▁pair	-10.1916
▁investigate	-10.1922
▁calm	-10.1923
EA	-10.1929
▁Ed	-10.1935
▁guy	-10.1937
▁equal	-10.1944
▁king	-10.1948
▁science	-10.1967
▁farm	-10.197
▁putt	-10.1978
surance	-10.1987
▁meant	-10.2005
▁relay	-10.2017
▁reduction	-10.2018
▁visa	-10.2018
▁estate	-10.2018
▁Louis	-10.2018
▁assassination	-10.2018
tomic	-10.2018
▁suburb	-10.2018
▁winter	-10.2024
▁violat	-10.2025
▁transition	-10.2026
ueen	-10.2052
▁ball	-10.2062
▁anger	-10.2062
▁spring	-10.2069
spread	-10.2085
▁Wolf	-10.2086
▁Alaska	-10.2089
▁tons	-10.2089
▁bab	-10.2093
▁apologize	-10.2097
ors	-10.2101
▁modern	-10.2102
ari	-10.2103
▁advantage	-10.212
▁counterpart	-10.212
▁colleague	-10.2121
▁channel	-10.2121
▁restriction	-10.2124
▁fellow	-10.2125
▁wild	-10.2126
▁tight	-10.2132
▁traveler	-10.2137
ond	-10.2143
▁champion	-10.2148
abul	-10.2151
ver	-10.2161
▁Colombian	-10.2167
▁Or	-10.2168
corporate	-10.2173
▁mistake	-10.2194
ota	-10.2194
▁organiz	-10.2202
▁song	-10.2204
▁zoo	-10.2224
▁identify	-10.2225
▁album	-10.2225
▁detention	-10.2225
▁Jackson	-10.2226
▁Vega	-10.2226
▁Bang	-10.2235
▁struggle	-10.2248
▁arrival	-10.2251
▁Che	-10.2267
ur	-10.2275
ha	-10.2282
▁presiden	-10.2294
chi	-10.2294
▁path	-10.2297
▁Un	-10.2301
ani	-10.2312
ground	-10.2314
▁forc	-10.2318
▁Ford	-10.2328
▁runner	-10.2331
▁economist	-10.2334
▁Ri	-10.2335
▁miss	-10.2337
▁Mayor	-10.2338
▁Manch	-10.2339
▁carbon	-10.234
▁batter	-10.2343
ine	-10.2355
▁simpl	-10.2368
▁smok	-10.2378
▁Maca	-10.239
▁Nor	-10.2397
dai	-10.2401
▁angr	-10.2404
▁Venezuela	-10.2406
▁anonym	-10.2435
▁Academ	-10.2436
▁suspicion	-10.2436
▁Science	-10.2436
▁task	-10.2438
▁rough	-10.2439
▁closer	-10.244
undred	-10.244
▁coup	-10.2447
▁purchase	-10.2456
ell	-10.2461
▁Mohamm	-10.2465
▁Northern	-10.2466
▁offering	-10.2484
▁catch	-10.2504
ization	-10.2514
▁chair	-10.254
▁Son	-10.2541
▁monk	-10.2543
▁celebrit	-10.2544
▁associate	-10.2544
▁guest	-10.2544
▁split	-10.2546
▁aware	-10.2548
▁Home	-10.2552
▁Award	-10.2553
▁choose	-10.2559
▁Anna	-10.256
▁Johnson	-10.2561
▁provinc	-10.2578
▁remov	-10.2593
ford	-10.2593
▁recognize	-10.2612
▁hid	-10.263
▁Ukrain	-10.2651
▁permanent	-10.2652
▁Pitt	-10.2652
▁Coast	-10.2653
▁remember	-10.2653
▁feeling	-10.2659
TA	-10.2716
han	-10.2725
▁Indiana	-10.2737
▁buri	-10.2751
▁Ocean	-10.2762
▁label	-10.2763
▁fashion	-10.2766
▁internal	-10.2766
▁highlight	-10.2767
▁teenager	-10.2767
▁medicine	-10.2768
▁grant	-10.2773
▁Big	-10.279
▁mix	-10.28
▁Guard	-10.2808
▁emerg	-10.282
▁sports	-10.2845
▁Duba	-10.286
▁compound	-10.2873
▁sudden	-10.2873
▁technical	-10.2873
▁debut	-10.2873
▁emission	-10.2874
▁Chels	-10.2874
▁Canadian	-10.2874
▁easy	-10.2875
▁professional	-10.2894
llah	-10.2915
ei	-10.2923
▁Real	-10.2937
▁approve	-10.2938
iego	-10.2943
▁freed	-10.2946
ger	-10.2954
▁Malaysia	-10.2956
ami	-10.2962
▁super	-10.2967
▁worse	-10.2968
▁detect	-10.2979
▁erupt	-10.298
▁congress	-10.2986
▁cleric	-10.2986
▁devastat	-10.2986
▁Thomas	-10.2986
▁shelter	-10.2986
▁scor	-10.2986
▁agenda	-10.2986
▁Deput	-10.2986
▁exit	-10.2987
▁profile	-10.2998
▁waste	-10.3005
▁assistant	-10.3005
▁assist	-10.3008
▁landing	-10.3009
▁lay	-10.3013
▁percentage	-10.3028
▁cutt	-10.3039
▁unclea	-10.305
▁convention	-10.3057
▁basi	-10.3062
▁recommend	-10.3098
▁infect	-10.3098
ongo	-10.3098
▁resource	-10.3099
▁principle	-10.3099
▁negative	-10.31
▁renew	-10.31
▁unlike	-10.3101
▁wonder	-10.3103
▁Airline	-10.3103
▁mention	-10.3107
▁shortage	-10.3108
▁Liver	-10.311
ongbyon	-10.3111
▁strain	-10.3112
▁froze	-10.3115
▁Pop	-10.3132
▁Frank	-10.3134
▁Wen	-10.3141
▁oppos	-10.3149
▁Not	-10.3153
▁prepar	-10.3179
▁Easter	-10.3181
ent	-10.3184
▁net	-10.3185
▁tens	-10.3189
alem	-10.3196
▁shape	-10.3203
▁gay	-10.3203
▁harm	-10.3206
olar	-10.3212
▁Potter	-10.3214
▁conspirac	-10.3214
▁auction	-10.3217
▁YO	-10.322
▁constitutional	-10.3238
▁payment	-10.3242
wang	-10.3245
▁Lt	-10.3253
ice	-10.3254
▁ho	-10.3262
▁organizer	-10.3284
▁ways	-10.329
sburg	-10.3301
▁Scot	-10.3311
▁argu	-10.3323
K	-10.3326
▁frequent	-10.3331
▁elder	-10.3333
fare	-10.3338
▁abilit	-10.3342
awa	-10.3343
BA	-10.3344
▁brand	-10.3348
▁ride	-10.3354
▁AI	-10.3356
ept	-10.3357
▁era	-10.3367
▁sort	-10.3371
▁recruit	-10.3384
DS	-10.3398
▁Free	-10.34
▁Sun	-10.3401
▁Mars	-10.3406
▁engine	-10.3414
▁Port	-10.3435
housand	-10.3435
▁via	-10.3441
▁disappoint	-10.3442
▁controvers	-10.3443
▁sh	-10.3445
▁Reserv	-10.3446
▁sky	-10.3448
▁succeed	-10.3448
▁stall	-10.3449
▁Kang	-10.3449
▁Khan	-10.3458
▁introduce	-10.3461
▁evacuate	-10.3484
▁works	-10.3488
▁marked	-10.3492
▁bone	-10.3494
▁acknowledge	-10.3497
mph	-10.3507
▁Miss	-10.3516
▁proper	-10.3526
▁dis	-10.3528
right	-10.3528
work	-10.3537
▁Faye	-10.3546
ural	-10.3563
▁identit	-10.3567
▁unusual	-10.3567
▁McCann	-10.3567
▁element	-10.3567
▁bilateral	-10.3567
▁closing	-10.3568
▁indict	-10.3568
▁Abdullah	-10.3569
▁crack	-10.3571
▁gap	-10.3577
▁Champions	-10.3583
▁Boe	-10.3615
▁divorce	-10.3622
▁plead	-10.3626
▁Just	-10.3633
▁Joe	-10.3638
▁eat	-10.3643
▁beach	-10.3644
ional	-10.3647
▁Over	-10.3648
▁direction	-10.3651
▁participat	-10.3654
▁tall	-10.3656
▁Rock	-10.3661
▁Color	-10.3671
▁sponsor	-10.3676
▁eyes	-10.3678
▁disappear	-10.3686
▁Attorney	-10.3688
▁volunteer	-10.3688
▁Peace	-10.3688
▁bullet	-10.3688
▁pirate	-10.3688
▁Hezb	-10.3688
▁proud	-10.3688
▁First	-10.3689
▁execution	-10.369
▁Law	-10.3692
▁section	-10.3703
▁oust	-10.3706
▁atmospher	-10.3707
▁Chrys	-10.3734
▁fate	-10.3766
▁PC	-10.3772
hairman	-10.3774
oline	-10.3778
ka	-10.3779
▁operate	-10.378
▁books	-10.3788
▁writer	-10.3789
▁explod	-10.3795
▁collect	-10.3799
▁Mila	-10.3802
▁Darfur	-10.381
▁error	-10.381
▁cease	-10.381
▁household	-10.381
▁cheer	-10.381
▁wedding	-10.3811
▁Prize	-10.3811
▁division	-10.3815
▁expectation	-10.3822
▁Fire	-10.3823
over	-10.3826
▁restore	-10.3835
▁sport	-10.3846
dom	-10.385
▁birds	-10.3851
▁manufactur	-10.3853
▁Ro	-10.3864
FA	-10.3873
▁declin	-10.3875
iya	-10.3878
gen	-10.3879
▁sit	-10.388
▁simple	-10.3888
▁royal	-10.389
▁Six	-10.3893
▁Lama	-10.3904
▁strength	-10.3905
▁surround	-10.391
▁Food	-10.3914
▁corner	-10.3916
iana	-10.392
ev	-10.3923
▁mortgage	-10.3933
▁firing	-10.3933
▁hospitaliz	-10.3934
▁Great	-10.3935
▁festival	-10.3936
nhap	-10.3937
▁Young	-10.3939
▁hopeful	-10.394
▁procedure	-10.3941
beth	-10.3945
▁thank	-10.396
▁soar	-10.3962
▁bottle	-10.3963
▁haven	-10.3966
▁roads	-10.3968
▁Venezuelan	-10.3968
▁touris	-10.398
▁Roman	-10.3982
▁blam	-10.3983
tion	-10.3993
azir	-10.3993
▁Sydn	-10.3997
down	-10.3998
▁nominat	-10.4002
▁notice	-10.4004
water	-10.4012
▁chemical	-10.402
▁weak	-10.4023
vill	-10.4031
▁Sean	-10.4035
DC	-10.4043
attle	-10.4045
▁Gulf	-10.4059
▁knee	-10.4063
▁Gonzale	-10.4067
▁bottom	-10.4077
▁root	-10.4077
▁affiliate	-10.4077
ant	-10.4078
▁shoe	-10.4084
▁campus	-10.4084
▁shar	-10.409
▁Gor	-10.4101
▁Dong	-10.4103
▁steppe	-10.4105
▁conclude	-10.4107
▁Indonesian	-10.4123
▁boom	-10.4131
▁manag	-10.4135
▁grave	-10.4146
▁priorit	-10.4152
▁achieve	-10.4158
▁weigh	-10.4166
efore	-10.417
▁Public	-10.4185
▁YouTube	-10.4185
▁alternative	-10.4185
▁convoy	-10.4185
▁method	-10.4185
▁gallon	-10.4185
▁ballot	-10.4185
▁radical	-10.4185
▁prett	-10.4186
▁deployment	-10.4194
▁belong	-10.4194
OP	-10.4199
▁institution	-10.4199
▁theater	-10.4202
▁balance	-10.4213
▁weaken	-10.4214
▁Petra	-10.4216
▁Post	-10.4217
▁participate	-10.4221
▁inflation	-10.4221
ng	-10.4225
▁celebrate	-10.4233
sh	-10.4243
▁Ghaz	-10.4246
▁seal	-10.4264
▁writing	-10.4272
▁cool	-10.4278
ealand	-10.4278
▁gathering	-10.4279
▁assistan	-10.4298
▁convince	-10.4313
▁Square	-10.4313
▁girlfriend	-10.4313
adeleine	-10.4314
▁Berlin	-10.4314
▁sustain	-10.4316
▁boss	-10.432
▁Osam	-10.4321
ious	-10.4328
▁improv	-10.433
▁Dail	-10.4338
efense	-10.4342
▁Year	-10.4345
ersey	-10.4346
upper	-10.4351
▁nam	-10.4366
ilton	-10.437
▁plus	-10.4373
▁charit	-10.4381
▁lock	-10.4385
do	-10.4389
▁shopp	-10.4395
itting	-10.4397
▁Intelligen	-10.44
▁entertain	-10.4402
ne	-10.4402
light	-10.4407
▁fit	-10.4409
▁beating	-10.4411
inches	-10.4415
▁stabili	-10.4439
▁divide	-10.4439
▁PA	-10.4441
▁journey	-10.4443
▁drove	-10.4443
▁vacation	-10.4443
▁select	-10.4445
▁Jesu	-10.4445
▁shout	-10.4448
▁innocent	-10.4448
let	-10.4459
▁stone	-10.4461
▁sw	-10.4462
arah	-10.4466
▁Scott	-10.4469
AG	-10.4474
▁Medic	-10.4476
▁Kerr	-10.4505
▁Argentin	-10.4506
▁Ask	-10.4511
▁Di	-10.452
▁Bosto	-10.4532
▁Pali	-10.4533
▁length	-10.4543
▁fatal	-10.4544
▁Alexand	-10.4547
▁Min	-10.455
▁retir	-10.4552
▁afford	-10.4561
ican	-10.457
▁veteran	-10.4574
▁pump	-10.4574
▁Development	-10.4575
▁absolute	-10.4576
urricane	-10.4577
▁meaning	-10.4578
▁Good	-10.4579
▁dramatic	-10.4579
▁defendant	-10.4581
▁Islamist	-10.4583
▁structure	-10.4607
hud	-10.4619
eus	-10.462
OS	-10.4622
▁Can	-10.4633
▁pose	-10.4654
▁tech	-10.4655
kok	-10.4666
▁reduc	-10.4674
om	-10.4675
▁Bal	-10.4686
▁flee	-10.4689
▁invest	-10.4699
trick	-10.4703
▁experiment	-10.4704
▁cheap	-10.4708
▁landslide	-10.4708
▁acre	-10.4708
▁BEI	-10.4708
▁Investigator	-10.4708
▁storie	-10.4709
▁vast	-10.471
▁cultur	-10.471
▁chain	-10.4711
▁Dala	-10.4713
▁Oil	-10.4713
ence	-10.4713
▁Atlantic	-10.4713
▁Blue	-10.472
▁Still	-10.4723
abilit	-10.4725
▁Tim	-10.474
▁clash	-10.4741
▁carrier	-10.4748
▁settle	-10.4759
▁tradition	-10.4774
▁patrol	-10.4815
▁failing	-10.4816
occer	-10.4821
▁abduct	-10.4829
▁Vladimir	-10.483
▁Major	-10.4835
no	-10.4836
▁palace	-10.4843
▁Women	-10.4843
▁preliminar	-10.4843
▁tsunami	-10.4844
▁argue	-10.4845
▁clinic	-10.4847
▁digital	-10.4852
▁Film	-10.4852
uan	-10.486
▁Though	-10.4861
Y	-10.4868
▁delivery	-10.4879
har	-10.4886
▁dump	-10.4887
▁margin	-10.4894
da	-10.4901
▁IA	-10.4901
▁Song	-10.4923
▁tire	-10.4925
▁listen	-10.4931
▁reading	-10.4933
tiny	-10.4955
▁desert	-10.4973
▁Hamp	-10.4979
fire	-10.4979
▁Michel	-10.498
▁Barcelon	-10.498
▁Representative	-10.498
▁Societ	-10.498
▁client	-10.498
▁automaker	-10.498
▁Eliza	-10.4981
baki	-10.4981
▁Fox	-10.4982
▁pace	-10.4984
▁conversation	-10.4984
▁extremist	-10.4987
▁propose	-10.4993
▁van	-10.4997
▁hung	-10.4997
▁Life	-10.5004
▁jung	-10.5006
▁connect	-10.5019
▁youth	-10.5035
▁mount	-10.5037
▁ill	-10.5041
▁glass	-10.5051
▁Rea	-10.5055
stein	-10.5065
▁acknowledg	-10.5065
▁Col	-10.5068
▁realize	-10.5085
▁Serbia	-10.5089
▁Fed	-10.5091
▁handl	-10.5091
hai	-10.5092
▁nor	-10.5092
▁metal	-10.5113
▁Abdul	-10.5118
▁prospect	-10.5119
▁plastic	-10.5119
▁knowledge	-10.5119
▁dealing	-10.5119
▁Jordan	-10.5119
ejad	-10.512
▁restrict	-10.5126
▁Peru	-10.5132
▁Vat	-10.5134
▁assembly	-10.5147
ana	-10.5154
▁Yoo	-10.5168
▁pregnan	-10.5168
▁guards	-10.5173
▁bound	-10.5184
▁write	-10.5187
▁engag	-10.5193
▁detonat	-10.5195
▁wish	-10.5196
HO	-10.52
▁Jim	-10.5223
▁Od	-10.5225
▁Hen	-10.5232
▁pet	-10.5232
▁clon	-10.5236
▁con	-10.5239
▁Late	-10.5251
▁routine	-10.526
▁circumstance	-10.526
▁Buddhist	-10.526
▁Brazilian	-10.5261
▁punishment	-10.5265
▁pursue	-10.5265
▁accord	-10.5267
▁firefighter	-10.5272
▁Valle	-10.5275
▁slave	-10.5276
evin	-10.5277
▁collection	-10.5279
▁shrine	-10.5281
bed	-10.5281
▁Rome	-10.5291
▁lie	-10.5291
et	-10.5296
▁beef	-10.5312
stance	-10.5318
▁sample	-10.5319
OK	-10.5321
▁battl	-10.5328
▁string	-10.5329
▁seize	-10.5337
▁sensitiv	-10.5339
▁Hall	-10.5352
ach	-10.5378
▁rockets	-10.5383
▁symbol	-10.5395
▁surrender	-10.5402
▁Revolution	-10.5402
▁Hawaii	-10.5403
▁cloud	-10.5403
▁Hotel	-10.5403
▁crop	-10.5403
▁illness	-10.5404
tic	-10.5404
▁handle	-10.5405
▁skin	-10.5407
▁capacit	-10.5407
▁elector	-10.5411
DP	-10.5412
▁peacekeep	-10.5417
HDA	-10.5418
▁Ho	-10.5418
▁Na	-10.5423
▁neck	-10.5424
S	-10.544
▁rang	-10.5446
▁Wh	-10.5454
▁trie	-10.5461
▁engage	-10.5464
▁flag	-10.5483
▁inform	-10.5486
▁Car	-10.5507
enko	-10.551
hattan	-10.5514
▁note	-10.5525
▁Jon	-10.5532
▁stretch	-10.5533
▁televis	-10.5542
▁brutal	-10.5545
▁Scientist	-10.5547
▁squad	-10.5547
▁shirt	-10.5548
▁watchdog	-10.5548
▁drama	-10.5548
▁Analyst	-10.5549
▁airstrike	-10.5549
▁ultimate	-10.5552
▁birthday	-10.5552
▁successor	-10.5553
▁distance	-10.5554
▁disable	-10.5557
▁appointment	-10.5558
▁wage	-10.5561
▁accusation	-10.5562
▁Jak	-10.5563
▁veto	-10.5565
▁Atlant	-10.5577
▁runway	-10.5591
▁Kenyan	-10.5594
▁matche	-10.5633
▁Somali	-10.5642
▁gang	-10.5648
ate	-10.5649
zo	-10.565
▁Morgan	-10.5665
▁bright	-10.5674
▁Polan	-10.5675
▁Van	-10.5677
owitz	-10.5683
lor	-10.569
ina	-10.5691
▁negotiat	-10.5692
▁branch	-10.5694
▁Foundation	-10.5695
KK	-10.5695
▁immigrat	-10.5697
▁sovereign	-10.5699
▁Fund	-10.5702
▁advertis	-10.5707
▁argument	-10.5707
▁Shang	-10.5708
▁Meh	-10.5711
▁nav	-10.5715
▁observer	-10.5716
ated	-10.5721
▁barr	-10.5727
▁pop	-10.5735
▁torture	-10.5748
▁print	-10.5752
▁striker	-10.5755
▁Ca	-10.5756
witz	-10.5769
▁k	-10.5769
▁photographer	-10.5769
▁stadium	-10.5769
▁Gar	-10.5781
il	-10.5785
▁comfort	-10.5801
▁commit	-10.5814
▁Airb	-10.5828
rai	-10.5831
▁install	-10.5835
▁pursu	-10.5838
▁Blago	-10.5844
▁wreck	-10.5844
▁Transport	-10.5844
▁studio	-10.5844
▁captain	-10.5844
▁Egyptian	-10.5845
▁revenue	-10.5845
▁Judge	-10.5845
elta	-10.5846
▁numer	-10.5848
▁strict	-10.5849
▁settlement	-10.5852
▁Gamba	-10.5855
▁typical	-10.5858
▁Dick	-10.5858
arta	-10.5859
▁Chile	-10.5865
tah	-10.5869
ippi	-10.5873
▁Assistan	-10.5874
uh	-10.5877
▁excit	-10.5879
▁transferr	-10.5883
▁Bar	-10.5884
▁briefing	-10.5887
▁expens	-10.5887
▁Mur	-10.5893
led	-10.5895
▁Well	-10.5899
▁manufacturer	-10.5906
tt	-10.5907
▁reserve	-10.5923
▁praise	-10.5928
▁text	-10.5943
▁Moham	-10.5955
▁cable	-10.5962
rice	-10.5978
▁truth	-10.5987
ay	-10.599
▁locat	-10.5991
▁knock	-10.5991
ada	-10.5993
▁dispatch	-10.5995
▁endanger	-10.5995
▁Board	-10.5996
▁queen	-10.5996
▁Columbia	-10.5997
▁inspection	-10.5998
▁peak	-10.5998
▁FTA	-10.5998
▁plu	-10.5998
▁promot	-10.5999
▁Mississ	-10.5999
▁caucuse	-10.6001
▁Congo	-10.6007
▁Stone	-10.601
▁quote	-10.6016
▁mate	-10.6018
▁stole	-10.6019
▁venue	-10.6022
▁Steven	-10.6026
wise	-10.6036
▁criticize	-10.6041
▁Rom	-10.605
▁stimul	-10.6061
▁Men	-10.6065
▁Gree	-10.6075
▁Bob	-10.608
▁shoulder	-10.6084
▁depend	-10.6085
▁Loh	-10.6104
▁Parliament	-10.6106
▁GMT	-10.6112
▁undergo	-10.6117
▁coordinat	-10.6134
▁Elect	-10.614
▁Henr	-10.614
▁negotiate	-10.6142
▁none	-10.6147
▁tool	-10.6149
▁coffee	-10.6149
▁agricultur	-10.6149
▁multiple	-10.6149
▁funeral	-10.6149
▁harsh	-10.6149
▁cabinet	-10.6149
▁inquir	-10.6149
▁passport	-10.615
▁supposed	-10.615
▁switch	-10.6157
▁marine	-10.6159
armament	-10.6161
▁superdelegate	-10.6162
TV	-10.6171
▁Mexican	-10.6176
▁solve	-10.6187
put	-10.6189
▁sailor	-10.619
▁heads	-10.6207
▁blaze	-10.6236
▁divers	-10.6237
▁prepare	-10.6261
▁moderate	-10.6261
▁Ja	-10.6261
▁mental	-10.6263
▁intention	-10.6281
▁Art	-10.6286
▁cloth	-10.6287
▁maxim	-10.6305
▁DVD	-10.6305
▁breakthrough	-10.6305
▁false	-10.6305
▁application	-10.6305
▁yellow	-10.6305
▁dinner	-10.6306
▁Castro	-10.6307
▁regulator	-10.6308
▁athlete	-10.631
▁forum	-10.6313
▁indication	-10.6315
▁deny	-10.6319
bai	-10.6334
▁shoot	-10.6337
▁compete	-10.6341
▁entry	-10.6341
▁tip	-10.6342
▁lung	-10.6343
▁yard	-10.635
ullah	-10.6361
ular	-10.6363
▁realit	-10.6369
ade	-10.6383
▁celebrat	-10.6398
▁bird	-10.6403
▁guide	-10.6404
▁earning	-10.6424
▁Stan	-10.6424
▁Ray	-10.6432
▁liter	-10.6433
▁rating	-10.6434
▁mouth	-10.6435
▁dub	-10.6442
ble	-10.6446
▁citizen	-10.6455
▁locate	-10.6457
▁punish	-10.6459
▁breath	-10.646
▁Disney	-10.6461
▁categor	-10.6463
▁Control	-10.6463
HIV	-10.6464
▁Swiss	-10.6464
▁Benedict	-10.6464
▁Staff	-10.6464
▁debri	-10.6464
▁testimon	-10.6465
▁impeach	-10.6465
▁shark	-10.6466
▁Join	-10.647
▁edition	-10.6471
▁diamond	-10.6478
▁intense	-10.6481
▁FAR	-10.6489
▁northwest	-10.65
▁Far	-10.6503
gi	-10.6509
ho	-10.652
▁Gul	-10.6534
▁appropriate	-10.6535
pover	-10.6538
ko	-10.6555
served	-10.6562
▁saving	-10.6567
▁Report	-10.6575
sumption	-10.6578
▁authoriz	-10.6604
▁Ga	-10.6613
▁editor	-10.6622
▁bail	-10.6624
▁Phoeni	-10.6625
▁participant	-10.6625
▁occupation	-10.6625
▁Power	-10.6625
▁benchmark	-10.6625
▁conclusion	-10.6625
▁Director	-10.6625
▁mourn	-10.6626
▁apply	-10.6626
▁nature	-10.6626
▁concrete	-10.6631
erland	-10.6634
▁bitter	-10.6638
▁attitude	-10.6639
▁operator	-10.6639
▁Worker	-10.6648
▁contribute	-10.6656
▁Je	-10.6658
▁hail	-10.6664
▁musical	-10.6675
▁correct	-10.6685
▁Ba	-10.6712
▁Sri	-10.6718
hood	-10.6718
oney	-10.6718
craft	-10.6722
▁react	-10.6724
eath	-10.6732
huan	-10.6742
▁marks	-10.6747
ul	-10.6747
rey	-10.6748
▁Eric	-10.6764
▁generate	-10.6769
▁abus	-10.6779
▁Camp	-10.678
▁disrupt	-10.6784
▁confident	-10.6784
stan	-10.6785
▁genetic	-10.6789
▁Antarctic	-10.6789
▁Rescue	-10.6789
▁verdict	-10.6789
▁boyfriend	-10.6789
▁hurricane	-10.6789
▁ordinar	-10.6789
▁Joseph	-10.679
▁Kingdom	-10.679
▁shareholder	-10.6791
▁barrier	-10.6791
▁fierce	-10.6792
▁faith	-10.6803
▁surviv	-10.6803
rac	-10.6808
▁Brad	-10.681
▁Stephen	-10.6812
▁Mar	-10.6815
▁overwhelming	-10.6838
▁spott	-10.6848
▁Somalia	-10.6848
▁Let	-10.6854
▁Il	-10.6855
▁manage	-10.6865
▁feed	-10.6876
▁bigge	-10.6884
evich	-10.689
▁Maj	-10.6894
ogan	-10.691
▁slipp	-10.6918
▁Austria	-10.6926
▁Mount	-10.6955
▁Journal	-10.6955
▁Ambassador	-10.6956
▁Czech	-10.6956
▁sweep	-10.6956
▁await	-10.6956
▁vital	-10.6956
▁Jeff	-10.6957
▁preparation	-10.696
▁careful	-10.6961
PP	-10.6961
▁Carlo	-10.6961
▁Citi	-10.6967
▁scientific	-10.6972
▁Chris	-10.6977
▁fun	-10.6979
▁substantial	-10.698
▁guns	-10.6983
▁Beach	-10.6987
▁unknown	-10.6989
▁Top	-10.699
▁sick	-10.6993
▁Move	-10.6995
oil	-10.7001
▁Swed	-10.7004
▁Bad	-10.7005
▁copy	-10.7007
▁pitch	-10.7011
▁toxic	-10.7016
▁Bond	-10.7025
ella	-10.7032
▁chao	-10.7064
court	-10.7079
MA	-10.7087
▁Ten	-10.7094
▁thanks	-10.7115
▁Second	-10.7125
▁quiet	-10.7125
▁Tennesse	-10.7125
▁transaction	-10.7125
▁McCorm	-10.7125
▁native	-10.7127
▁Clark	-10.7129
▁Minne	-10.7129
▁odd	-10.7129
▁Case	-10.7132
▁cafe	-10.7138
▁Water	-10.7141
▁surveill	-10.7142
▁Chad	-10.7152
▁Speaker	-10.7157
▁familiar	-10.7161
▁UE	-10.7173
▁pope	-10.7185
▁Oh	-10.7217
▁Act	-10.722
▁whal	-10.7226
▁tackle	-10.7227
▁Larr	-10.7231
quo	-10.7243
▁copie	-10.7245
▁topp	-10.7252
▁Chun	-10.7261
▁convert	-10.7261
GA	-10.7267
▁wood	-10.7268
▁tend	-10.7283
▁consult	-10.7288
▁priva	-10.7294
▁Radio	-10.7298
▁referendum	-10.7298
▁striking	-10.7298
▁compensation	-10.7298
▁departure	-10.7298
▁Museum	-10.7298
▁separatist	-10.7298
▁Jack	-10.7298
▁rumor	-10.7298
▁repair	-10.7304
▁petition	-10.7304
▁Mid	-10.7319
▁frame	-10.7325
cation	-10.7334
▁Nanc	-10.7338
▁Antoni	-10.7338
▁fame	-10.7344
▁Erd	-10.7355
▁Cuban	-10.7355
▁Kent	-10.7356
▁Wine	-10.736
aine	-10.7361
▁broadcaster	-10.7367
▁hitt	-10.7372
eastern	-10.7396
▁featur	-10.7399
▁cruise	-10.7403
▁camps	-10.7422
▁Alex	-10.7449
shore	-10.7452
▁Lake	-10.7453
▁Ryan	-10.7454
lady	-10.7462
▁Emergenc	-10.7473
▁immigrant	-10.7473
▁uniform	-10.7473
▁platform	-10.7473
▁Doctor	-10.7473
▁Championship	-10.7473
▁Eight	-10.7473
▁initiative	-10.7474
▁detainee	-10.7477
▁novel	-10.7479
▁sentiment	-10.7479
▁Global	-10.7479
▁infection	-10.7482
▁Chong	-10.7483
▁reference	-10.7485
▁Kate	-10.749
▁conviction	-10.7492
▁rail	-10.7497
▁slamm	-10.7502
▁miner	-10.7505
▁Officer	-10.7511
▁prayer	-10.7515
ala	-10.7516
▁owners	-10.7521
▁paint	-10.7521
▁shipp	-10.7523
▁Tech	-10.7526
▁newly	-10.7528
▁Long	-10.7534
▁buyer	-10.7536
▁outrage	-10.755
▁journal	-10.7554
angi	-10.7567
▁vi	-10.7584
clusive	-10.7584
▁evacuat	-10.7596
▁stable	-10.7609
▁Libya	-10.7622
ll	-10.7628
▁Bel	-10.7638
▁stands	-10.764
▁Mac	-10.7652
▁imprison	-10.7652
▁reconciliat	-10.7652
▁clock	-10.7652
▁smash	-10.7652
▁crush	-10.7652
▁Rafa	-10.7652
▁loyal	-10.7653
▁chest	-10.7653
▁alarm	-10.7653
▁aggressive	-10.7654
▁Like	-10.7655
▁confrontation	-10.7657
▁contrast	-10.7658
▁classifie	-10.7658
▁Mum	-10.7661
▁chant	-10.7666
▁speaker	-10.7668
▁moral	-10.7677
▁greet	-10.7678
▁cargo	-10.7682
▁Sch	-10.7688
▁Da	-10.7701
▁crossing	-10.7716
iang	-10.7736
▁Airway	-10.7736
▁undermine	-10.7746
▁Mart	-10.7762
▁conclud	-10.7763
▁Sam	-10.7766
▁dominate	-10.7785
ef	-10.7787
▁soil	-10.7793
▁resist	-10.7801
▁painting	-10.7804
▁cave	-10.7815
▁continent	-10.7818
hildren	-10.7818
FP	-10.7827
▁robot	-10.7831
▁spirit	-10.7834
▁gift	-10.7834
▁muscle	-10.7834
▁vaccine	-10.7834
▁retain	-10.7834
▁Roger	-10.7834
▁outcome	-10.7835
▁Donald	-10.7836
▁volcano	-10.7838
▁respective	-10.7839
▁Timor	-10.784
▁urban	-10.784
awi	-10.7842
▁Moore	-10.7843
▁Moon	-10.7846
▁Tsv	-10.7847
▁Andrew	-10.7849
▁Ha	-10.7856
▁shore	-10.786
▁submitt	-10.7863
▁dust	-10.7867
▁essential	-10.7871
▁revive	-10.7871
▁Yi	-10.7877
▁damag	-10.7879
▁donor	-10.7891
▁float	-10.7893
▁skill	-10.7895
▁Pro	-10.7897
▁phase	-10.7904
▁attacker	-10.7911
▁stroke	-10.7915
▁diet	-10.7919
▁Pat	-10.7929
▁Syrian	-10.7929
▁league	-10.7948
▁Ire	-10.7964
▁historical	-10.7966
▁Sir	-10.7974
▁sentenc	-10.7982
▁Capit	-10.7988
sul	-10.7994
▁Jane	-10.7995
▁Bangladesh	-10.7997
ging	-10.7999
▁Den	-10.7999
fi	-10.8
▁demonstrate	-10.8002
▁map	-10.8008
▁spill	-10.8015
▁Civil	-10.8017
▁unrest	-10.8019
▁Education	-10.8019
▁qualify	-10.8019
▁rifle	-10.8019
▁Commerc	-10.8019
▁obvious	-10.8019
▁embryo	-10.8019
▁motion	-10.8019
ANGE	-10.8019
▁Local	-10.8019
▁relocation	-10.802
B	-10.8021
▁Mohammad	-10.8021
▁Bowl	-10.8022
▁Davis	-10.8023
▁lobby	-10.8023
▁Memori	-10.8023
▁liberal	-10.8025
▁slump	-10.8027
▁freeze	-10.8034
▁Hamid	-10.8036
▁bankruptc	-10.8037
▁strip	-10.8039
▁contender	-10.8042
▁Out	-10.8051
▁Seven	-10.8057
▁rat	-10.8057
standing	-10.8066
sky	-10.807
▁Bell	-10.807
▁graduate	-10.8072
▁Har	-10.8073
▁Change	-10.8076
▁Safe	-10.8083
▁clothe	-10.8086
▁Politic	-10.8086
nke	-10.8094
▁Rod	-10.8096
▁Wal	-10.8097
▁trader	-10.8106
▁twin	-10.8107
uri	-10.811
▁drawing	-10.8111
▁Rich	-10.813
erkel	-10.8142
▁Land	-10.815
oit	-10.8153
▁partners	-10.817
▁Murr	-10.8172
ca	-10.8176
▁Lanka	-10.8177
▁prince	-10.8183
▁function	-10.8194
▁Researcher	-10.8205
▁sweet	-10.8208
▁quarterfinal	-10.8208
▁technique	-10.8208
▁caution	-10.8208
▁summon	-10.8208
LES	-10.8208
▁checkpoint	-10.8208
▁creature	-10.8208
▁greenhouse	-10.8209
▁extraordinar	-10.8209
▁Huck	-10.8209
elevision	-10.8209
▁Palac	-10.821
▁Missou	-10.8212
▁consequence	-10.8214
▁curb	-10.8214
olo	-10.8215
▁runoff	-10.8217
▁portion	-10.8222
▁resolv	-10.8223
▁burst	-10.8225
▁rebuild	-10.8234
▁efficient	-10.8238
therland	-10.8239
▁roof	-10.8247
▁villager	-10.8251
▁Ru	-10.8253
▁trend	-10.8265
▁worsen	-10.8266
▁breach	-10.8271
▁bribe	-10.8272
▁civi	-10.8275
▁disclose	-10.8279
▁requir	-10.8281
▁Motor	-10.8283
▁powers	-10.8294
▁Toy	-10.8295
▁wire	-10.8299
▁sole	-10.8313
ible	-10.8321
▁Old	-10.8333
OC	-10.8352
old	-10.8353
tobac	-10.8355
▁lend	-10.8367
▁submit	-10.8377
▁Ala	-10.8379
▁exhibit	-10.8388
▁Mel	-10.8388
▁organ	-10.8392
▁Cruise	-10.84
▁Giuli	-10.84
▁administrative	-10.84
▁globe	-10.84
▁ambush	-10.84
▁pattern	-10.84
▁Darwin	-10.84
▁exposure	-10.84
▁Gyeong	-10.84
▁toilet	-10.84
▁Globe	-10.8401
elphi	-10.8402
▁championship	-10.8403
▁gross	-10.8405
▁robber	-10.8406
▁Warner	-10.8407
▁Barbar	-10.8408
ck	-10.8409
▁Rei	-10.8419
▁assessment	-10.842
▁offender	-10.8424
▁variet	-10.8428
half	-10.843
▁stag	-10.8433
identifie	-10.8434
mbled	-10.8435
▁homeless	-10.8439
lub	-10.8439
▁Yong	-10.8447
▁shield	-10.8452
▁Wale	-10.8454
▁foundation	-10.8459
▁Fi	-10.8462
space	-10.8463
▁inaugurat	-10.8466
▁Lo	-10.8473
ential	-10.8475
▁Phil	-10.8477
ied	-10.8481
▁inch	-10.8482
▁escalat	-10.8485
losi	-10.8486
▁concept	-10.8487
▁Rio	-10.8493
▁Nas	-10.8499
▁liquid	-10.8513
▁upset	-10.8513
EB	-10.8517
▁Northeast	-10.8532
ox	-10.8539
▁aren	-10.8548
▁traffick	-10.8552
▁Jae	-10.8556
▁ignor	-10.8561
▁medal	-10.8569
▁hero	-10.857
▁Rep	-10.8581
▁except	-10.859
P	-10.8592
▁dictator	-10.8595
que	-10.8596
▁Orlean	-10.8596
▁guerrilla	-10.8596
▁minimum	-10.8596
▁Tiger	-10.8596
▁Job	-10.8597
▁Greek	-10.8598
▁earth	-10.8598
▁timetable	-10.8599
▁monkey	-10.8599
▁Snow	-10.86
▁celebration	-10.8603
iness	-10.8603
▁abduction	-10.8604
▁impossibl	-10.8607
▁residence	-10.8608
▁Ra	-10.8611
▁deadlie	-10.8615
▁Kyo	-10.8618
daq	-10.8618
ub	-10.862
▁scheme	-10.8622
▁Whit	-10.8623
▁Me	-10.863
bow	-10.8639
ose	-10.8641
▁fever	-10.8643
fer	-10.8645
▁ski	-10.8646
▁compromise	-10.8654
nak	-10.8659
▁Shara	-10.8661
ting	-10.867
▁relate	-10.8671
▁hall	-10.8683
▁captive	-10.869
▁Ste	-10.87
▁classic	-10.8712
▁mis	-10.8718
▁Te	-10.872
east	-10.8733
▁Detr	-10.8744
▁pray	-10.8749
▁faction	-10.8751
▁Dod	-10.8754
▁overcom	-10.8762
▁Kuwait	-10.8782
▁Serb	-10.8795
tar	-10.8795
▁consecutive	-10.8796
▁clinch	-10.8796
▁Program	-10.8796
▁republic	-10.8796
▁Festiv	-10.8796
▁swimming	-10.8796
▁abortion	-10.8796
▁Winter	-10.8797
▁legend	-10.8797
▁temple	-10.8797
▁aftershock	-10.8797
▁tunnel	-10.8797
▁wireless	-10.8798
▁disappearance	-10.8798
▁Rodrigue	-10.8799
▁launder	-10.88
▁steel	-10.88
▁Rowl	-10.88
▁substance	-10.88
heriff	-10.8802
▁evacuation	-10.8802
▁Critic	-10.8803
▁Light	-10.8803
▁Colleg	-10.8803
▁anticipat	-10.8804
ucky	-10.8807
▁sad	-10.881
▁Rum	-10.8812
▁Simon	-10.8813
▁competitive	-10.8814
▁specialist	-10.8822
▁Metropoli	-10.8831
▁torn	-10.8831
▁turnout	-10.8847
▁denounc	-10.885
▁legs	-10.8856
▁plate	-10.8859
▁proof	-10.8862
▁apart	-10.8863
▁rescuer	-10.8864
▁Mer	-10.8869
▁banner	-10.888
▁Ju	-10.8881
▁mandat	-10.8887
▁Bear	-10.8888
▁Albert	-10.8895
▁Leader	-10.8902
▁Cart	-10.8903
sfeld	-10.8912
▁Bolt	-10.8913
ain	-10.892
ph	-10.893
▁retail	-10.8947
abee	-10.8959
▁restor	-10.8966
▁collaps	-10.8966
▁laugh	-10.8993
▁Latin	-10.8994
▁voluntar	-10.9
▁concession	-10.9
▁encounter	-10.9
▁ocean	-10.9
▁laptop	-10.9
▁Panama	-10.9
▁mortar	-10.9
▁Socialist	-10.9
▁inquest	-10.9
▁Technolog	-10.9
▁obligation	-10.9
▁fulfill	-10.9001
▁stuff	-10.9001
▁offense	-10.9001
ivision	-10.9001
▁cyclone	-10.9001
▁hint	-10.9001
▁Athen	-10.9002
▁Engineer	-10.9003
▁Rose	-10.9004
▁reward	-10.9005
▁jungle	-10.9005
▁fil	-10.9009
▁Week	-10.9012
▁Master	-10.9016
▁ambition	-10.9019
▁Forest	-10.9031
▁donation	-10.9034
▁Pri	-10.9035
▁Mil	-10.9038
▁emotional	-10.9043
▁Sic	-10.9049
▁Rudd	-10.9052
precedent	-10.9052
▁Paulo	-10.9056
hn	-10.9059
▁stick	-10.9061
▁worry	-10.9061
▁OP	-10.9074
▁Ball	-10.9093
▁min	-10.9094
▁Yu	-10.91
▁Motors	-10.9112
the	-10.9112
▁compet	-10.9113
li	-10.912
▁cartoon	-10.9124
▁encourag	-10.9126
▁regret	-10.9139
▁desire	-10.914
▁issu	-10.9146
▁reverse	-10.9152
▁Will	-10.9153
▁comed	-10.9158
▁deliberate	-10.9162
▁designer	-10.9172
▁cow	-10.9187
ties	-10.919
▁icon	-10.9196
▁dry	-10.9204
▁flat	-10.9208
▁semifinal	-10.9208
▁deficit	-10.9208
▁dawn	-10.9208
▁precaution	-10.9208
▁blanket	-10.9208
▁ballistic	-10.9208
▁landmark	-10.9209
▁postpone	-10.9209
▁suspicious	-10.921
▁crown	-10.921
▁smuggl	-10.921
▁Ark	-10.9214
▁meat	-10.9214
▁killer	-10.9217
▁Media	-10.9217
▁turm	-10.9219
▁luck	-10.9222
▁equit	-10.9225
▁Fift	-10.9226
▁tropic	-10.9227
▁Sheriff	-10.923
▁Play	-10.9234
▁Hawk	-10.9236
▁Video	-10.924
▁Dean	-10.9252
ntao	-10.9257
▁attach	-10.9263
▁Malaysian	-10.9264
▁resistan	-10.9272
▁motor	-10.9278
▁viewers	-10.9285
▁compare	-10.929
ntil	-10.9296
▁promotion	-10.9302
▁Ramo	-10.9302
▁homeland	-10.9304
▁documentar	-10.9308
▁interi	-10.9324
▁doors	-10.9325
▁habitat	-10.9337
▁Up	-10.9345
▁sand	-10.9351
▁testify	-10.9359
▁Live	-10.9359
pol	-10.9364
▁oversee	-10.9366
▁wrapp	-10.9382
her	-10.9389
▁occasion	-10.9395
▁Command	-10.9403
▁confess	-10.9416
▁bureau	-10.9419
▁gate	-10.9419
▁su	-10.9419
▁Oklahoma	-10.9421
▁transplant	-10.9421
▁constant	-10.9421
▁cigarette	-10.9421
▁Morning	-10.9421
▁gear	-10.9422
▁wildfire	-10.9422
▁drill	-10.9422
▁Survey	-10.9423
▁Cleve	-10.9423
▁respondent	-10.9423
▁Kansa	-10.9424
ward	-10.9424
▁traged	-10.9425
▁spiritual	-10.9425
▁prominent	-10.9426
▁pollut	-10.9426
▁leftist	-10.943
▁Bei	-10.9433
▁Yel	-10.9434
pov	-10.9437
▁persuade	-10.9437
rctic	-10.9441
▁instance	-10.9443
anagement	-10.945
▁GM	-10.9455
eating	-10.9459
▁Cooper	-10.9459
▁shipment	-10.9461
▁pend	-10.9461
wo	-10.9466
▁Princes	-10.9466
▁mom	-10.9468
▁pledg	-10.947
▁Maria	-10.9487
▁spray	-10.9503
▁Der	-10.9506
▁pour	-10.9519
▁Berna	-10.9521
▁decid	-10.9522
▁core	-10.9522
▁Du	-10.9529
▁coal	-10.9533
▁Hit	-10.9537
▁secular	-10.954
▁replac	-10.9544
▁testif	-10.9571
▁Tay	-10.9572
▁premier	-10.9572
▁belief	-10.9574
▁Main	-10.9575
▁complet	-10.9602
▁Virgin	-10.9622
he	-10.9627
▁prohibit	-10.963
▁confront	-10.9632
▁solid	-10.9633
▁counsel	-10.9633
▁Euro	-10.9633
▁luxur	-10.9638
▁Ecuador	-10.9639
▁relax	-10.9639
▁migrant	-10.9639
▁Ibrahim	-10.9639
bu	-10.9639
▁admission	-10.9639
▁Adam	-10.9639
▁expansion	-10.9639
▁Meet	-10.9639
▁tornado	-10.9639
▁beaut	-10.9639
▁capabilit	-10.9639
▁stepping	-10.964
▁insult	-10.9641
▁urgent	-10.9642
cute	-10.9644
▁Compan	-10.9647
▁railway	-10.9647
▁memorial	-10.965
▁cooperate	-10.965
▁background	-10.965
▁empty	-10.9651
▁Ron	-10.9652
▁Yet	-10.9654
▁presumpti	-10.9657
▁institute	-10.966
▁colon	-10.9661
▁expire	-10.9664
▁flash	-10.967
▁fleet	-10.9678
▁Anders	-10.9682
▁commissioner	-10.9688
eh	-10.9694
ize	-10.9698
▁Line	-10.9699
▁tighten	-10.97
tsin	-10.9705
lated	-10.9712
▁plung	-10.9718
▁Lewis	-10.972
▁Serie	-10.9726
▁estimat	-10.9727
▁fur	-10.9733
wa	-10.9751
older	-10.9753
rich	-10.9769
erson	-10.9776
▁load	-10.9777
▁ruler	-10.978
▁Hud	-10.9782
lum	-10.9799
▁Nine	-10.98
▁custom	-10.9801
ab	-10.9803
▁minorit	-10.9811
▁impo	-10.9814
burg	-10.9819
▁sight	-10.9819
▁Terr	-10.9834
▁denucleariz	-10.9842
▁Hil	-10.9843
▁Yemen	-10.9851
▁wrap	-10.9854
▁interpret	-10.9858
▁consensu	-10.9861
▁hybrid	-10.9861
▁Craig	-10.9861
▁Current	-10.9861
▁extensive	-10.9861
▁scar	-10.9861
▁Follow	-10.9861
▁Consumer	-10.9861
▁unfair	-10.9861
▁hub	-10.9861
▁pipeline	-10.9861
iscons	-10.9861
▁Amazon	-10.9861
▁egg	-10.9861
▁uncover	-10.9862
▁chole	-10.9863
▁medication	-10.9863
kovic	-10.9863
▁Industrial	-10.9865
▁glacier	-10.9866
▁dragg	-10.9866
▁Chance	-10.9867
▁Discover	-10.9868
▁dissident	-10.9868
▁peer	-10.987
▁marking	-10.987
bama	-10.9873
▁Yes	-10.9875
▁Matt	-10.9878
▁nice	-10.9882
▁permissi	-10.9882
▁massacre	-10.9882
▁Fort	-10.9886
▁Tru	-10.9888
uk	-10.9889
FDA	-10.9892
hilad	-10.9895
▁strategic	-10.9896
▁Fortun	-10.9898
math	-10.99
▁lake	-10.9901
▁Gerr	-10.9909
▁Ch	-10.991
▁Woo	-10.9912
band	-10.9912
▁retailer	-10.9919
▁Kun	-10.9922
▁Turn	-10.9924
▁insurgenc	-10.9934
▁theft	-10.9935
▁Thanks	-10.9937
▁distribut	-10.9937
▁expos	-10.9939
▁strand	-10.9945
▁dat	-10.9948
▁Brun	-10.9954
▁Tho	-10.9956
▁ear	-10.9962
▁trick	-10.9964
viation	-10.9966
▁silence	-10.9977
Space	-10.999
▁proceeding	-10.9992
▁da	-10.9998
▁Ahmad	-11.0001
▁plunge	-11.0006
▁happening	-11.0014
▁Pol	-11.0019
uz	-11.0019
ila	-11.002
▁inspire	-11.0028
▁breed	-11.0032
▁violate	-11.0043
▁thin	-11.0046
▁Philip	-11.0062
▁diploma	-11.0066
▁impress	-11.0069
▁grab	-11.0072
ster	-11.0075
▁identifie	-11.0076
▁cry	-11.0076
▁br	-11.0081
▁sect	-11.0083
W	-11.0084
▁predecessor	-11.0088
▁religion	-11.0088
▁tabloid	-11.0088
▁Window	-11.0088
▁Executive	-11.0088
▁infant	-11.0088
▁entrance	-11.0088
▁definite	-11.0089
▁cyber	-11.0089
▁terminal	-11.0089
▁exclusive	-11.009
▁fake	-11.0091
▁Stern	-11.0092
▁cup	-11.0092
▁recommendation	-11.0093
▁Kitt	-11.0095
▁tower	-11.0095
▁overturn	-11.0096
▁swift	-11.0104
▁consistent	-11.0104
▁Warr	-11.0108
▁replacement	-11.011
▁endur	-11.0116
▁Harv	-11.0124
▁suggestion	-11.0136
▁dealers	-11.0138
▁publication	-11.0143
ook	-11.0148
▁unexpected	-11.0154
▁Gala	-11.016
▁Chair	-11.016
▁legitimate	-11.0163
▁coc	-11.0169
ti	-11.0183
E	-11.0192
▁inmate	-11.0201
▁Diya	-11.0207
▁starr	-11.0209
▁deserve	-11.021
▁unna	-11.0213
▁Sung	-11.0218
▁lab	-11.0225
▁wine	-11.0229
▁Rodd	-11.024
▁Broadcast	-11.0255
gt	-11.0256
▁wash	-11.0257
▁champions	-11.0257
me	-11.0259
ants	-11.0289
hook	-11.0291
▁Nigeria	-11.0291
▁caps	-11.0292
▁Fred	-11.0293
ail	-11.0296
▁occur	-11.03
ius	-11.0301
room	-11.0303
▁Bu	-11.0304
▁follower	-11.0318
▁ten	-11.032
▁grenade	-11.0321
▁elephant	-11.0321
▁embarrass	-11.0321
▁Dalla	-11.0321
▁steep	-11.0321
▁Jolie	-11.0321
▁extension	-11.0321
▁zero	-11.0321
▁fault	-11.0321
▁priest	-11.0321
▁bodyguard	-11.0321
▁conservation	-11.0321
▁suspension	-11.0321
▁destination	-11.0321
▁instant	-11.0322
▁panda	-11.0322
▁guideline	-11.0323
▁contribution	-11.0325
▁Jin	-11.0325
▁Kanda	-11.0325
▁blog	-11.0328
▁Liberal	-11.0329
▁wheel	-11.0331
▁jobless	-11.0332
▁snake	-11.0334
▁Sport	-11.034
▁creation	-11.034
▁loud	-11.0342
verish	-11.0344
▁Price	-11.035
FL	-11.0352
▁Milit	-11.0353
▁contractor	-11.0356
▁Rad	-11.0358
lo	-11.0361
▁amendment	-11.0361
hang	-11.0366
rom	-11.0372
umi	-11.0387
▁Twent	-11.0389
▁rubb	-11.0392
▁endorse	-11.0407
itag	-11.0412
▁classe	-11.0429
▁AC	-11.0435
▁Nazi	-11.0436
cut	-11.0442
won	-11.0459
q	-11.0471
▁Base	-11.0472
red	-11.0474
USS	-11.0484
▁Ta	-11.0485
dev	-11.0491
▁dropping	-11.0492
▁exploit	-11.0503
▁golf	-11.0514
▁clip	-11.0526
▁dop	-11.0544
▁transform	-11.0551
▁lender	-11.0552
▁teenage	-11.0552
▁soo	-11.0558
▁bargain	-11.0559
▁genocid	-11.0559
▁unacceptabl	-11.0559
▁videotape	-11.0559
▁volume	-11.0559
▁discount	-11.0559
▁Vermont	-11.0559
▁tiger	-11.0559
▁Katrin	-11.0559
▁tissue	-11.0559
▁pardon	-11.0559
▁prosper	-11.0559
▁Drug	-11.0559
▁Houston	-11.0559
▁shutdown	-11.056
▁Girl	-11.056
▁download	-11.056
▁Puert	-11.056
▁interrogation	-11.056
▁rebound	-11.0562
▁possession	-11.0562
▁Laho	-11.0563
▁vitamin	-11.0567
▁musician	-11.0569
▁advisor	-11.0571
▁influ	-11.0572
▁sheet	-11.058
▁burden	-11.058
▁improvement	-11.0581
▁explode	-11.0587
▁confirmation	-11.0591
▁rent	-11.0595
▁Lib	-11.0598
▁Cold	-11.0604
▁Sang	-11.0605
▁inspir	-11.0607
▁Glas	-11.0608
▁stream	-11.061
▁prior	-11.0611
▁thick	-11.0613
harto	-11.0614
▁advise	-11.0617
▁interior	-11.0633
▁fat	-11.0636
▁Sao	-11.0639
▁Fisher	-11.0649
erald	-11.0651
▁tru	-11.0652
ba	-11.0665
▁broker	-11.0667
HS	-11.0675
▁colonial	-11.0675
▁Wood	-11.0695
▁visibl	-11.0702
ek	-11.0706
llor	-11.0708
▁fatalit	-11.0716
▁hat	-11.072
ament	-11.0722
▁Torre	-11.0725
▁hike	-11.0734
▁trace	-11.0736
group	-11.0737
arachi	-11.0743
▁Love	-11.0743
▁shak	-11.0753
▁passe	-11.0767
▁Nicole	-11.0768
▁KC	-11.0774
orry	-11.0788
itis	-11.0797
▁iron	-11.0801
▁fundamental	-11.0802
▁Electronic	-11.0803
▁absence	-11.0803
▁association	-11.0803
▁component	-11.0803
▁disorder	-11.0803
▁infrastructure	-11.0803
▁monarch	-11.0803
▁regain	-11.0803
munition	-11.0803
▁Pyeong	-11.0803
▁Little	-11.0803
▁Lord	-11.0803
▁Sheikh	-11.0803
▁Witness	-11.0803
▁Brook	-11.0803
▁Emirat	-11.0805
BM	-11.0806
▁vulnerab	-11.0811
▁commuter	-11.0813
▁isolat	-11.0815
▁melt	-11.0817
▁Walter	-11.0818
▁Down	-11.0821
refore	-11.0823
▁gray	-11.0823
▁Ge	-11.0827
▁Vien	-11.0827
▁Guan	-11.0828
▁princess	-11.0834
▁Libyan	-11.0844
vili	-11.0849
onna	-11.0849
▁Lis	-11.085
eva	-11.0851
▁occupie	-11.0855
▁plent	-11.0858
dol	-11.087
▁autonom	-11.0894
▁Hindu	-11.0898
▁flags	-11.09
▁plea	-11.0907
▁habit	-11.0908
▁Ir	-11.0912
▁depress	-11.0913
▁execut	-11.0923
tadium	-11.0932
▁Fosse	-11.0935
fa	-11.0937
▁Alan	-11.0964
▁assure	-11.0964
▁Palm	-11.0976
stream	-11.0999
ildlife	-11.1006
▁flower	-11.1012
ison	-11.103
▁industri	-11.104
▁Econom	-11.1048
▁examin	-11.105
▁Spaniard	-11.1053
▁curfew	-11.1053
▁immun	-11.1053
▁drown	-11.1053
▁reopen	-11.1053
▁Graham	-11.1053
▁taxpayer	-11.1053
▁evil	-11.1053
▁Summer	-11.1053
▁Wilson	-11.1053
▁Recent	-11.1053
▁tomb	-11.1053
▁populat	-11.1054
▁airplane	-11.1054
▁combination	-11.1055
▁unique	-11.1055
▁Cheong	-11.1057
▁outlook	-11.1058
▁hye	-11.1058
mi	-11.1059
▁endorsement	-11.1059
▁Market	-11.1061
port	-11.1061
▁pronounce	-11.1063
▁Ahmed	-11.1064
▁Roma	-11.1067
▁passage	-11.1069
▁dismantle	-11.1071
wine	-11.1071
▁Med	-11.1073
▁Hav	-11.1075
▁grass	-11.1076
▁outlet	-11.1076
SA	-11.1077
▁divid	-11.1081
▁Vis	-11.109
▁goalkeep	-11.1099
indi	-11.11
▁CD	-11.1109
▁Mass	-11.111
▁repeat	-11.1111
▁preserve	-11.1115
▁tanker	-11.1117
▁please	-11.1141
cher	-11.1144
▁tale	-11.1145
▁proceed	-11.1161
▁hide	-11.1166
ett	-11.118
▁Jo	-11.1189
enior	-11.119
▁Bloom	-11.1193
ik	-11.1202
ren	-11.1218
▁beer	-11.1219
▁Clo	-11.1223
▁nei	-11.1231
▁lunch	-11.1232
▁Victoria	-11.1235
ula	-11.1241
▁pleas	-11.1243
▁Geu	-11.1244
▁decrease	-11.1254
our	-11.1254
cia	-11.1257
▁embrace	-11.1268
ilit	-11.1276
▁Gaz	-11.129
▁dismantl	-11.129
ap	-11.1294
▁combine	-11.1302
FK	-11.1304
▁ruin	-11.1305
▁pilgrim	-11.1307
▁pill	-11.1308
▁ambulance	-11.1309
▁iPhone	-11.1309
▁indefinite	-11.1309
▁volatil	-11.1309
▁gradual	-11.1309
▁prestig	-11.1309
▁Jay	-11.1309
▁Communication	-11.1309
▁salmon	-11.1309
▁distress	-11.1309
▁registration	-11.1309
▁Heart	-11.131
▁brick	-11.131
▁prolong	-11.131
▁mask	-11.1311
▁expell	-11.1311
▁Guang	-11.1311
▁tribute	-11.1311
▁Brian	-11.1312
▁midfielder	-11.1312
▁duck	-11.1312
▁joke	-11.1313
▁pornograph	-11.1316
▁Death	-11.1316
▁gesture	-11.1316
latter	-11.1317
▁palm	-11.132
▁rid	-11.1322
▁landscape	-11.1325
▁Who	-11.1326
▁chip	-11.1327
▁intervene	-11.1329
▁accompanie	-11.1331
ova	-11.1334
io	-11.1335
▁headline	-11.1336
▁Mobil	-11.1336
▁comfortabl	-11.1337
▁welcom	-11.1338
▁burial	-11.1339
▁steal	-11.1341
▁pointed	-11.1343
▁deteriorat	-11.1346
iro	-11.1354
▁recording	-11.1356
lov	-11.1356
▁USA	-11.1367
▁refusal	-11.1367
▁afr	-11.1369
ega	-11.1375
anamo	-11.1378
▁Station	-11.1379
▁distribution	-11.1385
▁tent	-11.1388
hiri	-11.1392
long	-11.1403
die	-11.1414
▁towns	-11.142
▁emerge	-11.1421
▁dominat	-11.1428
hu	-11.1428
▁statue	-11.1452
▁closure	-11.1454
ampa	-11.1455
▁Mal	-11.1456
▁Christ	-11.1457
lin	-11.1461
▁circulat	-11.1464
ov	-11.1469
▁meal	-11.1475
▁partial	-11.1481
▁publisher	-11.1482
▁captur	-11.1489
uba	-11.1494
▁bull	-11.1531
▁Holy	-11.1538
▁Uganda	-11.154
▁determin	-11.154
▁bacteria	-11.1546
▁secur	-11.1551
prime	-11.1553
lliance	-11.156
▁Oct	-11.1563
▁Belgi	-11.1564
ological	-11.157
▁Democrac	-11.1572
▁Project	-11.1572
▁incredibl	-11.1572
▁counterfeit	-11.1572
▁Campbell	-11.1572
▁unanimous	-11.1572
▁enormous	-11.1572
▁Weather	-11.1572
remlin	-11.1572
▁comply	-11.1573
▁courage	-11.1573
til	-11.1573
▁Common	-11.1573
▁Index	-11.1574
▁Sevill	-11.1574
▁Bahama	-11.1575
regon	-11.1576
▁analysi	-11.1576
▁Kyung	-11.1577
▁filmmaker	-11.1578
▁Miller	-11.1581
▁surprising	-11.1581
▁designate	-11.1584
ad	-11.1585
▁Kaes	-11.1585
▁mud	-11.1588
▁Expe	-11.159
▁selection	-11.1592
▁engagement	-11.1593
▁descend	-11.1596
ureau	-11.1597
▁ISLA	-11.1598
▁personalit	-11.1598
▁examine	-11.1602
▁clue	-11.1611
▁Pich	-11.1619
▁shell	-11.1623
▁sacrifice	-11.1623
▁primari	-11.1626
▁update	-11.1629
▁Serbian	-11.163
▁rains	-11.1631
▁northwester	-11.1639
▁bee	-11.1642
rut	-11.1642
rbach	-11.1652
▁Gu	-11.1656
▁chas	-11.1659
▁Sha	-11.1662
▁finger	-11.1664
inho	-11.1667
stone	-11.1669
▁kiss	-11.1671
▁optimist	-11.1673
▁Flight	-11.168
▁Mas	-11.1684
xon	-11.1684
cal	-11.169
▁pool	-11.1707
▁Sin	-11.1715
▁accidental	-11.1718
▁mad	-11.173
▁nurse	-11.1732
▁swor	-11.1734
▁Ab	-11.1747
▁Pr	-11.1749
ke	-11.1759
▁Ka	-11.1762
▁deepen	-11.1766
▁launching	-11.1771
kara	-11.1774
▁Kid	-11.1783
uma	-11.1795
▁Boy	-11.1805
▁Burm	-11.1806
▁Gang	-11.1806
▁height	-11.1817
person	-11.1818
rocker	-11.1827
fall	-11.1834
▁Industr	-11.1838
peace	-11.1839
▁Benjamin	-11.1842
▁Kazakh	-11.1842
▁escort	-11.1842
▁mutual	-11.1842
▁principal	-11.1842
▁shrink	-11.1842
▁cautious	-11.1842
▁coincide	-11.1842
▁chamber	-11.1842
▁intervention	-11.1842
▁gunshot	-11.1843
▁captor	-11.1843
▁biologist	-11.1843
▁deadlock	-11.1843
▁excessive	-11.1844
▁honest	-11.1844
▁teeth	-11.1844
▁Ferg	-11.1845
▁telescope	-11.1845
▁acid	-11.1845
▁manipulation	-11.1847
▁Music	-11.1847
▁installation	-11.1847
▁partnership	-11.1847
▁Connecti	-11.1848
▁radi	-11.1849
▁Albanian	-11.1852
▁subway	-11.1852
▁charter	-11.1853
▁slip	-11.1854
▁publicist	-11.1857
▁Relations	-11.1857
ix	-11.1859
▁mood	-11.1861
▁escap	-11.1864
▁yield	-11.1867
▁Protest	-11.1867
▁mere	-11.1869
fish	-11.1874
▁dirt	-11.1875
▁widen	-11.1878
▁wav	-11.1879
▁Ku	-11.189
▁elaborate	-11.1896
IG	-11.1899
nell	-11.1903
onference	-11.1923
rsenal	-11.1927
▁Shah	-11.1928
▁Con	-11.1929
▁craft	-11.1933
▁consum	-11.1937
▁fence	-11.1938
▁bare	-11.1938
YO	-11.1941
▁Merc	-11.1945
DA	-11.1953
▁Luis	-11.1958
tra	-11.196
▁balloon	-11.1964
▁Cate	-11.1968
ue	-11.1968
prom	-11.1984
▁prostitute	-11.1987
▁Kell	-11.1995
▁scrap	-11.2013
val	-11.2015
▁endors	-11.2027
ood	-11.2042
RIS	-11.2049
▁Pav	-11.2055
hannel	-11.2062
▁Football	-11.2081
▁imagine	-11.2084
ider	-11.2086
▁eliminate	-11.2088
▁combin	-11.2089
▁Cambodia	-11.209
all	-11.2093
▁Heav	-11.2093
▁Call	-11.2094
▁permit	-11.2095
▁assume	-11.2095
ga	-11.21
▁portray	-11.2107
▁Cla	-11.2114
▁pig	-11.2115
▁Dakota	-11.212
▁Schwarz	-11.212
▁bolster	-11.212
▁evolution	-11.212
▁incumbent	-11.212
▁anchor	-11.212
▁abolish	-11.212
▁aspect	-11.212
▁dolphin	-11.212
▁poison	-11.212
▁unpopular	-11.212
▁laborator	-11.212
▁elevator	-11.2121
▁reputation	-11.2121
▁retreat	-11.2121
▁recycl	-11.2121
▁classroom	-11.2121
▁probation	-11.2121
▁Operation	-11.2122
▁billionaire	-11.2122
▁desperate	-11.2124
▁racial	-11.2125
OUL	-11.2126
pinion	-11.2127
▁objective	-11.2128
min	-11.2128
▁rigg	-11.2129
▁taste	-11.2129
▁romantic	-11.2129
▁disruption	-11.213
elite	-11.2133
▁Mosqu	-11.2133
ide	-11.2133
TO	-11.2135
▁attraction	-11.2138
▁grabb	-11.214
▁audio	-11.2146
▁chat	-11.2155
phy	-11.2164
UL	-11.2167
▁Ara	-11.2169
▁Yan	-11.2177
▁deposit	-11.2181
how	-11.2186
▁armor	-11.2188
▁Christians	-11.219
posed	-11.2193
▁apologiz	-11.2196
▁swing	-11.2198
▁Town	-11.2201
▁Abou	-11.2204
▁Walk	-11.2206
▁Wu	-11.221
olla	-11.2212
▁ignore	-11.2213
▁circle	-11.2214
▁revis	-11.2223
▁lover	-11.2225
▁Member	-11.2225
▁Cape	-11.2227
▁master	-11.2249
▁hanging	-11.2251
▁canal	-11.2258
▁Argentine	-11.2262
nt	-11.2271
T	-11.2272
▁Cann	-11.2277
aki	-11.2282
▁Thirt	-11.2289
▁Nawa	-11.2294
▁retire	-11.2303
▁pregnanc	-11.2304
ioxid	-11.2313
if	-11.2313
▁rac	-11.2315
▁expense	-11.2322
▁hostil	-11.233
athrow	-11.2331
ONG	-11.2333
try	-11.2345
▁tactic	-11.2346
▁Net	-11.2349
hou	-11.2362
▁Linds	-11.2368
PS	-11.237
▁Did	-11.2372
▁admit	-11.2373
▁financ	-11.2389
skirt	-11.2396
▁adjust	-11.24
▁cook	-11.2401
▁Mont	-11.2403
▁Agricultur	-11.2406
▁comprehensive	-11.2406
▁episode	-11.2406
▁rhetoric	-11.2406
▁candidac	-11.2406
▁legislature	-11.2406
▁motive	-11.2406
▁dinosaur	-11.2406
▁rampage	-11.2408
▁loot	-11.2408
▁academic	-11.2408
gender	-11.2409
▁examination	-11.2409
▁Mountain	-11.2409
▁kidney	-11.2409
▁extinction	-11.2411
egger	-11.2411
mpson	-11.2411
▁borrow	-11.2412
▁guess	-11.2414
▁mall	-11.2415
▁Back	-11.2416
▁Chart	-11.2418
▁Hank	-11.2421
NICE	-11.2427
▁reconstruction	-11.2431
ribbe	-11.2431
hur	-11.2435
piece	-11.2436
▁Marc	-11.2437
▁Mara	-11.2439
▁Bon	-11.2439
▁cult	-11.2447
▁automatic	-11.2451
▁wel	-11.2455
▁Harris	-11.2459
▁Shi	-11.2465
▁Nikk	-11.2475
▁Nur	-11.248
pposition	-11.2481
▁Ship	-11.2481
ola	-11.2482
▁forget	-11.2483
rotti	-11.2485
▁nose	-11.2488
▁Chau	-11.2492
wan	-11.2496
NE	-11.2499
▁venture	-11.2504
nica	-11.2509
▁panic	-11.2509
▁stead	-11.2513
lain	-11.2519
▁Lim	-11.252
▁Chang	-11.2528
▁defender	-11.2529
ailing	-11.2554
▁Berk	-11.2556
▁statistic	-11.2557
▁bow	-11.256
▁Poll	-11.2561
▁SE	-11.2567
▁displac	-11.2568
▁mountains	-11.2576
ribe	-11.2576
▁opposit	-11.2578
oon	-11.2581
▁lad	-11.2597
▁enable	-11.2598
wear	-11.2611
imed	-11.2611
▁spat	-11.2624
▁noon	-11.2631
ral	-11.2637
mura	-11.2653
ries	-11.266
▁jets	-11.2661
nest	-11.2663
▁Read	-11.2665
▁scrambl	-11.2675
▁medic	-11.2677
orta	-11.2678
▁opt	-11.2687
▁posting	-11.2688
aware	-11.269
ansa	-11.269
▁Allen	-11.2696
▁eligib	-11.27
▁equivalent	-11.27
▁phenomen	-11.27
▁unfortunate	-11.27
▁epicenter	-11.27
▁incentive	-11.27
▁wrongdoing	-11.27
▁crunch	-11.27
▁motorcycle	-11.27
▁eager	-11.27
▁slogan	-11.27
▁Beatle	-11.27
▁talent	-11.2701
▁outdoor	-11.2702
droe	-11.2702
▁strategist	-11.2702
LG	-11.2702
▁Bernard	-11.2703
▁MP	-11.2705
▁observation	-11.2705
▁divert	-11.2706
▁arrangement	-11.2706
sterol	-11.2706
▁chicken	-11.2707
prah	-11.2708
▁defector	-11.2708
▁objection	-11.2718
▁Ethiopian	-11.2718
▁attribut	-11.2718
▁vision	-11.2721
▁afterward	-11.2725
▁shelve	-11.2727
▁skull	-11.2729
▁signing	-11.273
▁useful	-11.273
▁Family	-11.273
▁requirement	-11.274
▁Univers	-11.2741
▁Kath	-11.2745
weight	-11.2745
▁Par	-11.2749
▁achiev	-11.2749
▁Richards	-11.2753
▁twist	-11.2755
▁Juan	-11.276
▁teaching	-11.2768
▁limb	-11.278
▁coin	-11.2782
▁str	-11.2784
▁woo	-11.2784
▁marry	-11.2793
▁presum	-11.2801
▁Evere	-11.2804
▁rivers	-11.2812
▁Atlanti	-11.2817
▁brave	-11.2819
ank	-11.2819
ire	-11.2826
▁amaz	-11.2829
▁Parker	-11.283
▁smile	-11.2838
▁fisherm	-11.2845
ink	-11.2845
eological	-11.2848
▁Cole	-11.2851
▁employer	-11.2856
▁arrange	-11.287
▁origin	-11.2873
▁applie	-11.2889
che	-11.2896
▁Dun	-11.2902
mond	-11.2904
front	-11.2909
ux	-11.291
▁Villa	-11.2913
▁parade	-11.2917
▁Musa	-11.2918
▁gre	-11.2926
mouth	-11.2926
bul	-11.2931
▁contribut	-11.2935
▁Dad	-11.2938
▁PM	-11.2938
▁Ke	-11.294
▁Bur	-11.2947
nna	-11.2948
ski	-11.2948
ishu	-11.2956
▁Rob	-11.2962
▁sympath	-11.2965
▁dispos	-11.2968
am	-11.2972
▁introduc	-11.2979
▁reiterat	-11.2987
▁disc	-11.2988
▁hir	-11.2989
roadway	-11.2989
ruz	-11.299
▁Yasu	-11.2991
▁defect	-11.2991
▁exam	-11.2995
▁disagree	-11.2997
▁spectac	-11.2999
ki	-11.3001
▁Rau	-11.3002
▁fertil	-11.3002
▁Preventi	-11.3003
▁overhaul	-11.3003
▁scenario	-11.3003
▁asteroid	-11.3003
▁contaminat	-11.3003
▁sprawl	-11.3003
▁hamper	-11.3003
▁Record	-11.3003
▁carpet	-11.3003
▁pepper	-11.3003
▁boast	-11.3003
▁crocodile	-11.3003
▁breakfast	-11.3003
▁animated	-11.3003
▁Animal	-11.3003
▁anthem	-11.3003
▁Conservative	-11.3003
▁accompany	-11.3004
▁toddler	-11.3004
▁intent	-11.3004
▁bedroom	-11.3004
▁confine	-11.3005
▁legislator	-11.3005
▁Moga	-11.3006
▁Pres	-11.3006
▁assess	-11.3006
▁Wildlife	-11.3008
▁assertion	-11.3008
OSCO	-11.3009
▁revision	-11.301
▁Highway	-11.301
▁magic	-11.301
▁myster	-11.3012
▁approximate	-11.3012
▁Jung	-11.3015
▁smooth	-11.3016
▁Woods	-11.3016
▁eruption	-11.3018
▁challeng	-11.3019
▁par	-11.3019
ncy	-11.3026
▁Helm	-11.3027
▁hometown	-11.3028
▁slam	-11.3029
▁Winf	-11.3029
hkin	-11.3035
▁manner	-11.304
▁concede	-11.3047
hry	-11.3053
▁Fair	-11.3057
▁integr	-11.3058
mus	-11.3059
ge	-11.3059
span	-11.3062
can	-11.3064
▁patroll	-11.3066
judicial	-11.3067
Bay	-11.3069
▁polar	-11.307
▁Cor	-11.3071
▁provider	-11.3076
shi	-11.308
▁defin	-11.3083
▁Amin	-11.3084
ubble	-11.3085
▁spare	-11.3108
▁ideal	-11.3115
▁treasure	-11.312
CI	-11.3123
ja	-11.3143
▁bond	-11.3152
▁refuge	-11.3166
▁Justin	-11.3166
▁slaughter	-11.318
▁Choi	-11.3199
ition	-11.3203
children	-11.3203
▁scare	-11.3206
some	-11.3206
▁Tai	-11.3208
▁boxe	-11.3229
▁Near	-11.3229
yodo	-11.3233
▁communicate	-11.3236
▁subsid	-11.3237
awat	-11.3245
ping	-11.325
▁optimis	-11.3262
▁exporter	-11.3281
▁ambitio	-11.3286
▁remind	-11.3294
AA	-11.3294
▁digit	-11.3296
▁prefer	-11.3297
▁Haiti	-11.3306
▁Sky	-11.3308
▁depict	-11.331
▁depart	-11.331
avour	-11.3312
▁Rove	-11.3315
▁Short	-11.3315
▁surf	-11.3315
▁Travolta	-11.3316
▁appreciate	-11.3316
▁depth	-11.3316
▁explanation	-11.3316
▁mammal	-11.3316
▁tragic	-11.3316
▁unsuccessful	-11.3316
▁imminent	-11.3316
▁Facebook	-11.3316
▁website	-11.3316
▁intensifie	-11.3316
▁incursion	-11.3316
▁tumor	-11.3316
▁Rawal	-11.3316
▁Small	-11.3316
▁haul	-11.3316
▁autops	-11.3316
▁beautiful	-11.3316
▁basket	-11.3316
▁Wayne	-11.3316
▁denial	-11.3316
▁implication	-11.3317
▁laser	-11.3317
▁stronghold	-11.3317
oalition	-11.3317
▁Monet	-11.3317
▁suppress	-11.3318
▁Strip	-11.3318
▁Bruce	-11.3319
▁Springs	-11.332
▁consultation	-11.3321
▁Gibbon	-11.3321
▁mumm	-11.3322
▁Pus	-11.3322
▁fruit	-11.3326
▁astronomer	-11.3327
▁bath	-11.3331
tuck	-11.3331
▁Environmental	-11.3333
zhei	-11.3333
af	-11.3334
▁Jenni	-11.3334
▁Stewar	-11.3334
▁operative	-11.3338
▁leap	-11.334
rts	-11.3341
▁Knight	-11.3343
▁truc	-11.3347
▁Shim	-11.335
▁Bus	-11.3351
▁tea	-11.3352
▁consideration	-11.3358
hal	-11.3359
▁univers	-11.3366
▁Rev	-11.3368
▁Stalin	-11.3369
ang	-11.337
▁proliferat	-11.337
▁acquire	-11.3375
tarian	-11.3387
▁shake	-11.3391
▁pit	-11.3397
feld	-11.3398
▁shooter	-11.34
▁alien	-11.3409
▁topic	-11.3421
▁Shia	-11.3422
endo	-11.3422
▁hire	-11.3427
arian	-11.3437
venge	-11.3439
▁fare	-11.3451
▁sink	-11.3452
itz	-11.3455
▁grade	-11.3459
IFA	-11.3465
▁relie	-11.3465
R	-11.3472
bar	-11.3478
▁Ve	-11.3493
VI	-11.3496
▁stabilize	-11.3496
▁taxi	-11.3498
▁Kam	-11.3499
▁Ende	-11.3502
mann	-11.3513
like	-11.3515
ise	-11.3517
▁hunter	-11.352
war	-11.3529
▁Ph	-11.3532
▁organize	-11.3537
▁fortifi	-11.3541
ago	-11.3546
tte	-11.3552
ara	-11.356
▁Cair	-11.3561
N	-11.3561
▁bind	-11.3561
▁reviv	-11.3572
zens	-11.3573
▁Briton	-11.3579
lone	-11.3581
▁Unit	-11.3585
ision	-11.359
▁forecaster	-11.3598
▁ripp	-11.3601
▁Polic	-11.3603
NU	-11.3607
▁drunk	-11.3609
▁isolate	-11.3619
▁Gay	-11.3625
▁refer	-11.3625
▁extinct	-11.3633
▁exhaust	-11.3636
▁triumph	-11.3638
ino	-11.3638
▁Falluja	-11.3638
▁Margaret	-11.3638
▁Norwegian	-11.3638
▁instrument	-11.3638
▁Detail	-11.3638
▁thorough	-11.3638
▁visual	-11.3638
▁protein	-11.3638
▁Tripoli	-11.3638
▁lieutenant	-11.3638
▁fingerprint	-11.3638
▁swallow	-11.3638
▁Strait	-11.3638
▁mammoth	-11.3638
▁bathroom	-11.3638
▁graphic	-11.3638
▁chapter	-11.3639
▁restart	-11.3639
▁echo	-11.3639
▁pact	-11.3639
▁equipp	-11.3639
▁pension	-11.3639
▁random	-11.364
▁Bryan	-11.364
▁Cultur	-11.364
▁pride	-11.364
▁surpass	-11.364
▁Resident	-11.3641
▁citizenship	-11.3641
▁painful	-11.3641
▁smil	-11.3641
▁McCart	-11.3642
▁merger	-11.3642
▁CIT	-11.3643
▁Auto	-11.3643
▁pirac	-11.3643
▁subsequent	-11.3645
▁Tala	-11.3646
akash	-11.3647
▁reluctant	-11.3648
▁symptom	-11.3649
▁Belgian	-11.3649
▁restructur	-11.3649
▁Eve	-11.3649
▁Hang	-11.3651
roid	-11.3655
▁achievement	-11.3657
ronto	-11.3657
▁Voter	-11.3658
▁survival	-11.3663
▁favorable	-11.3666
▁alter	-11.3666
▁Cristian	-11.367
▁pos	-11.3672
▁lit	-11.3674
▁freez	-11.3677
care	-11.3682
▁supplier	-11.3687
▁Levin	-11.3691
▁Age	-11.3692
▁Mitt	-11.3698
▁Ken	-11.3701
top	-11.3706
ture	-11.3708
vy	-11.3712
▁pure	-11.3717
ax	-11.3726
▁embezzle	-11.3727
abao	-11.3729
nmark	-11.373
▁Mc	-11.3747
▁enhance	-11.3753
▁belt	-11.3773
▁arrang	-11.3775
▁observe	-11.3775
▁Take	-11.3796
▁Schn	-11.3803
▁Anti	-11.3825
▁mandate	-11.3833
▁sec	-11.3836
▁grat	-11.3842
▁dedicat	-11.3862
riding	-11.3863
▁depressi	-11.3876
▁Share	-11.388
yong	-11.3881
▁provision	-11.3887
▁BA	-11.3888
▁imp	-11.3891
▁Beta	-11.3892
▁therap	-11.3897
oxy	-11.3903
tor	-11.391
▁rely	-11.3916
polis	-11.3917
▁complicat	-11.392
turn	-11.392
ura	-11.393
▁prostitut	-11.3935
▁Gus	-11.3942
eira	-11.3944
▁Rain	-11.3946
▁hydro	-11.3965
▁recogni	-11.3967
▁Okinawa	-11.3971
▁epidemic	-11.3971
▁fossil	-11.3971
▁surplus	-11.3971
▁tribunal	-11.3971
▁Express	-11.3971
▁sophisticat	-11.3971
▁utilit	-11.3971
▁verify	-11.3971
▁harbor	-11.3971
▁silent	-11.3971
▁terribl	-11.3971
▁blind	-11.3971
▁ultra	-11.3971
▁ceiling	-11.3972
▁quell	-11.3972
▁Mitchell	-11.3972
▁prescription	-11.3972
▁tentative	-11.3972
▁subsidiar	-11.3972
▁warehouse	-11.3972
▁Convention	-11.3972
▁diabet	-11.3972
▁judgment	-11.3972
▁Southeast	-11.3972
▁textbook	-11.3972
ane	-11.3972
▁Mercur	-11.3973
▁spell	-11.3973
▁Bridge	-11.3973
▁Samarra	-11.3974
▁sack	-11.3976
▁Rita	-11.3976
▁outpost	-11.3977
▁scream	-11.3979
▁adapt	-11.3979
▁Fujimo	-11.3979
▁retirement	-11.398
▁Nick	-11.398
▁Kwang	-11.3981
▁Tayyi	-11.3982
▁Orang	-11.3982
▁typhoon	-11.3986
▁practical	-11.399
▁sideline	-11.399
▁lifetime	-11.399
▁outline	-11.3994
rbil	-11.3996
▁eliminat	-11.4011
▁surgeon	-11.4011
ative	-11.4013
▁jewel	-11.4015
▁Johnsto	-11.4016
▁hip	-11.4018
▁Special	-11.4025
▁belonging	-11.4031
▁Child	-11.4035
▁cooperat	-11.4036
dona	-11.4041
▁plott	-11.4043
▁IM	-11.4048
▁shattered	-11.4051
▁screening	-11.4057
▁revolution	-11.4065
▁coat	-11.4066
▁nin	-11.4068
▁Geit	-11.4074
bani	-11.4081
world	-11.4083
▁Hol	-11.4089
▁lesson	-11.4097
▁ramp	-11.411
ington	-11.4114
▁mob	-11.4118
teria	-11.4124
im	-11.4126
▁execute	-11.4128
▁format	-11.4131
▁captiv	-11.4137
▁mo	-11.4138
▁Gas	-11.414
▁lure	-11.4147
▁Sh	-11.4157
air	-11.4165
▁distribute	-11.4186
▁advocate	-11.42
▁Anne	-11.4203
▁Hari	-11.4214
via	-11.4233
▁Lab	-11.4246
▁deck	-11.4252
▁Rahm	-11.426
▁punch	-11.4264
ague	-11.4278
▁garden	-11.4279
▁hang	-11.4279
▁disarm	-11.4291
▁thrill	-11.43
▁Wild	-11.4301
yphoon	-11.4303
▁Fernand	-11.4306
▁Victor	-11.4307
▁kidnap	-11.4309
▁irregular	-11.4316
elecommunication	-11.4316
▁administrator	-11.4316
▁obstacle	-11.4316
▁pyramid	-11.4316
▁invitation	-11.4316
▁homosexual	-11.4316
▁consent	-11.4316
▁Future	-11.4316
▁grandfather	-11.4316
▁Field	-11.4316
▁Lynch	-11.4316
▁Nelson	-11.4316
▁convey	-11.4316
▁steam	-11.4316
▁hazard	-11.4317
▁physician	-11.4317
▁expedition	-11.4317
▁corporation	-11.4317
▁bonus	-11.4318
▁Lope	-11.4318
▁galax	-11.4318
▁Carac	-11.4318
▁layoff	-11.4319
▁atrocit	-11.4319
▁Fahr	-11.4319
▁Croatia	-11.432
▁steer	-11.432
▁Brother	-11.4321
▁Wang	-11.4322
▁disagreement	-11.4323
▁Susan	-11.4326
▁disturb	-11.4327
▁Wazir	-11.4327
au	-11.4327
▁Fernando	-11.4327
▁Clear	-11.4327
▁symbolic	-11.4327
▁setback	-11.4332
▁centre	-11.4332
▁Linda	-11.4333
▁petrol	-11.4335
▁presentation	-11.4338
▁anonymous	-11.4339
▁purported	-11.4341
▁assert	-11.4343
rmed	-11.4347
▁Dream	-11.4348
▁hate	-11.4353
▁removal	-11.4355
▁snapp	-11.4359
▁epic	-11.436
▁desk	-11.4369
▁expression	-11.437
active	-11.4377
▁smart	-11.4377
▁Austrian	-11.4379
▁AK	-11.4382
▁projection	-11.4387
▁brush	-11.4391
suk	-11.4393
AS	-11.4393
▁chill	-11.4397
yeon	-11.4403
▁lega	-11.4403
va	-11.4406
pe	-11.4407
bank	-11.4411
▁slide	-11.4411
▁Wat	-11.4412
cious	-11.4419
▁premiere	-11.4423
▁antibiotics	-11.4436
▁refiner	-11.4439
▁hol	-11.4442
Barad	-11.4444
▁stunning	-11.4453
▁fl	-11.4458
▁hijack	-11.446
▁inde	-11.446
▁Your	-11.4461
maker	-11.4465
▁None	-11.4473
ped	-11.4476
▁spin	-11.448
▁shopper	-11.4488
heng	-11.449
▁posts	-11.4493
▁bi	-11.4496
ua	-11.4503
arns	-11.4508
▁chase	-11.451
▁grandm	-11.4513
▁informal	-11.4514
enhei	-11.4516
▁Matte	-11.4518
▁exceed	-11.4519
▁BB	-11.4522
nis	-11.4524
▁manipulat	-11.4525
▁concentrate	-11.4527
▁Baq	-11.4531
▁shutt	-11.4532
▁stamp	-11.4556
rmal	-11.4566
▁Jiang	-11.4579
▁slid	-11.458
▁mor	-11.4585
lateral	-11.4587
ged	-11.459
op	-11.4591
▁ray	-11.4595
▁Neb	-11.4602
cantil	-11.4609
lando	-11.4609
▁Arn	-11.461
PA	-11.4618
lie	-11.463
▁coll	-11.4633
▁Harve	-11.4635
▁kyu	-11.4636
▁biolog	-11.4642
▁transit	-11.4642
▁holder	-11.4643
▁sp	-11.4645
ending	-11.4647
▁stripp	-11.4648
▁po	-11.465
llo	-11.4651
▁widow	-11.4652
▁feeding	-11.4653
▁Khali	-11.4655
▁inspect	-11.4663
po	-11.4668
▁addict	-11.4669
bourne	-11.4673
▁Correspondent	-11.4673
▁Enterprise	-11.4673
▁Professor	-11.4673
▁Support	-11.4673
▁brothel	-11.4673
▁condolence	-11.4673
▁paparazz	-11.4673
▁reaffirm	-11.4673
▁plummet	-11.4673
▁Douglas	-11.4673
▁Entertain	-11.4673
▁discharge	-11.4673
▁Sierra	-11.4673
▁impass	-11.4673
▁conceal	-11.4674
▁pistol	-11.4674
▁McDonald	-11.4674
▁ankle	-11.4674
▁predominant	-11.4674
▁archaeologist	-11.4674
▁Network	-11.4674
▁Next	-11.4674
siege	-11.4675
▁Road	-11.4675
▁Niger	-11.4675
▁mild	-11.4675
▁propagand	-11.4675
▁ferry	-11.4675
▁conglomerate	-11.4675
▁Aziz	-11.4676
▁substitute	-11.4676
▁Jeong	-11.4677
▁gravit	-11.4678
▁arson	-11.4678
▁hormone	-11.4678
▁rattl	-11.4679
▁confus	-11.468
obi	-11.468
▁Hassan	-11.4682
▁outlaw	-11.4682
▁chart	-11.4683
▁fortune	-11.4683
▁scrapp	-11.4684
▁Ham	-11.4688
▁Phillip	-11.4688
and	-11.4689
▁knife	-11.4689
▁Greenland	-11.4689
▁Mali	-11.469
▁creative	-11.4691
▁Sex	-11.4691
ocol	-11.4692
nic	-11.4696
▁emphasize	-11.47
▁Gran	-11.4705
▁Jacque	-11.4706
▁Tax	-11.4706
▁conscious	-11.4706
ima	-11.471
▁heighten	-11.4712
▁Cambodian	-11.4712
▁permitt	-11.4714
▁Nigerian	-11.4721
▁Histor	-11.4725
atomic	-11.4737
▁discriminat	-11.474
▁danc	-11.474
▁aggression	-11.475
▁Liber	-11.4751
pl	-11.4755
▁Oma	-11.476
▁Sor	-11.4764
ili	-11.4766
▁cri	-11.477
▁uprising	-11.4771
▁plac	-11.4778
▁Marie	-11.4781
▁nud	-11.4789
▁clay	-11.4793
▁Tut	-11.4793
▁Than	-11.4803
intend	-11.4813
▁happens	-11.4822
kim	-11.4824
▁recogniz	-11.4827
▁Java	-11.4839
▁dense	-11.4841
▁Carl	-11.4842
tha	-11.4848
uke	-11.485
disclose	-11.4861
▁stemm	-11.4862
raw	-11.4862
▁purchas	-11.4865
▁tumbl	-11.4874
▁rans	-11.4889
▁prais	-11.4894
▁Burr	-11.4899
▁Ever	-11.4901
▁revise	-11.4902
▁sensitivit	-11.4916
▁productiv	-11.492
cheon	-11.4924
▁Win	-11.4928
▁surg	-11.4938
▁experienc	-11.4944
▁filing	-11.495
zed	-11.4951
erial	-11.4952
▁Bo	-11.4956
▁Get	-11.4957
▁prov	-11.4964
▁emotion	-11.4978
▁Tropic	-11.4978
▁Em	-11.4981
▁disperse	-11.499
DF	-11.4998
pa	-11.5
▁Ver	-11.5006
aritime	-11.501
▁dance	-11.5011
▁Pan	-11.5013
▁Cooperati	-11.5014
▁dad	-11.5015
▁instruct	-11.5023
▁patien	-11.5025
hill	-11.5025
▁rap	-11.5026
▁caucus	-11.503
▁qualifie	-11.5033
▁swap	-11.5035
▁propelle	-11.5036
artill	-11.5038
ique	-11.5039
▁Columb	-11.504
▁AT	-11.504
▁FTSE	-11.5044
▁Starbuck	-11.5044
▁System	-11.5044
▁automobile	-11.5044
▁catastroph	-11.5044
▁decree	-11.5044
▁mirror	-11.5044
▁refrain	-11.5044
▁pioneer	-11.5044
▁distinct	-11.5044
▁gorilla	-11.5044
▁oath	-11.5044
▁sibling	-11.5044
▁Yankee	-11.5044
▁Deutsch	-11.5044
▁domain	-11.5044
▁nervous	-11.5044
▁throat	-11.5044
▁relevan	-11.5044
▁blockbuster	-11.5044
▁Student	-11.5044
▁libert	-11.5044
▁scatter	-11.5044
▁Bosnia	-11.5044
▁Standard	-11.5044
▁thwart	-11.5045
▁Capt	-11.5045
▁Half	-11.5045
▁pursuit	-11.5045
▁milestone	-11.5046
▁faithful	-11.5046
▁Talk	-11.5046
▁mastermind	-11.5046
▁mediator	-11.5047
▁dug	-11.5047
▁Holland	-11.5047
▁trademark	-11.5047
▁carmaker	-11.5047
▁Lenno	-11.5048
▁flaw	-11.5048
▁trash	-11.5048
▁weakness	-11.5048
▁minus	-11.5049
ternet	-11.5049
CD	-11.505
▁Pal	-11.5051
▁segment	-11.5051
▁Hour	-11.5051
▁inventor	-11.5053
isease	-11.5053
▁polluti	-11.5054
ker	-11.5054
ervie	-11.5055
▁editorial	-11.5055
rada	-11.5058
▁restraint	-11.5059
▁Spitz	-11.506
▁transparent	-11.5061
▁artificial	-11.5061
▁Rick	-11.5062
▁Andre	-11.5062
▁slush	-11.5062
▁mini	-11.5062
▁nois	-11.5062
▁Guin	-11.5068
LC	-11.5068
▁gambl	-11.5071
rugg	-11.5074
gow	-11.5077
▁Perin	-11.5077
▁buzz	-11.5078
▁constitute	-11.5078
▁transmission	-11.5078
▁authorize	-11.5081
teen	-11.5084
ita	-11.5086
▁amnes	-11.5092
▁Twel	-11.5096
▁Head	-11.5098
▁script	-11.51
shed	-11.5102
▁Wool	-11.5104
▁Christi	-11.5106
▁Rat	-11.5121
▁Ya	-11.5122
▁pla	-11.5127
▁designat	-11.5139
▁knowing	-11.5141
▁relieve	-11.5147
▁Bever	-11.5147
▁irresponsibl	-11.5158
hasa	-11.5164
▁electrical	-11.5167
▁hill	-11.5186
hwan	-11.5187
▁jam	-11.5187
▁pants	-11.5188
▁Dok	-11.5188
▁Com	-11.519
▁Edit	-11.519
▁Father	-11.5195
▁Neil	-11.5199
▁FA	-11.5204
▁emb	-11.5216
▁expresse	-11.5218
cliff	-11.5221
▁pipe	-11.5222
▁Never	-11.5232
▁Seren	-11.5247
▁Osa	-11.525
orporation	-11.5255
appropriate	-11.5257
onstruction	-11.5274
dale	-11.5276
▁Dave	-11.5277
▁pave	-11.5285
▁button	-11.5287
▁stunn	-11.5287
v	-11.5288
▁la	-11.5296
▁sighting	-11.5303
▁Matsu	-11.5304
onia	-11.5305
▁Crow	-11.5307
plane	-11.5314
▁Swa	-11.5315
▁Bae	-11.5323
▁exten	-11.5325
▁Gad	-11.5326
▁Dominica	-11.533
▁Gre	-11.5334
▁pile	-11.5336
ini	-11.5336
▁ethic	-11.5351
▁Fa	-11.5356
caust	-11.5367
▁skeptic	-11.5367
▁define	-11.5373
▁Wel	-11.5374
lash	-11.5387
▁Touris	-11.5393
IC	-11.5399
▁Kaz	-11.5401
▁stor	-11.5402
▁slash	-11.5406
aska	-11.5407
ott	-11.5413
▁dam	-11.5419
nshine	-11.542
▁intercept	-11.542
▁infiltrat	-11.5421
▁possess	-11.5423
▁disabl	-11.5423
nant	-11.5425
▁psycholog	-11.5427
▁swim	-11.5428
▁consist	-11.5428
▁Kuznetsov	-11.5428
▁Rhode	-11.5428
▁Unfortunate	-11.5428
▁brilliant	-11.5428
▁marathon	-11.5428
▁nightclub	-11.5428
▁franchise	-11.5428
▁transcript	-11.5428
▁Knut	-11.5428
▁cousin	-11.5428
▁drastic	-11.5428
▁consortium	-11.5429
▁crater	-11.5429
▁servant	-11.5429
▁bride	-11.5429
▁Lawmaker	-11.5429
▁Economist	-11.5429
suf	-11.5429
▁Order	-11.543
▁Room	-11.543
▁intensive	-11.543
▁humor	-11.543
vacu	-11.5431
▁coerc	-11.5432
▁nerve	-11.5433
▁Leonard	-11.5433
▁homicide	-11.5434
▁attractive	-11.5436
▁Electora	-11.5436
▁isolation	-11.5437
assam	-11.5438
▁modest	-11.5442
▁smell	-11.5442
▁representation	-11.5447
▁entitle	-11.5452
▁massage	-11.5457
▁strange	-11.5459
▁Tin	-11.546
▁Class	-11.5462
▁decisive	-11.5464
▁bench	-11.5469
▁Lance	-11.547
▁Along	-11.5475
▁Yush	-11.5476
▁pastor	-11.5479
▁troubl	-11.5479
allah	-11.5479
▁thron	-11.548
▁Aust	-11.548
▁poise	-11.5481
▁Amid	-11.5482
▁drought	-11.5485
▁Ex	-11.5485
▁cycle	-11.5487
▁developer	-11.549
▁Hope	-11.5504
▁Jaz	-11.5506
▁battles	-11.5513
▁Mikh	-11.5516
ARS	-11.5517
▁Midwest	-11.5519
fat	-11.552
BN	-11.5526
▁Jet	-11.5529
▁Any	-11.5531
▁Silv	-11.5533
kov	-11.5534
▁Mayb	-11.5534
▁Mon	-11.5535
▁Roy	-11.5551
ow	-11.5555
▁intens	-11.5558
▁challenger	-11.556
▁uncertaint	-11.5566
▁Gun	-11.5567
EM	-11.5582
▁lion	-11.5583
▁Lev	-11.5586
▁Glen	-11.5593
▁Scor	-11.5595
▁Rail	-11.5599
▁Penn	-11.5624
▁tap	-11.5629
▁bell	-11.563
▁del	-11.5632
▁convene	-11.5632
iscal	-11.5635
▁container	-11.5645
▁Corporat	-11.5645
CC	-11.5646
▁bother	-11.566
ears	-11.5662
power	-11.5664
rous	-11.5666
▁menu	-11.5676
▁Er	-11.5677
strong	-11.5678
▁considerabl	-11.5688
▁shame	-11.569
▁Tae	-11.5696
▁Pl	-11.5697
uperior	-11.57
▁joy	-11.5703
▁char	-11.5707
▁Bart	-11.5714
▁Lat	-11.5715
▁Steel	-11.5738
ill	-11.5739
ji	-11.5739
▁guid	-11.5748
ich	-11.5751
▁stud	-11.576
iest	-11.5766
▁choos	-11.577
ut	-11.5771
ean	-11.5774
▁contend	-11.5779
pper	-11.578
▁Liv	-11.5786
▁vers	-11.5788
▁dignit	-11.5794
▁loose	-11.5798
▁Vol	-11.58
▁Environment	-11.5806
▁OK	-11.5809
▁flick	-11.5811
▁flare	-11.5814
▁acquitt	-11.5815
▁Antho	-11.5815
▁enact	-11.5822
nati	-11.5824
ater	-11.5827
▁Prophet	-11.5828
▁applicant	-11.5828
▁overthrow	-11.5828
▁kilogram	-11.5828
▁streak	-11.5828
▁sufficient	-11.5828
▁tattoo	-11.5828
▁tremendous	-11.5828
▁laureate	-11.5828
▁Cardinal	-11.5828
▁lodge	-11.5828
▁peanut	-11.5828
▁vegetable	-11.5828
▁excuse	-11.5829
▁inhabit	-11.5829
▁premature	-11.5829
▁Electric	-11.5829
▁Muq	-11.5829
▁Temple	-11.5829
▁Business	-11.5829
▁tenure	-11.5829
▁notorious	-11.5829
▁Campaign	-11.5829
▁Aborigin	-11.5829
▁tomato	-11.5829
▁Lu	-11.5829
▁evaluation	-11.583
▁unchang	-11.583
▁Computer	-11.5831
▁Hallow	-11.5831
▁foster	-11.5831
▁contingent	-11.5832
coni	-11.5832
▁Giant	-11.5833
▁Kwon	-11.5835
▁blogger	-11.5836
▁brown	-11.5836
▁simultaneous	-11.5836
▁Cinc	-11.5838
▁Glor	-11.584
▁Nair	-11.5842
▁pocket	-11.5842
▁Sacr	-11.5843
▁Actor	-11.5844
▁CO	-11.5845
▁pole	-11.5846
▁frontier	-11.5847
▁retrieve	-11.5848
▁Fall	-11.5848
▁lecture	-11.585
▁Grammy	-11.5851
▁popp	-11.5852
▁keen	-11.5853
▁amend	-11.5854
ogge	-11.586
▁generat	-11.5863
▁resum	-11.5865
▁Dann	-11.5868
▁Kle	-11.5868
▁coordinate	-11.5869
imbabwean	-11.5873
stock	-11.5874
▁paralyz	-11.5885
▁Lin	-11.5886
▁Bibl	-11.5886
▁warship	-11.5892
▁bearing	-11.5894
bo	-11.5905
bound	-11.5906
▁Barry	-11.5908
▁shap	-11.5909
▁Mode	-11.5913
ure	-11.5918
▁Sid	-11.5937
easing	-11.5944
▁Nori	-11.5944
▁Roug	-11.5945
illa	-11.5957
▁finalize	-11.596
▁Rash	-11.5962
▁Raj	-11.5963
▁tim	-11.5963
▁KAB	-11.5971
anuel	-11.5978
bala	-11.598
▁spike	-11.5993
▁Boris	-11.6002
▁Ram	-11.6007
poul	-11.6012
▁Philli	-11.6032
erran	-11.6035
▁vigil	-11.6036
▁roar	-11.6038
▁accurate	-11.6038
lander	-11.604
▁joon	-11.6045
oster	-11.6049
xy	-11.6049
▁inhal	-11.606
ked	-11.606
▁consolidat	-11.6061
▁slum	-11.6061
▁assassinate	-11.6068
▁steadi	-11.6077
ians	-11.608
▁Tal	-11.6082
▁rehabilitati	-11.6092
▁Stud	-11.6093
▁Clim	-11.6106
▁sequence	-11.6117
PI	-11.6117
▁Ramad	-11.6122
je	-11.6124
ardar	-11.6126
▁inaugura	-11.6127
▁denounce	-11.6131
gu	-11.6135
oursel	-11.6137
▁construct	-11.6137
▁Ross	-11.6146
▁Charl	-11.6149
▁ethan	-11.6156
zel	-11.6156
▁Ana	-11.6157
▁orchestra	-11.6167
oli	-11.6169
rry	-11.6175
▁Travel	-11.6177
▁folks	-11.6186
▁hack	-11.6193
▁tribes	-11.6209
▁Tr	-11.6215
▁Medica	-11.6218
iacom	-11.6219
▁interesting	-11.6222
▁sav	-11.6227
▁Night	-11.6227
▁audit	-11.6232
▁terra	-11.6234
▁topple	-11.6234
▁watcher	-11.6237
SCO	-11.6239
▁Lincoln	-11.6245
▁Organizer	-11.6245
▁bizarre	-11.6245
▁certificate	-11.6245
▁gadget	-11.6245
▁genuine	-11.6245
▁junior	-11.6245
▁reckless	-11.6245
▁satisfie	-11.6245
▁Kashmir	-11.6245
▁Negro	-11.6245
▁hammer	-11.6245
▁Maoist	-11.6245
▁seizure	-11.6245
▁introduction	-11.6246
▁BMW	-11.6246
▁neutral	-11.6246
▁Conservation	-11.6246
▁psychologist	-11.6246
▁hatred	-11.6246
▁profound	-11.6246
▁Tamil	-11.6246
▁Ismail	-11.6246
▁Medicine	-11.6246
▁Frontier	-11.6246
▁respirator	-11.6246
▁strapp	-11.6247
▁commodit	-11.6247
▁concentration	-11.6247
▁signature	-11.6247
▁Harper	-11.6247
▁Iceland	-11.6248
▁ivor	-11.6248
▁Venus	-11.6248
▁Jamie	-11.6249
▁grim	-11.6249
▁sensor	-11.625
▁Laura	-11.6251
▁assign	-11.6251
▁drain	-11.6252
▁Brig	-11.6252
▁collective	-11.6253
▁bagg	-11.6255
▁Plan	-11.6256
▁confidential	-11.6258
▁mechanical	-11.6258
dwin	-11.6259
▁beache	-11.6259
▁Hawa	-11.626
▁dock	-11.6261
▁tube	-11.6262
▁slot	-11.6262
▁Oak	-11.6262
▁Garden	-11.6265
▁bro	-11.6266
OM	-11.627
lene	-11.6274
▁indoor	-11.6278
▁solv	-11.6278
ema	-11.6282
▁telecom	-11.6284
titude	-11.6286
ui	-11.629
place	-11.6295
▁Tri	-11.6296
adilla	-11.63
▁comic	-11.6304
▁Doo	-11.6305
▁dire	-11.6306
▁Balti	-11.6313
▁Rece	-11.6319
ket	-11.6322
els	-11.6323
▁soul	-11.6326
▁Full	-11.6326
▁flexib	-11.6332
▁blessing	-11.6333
▁passion	-11.6336
▁Barak	-11.634
▁drum	-11.6347
▁wi	-11.6352
▁alleg	-11.6355
▁KT	-11.636
▁sincere	-11.6362
▁Monta	-11.6362
▁Patro	-11.6367
▁scan	-11.6379
▁spa	-11.639
una	-11.6391
vich	-11.6396
▁congratulat	-11.6409
pont	-11.6421
▁Pola	-11.643
▁outfit	-11.6432
amine	-11.6432
▁foe	-11.6435
▁exhibition	-11.6439
▁genes	-11.6461
▁Patric	-11.6465
▁Fin	-11.6467
ule	-11.6474
aker	-11.6478
▁tooth	-11.6482
▁Vers	-11.6487
▁rever	-11.6492
▁Pre	-11.6495
unk	-11.6496
▁Vi	-11.6497
▁ROM	-11.6506
▁Nah	-11.6521
▁Laurea	-11.6521
▁cha	-11.6533
▁commemorate	-11.6535
▁Mor	-11.654
nlike	-11.6546
▁bold	-11.6562
▁Hun	-11.6565
▁Polls	-11.6566
decided	-11.6567
▁Hond	-11.6567
▁Au	-11.6567
pice	-11.6568
▁Serge	-11.6568
▁Gi	-11.6569
▁advis	-11.6578
▁Mir	-11.6589
▁Julie	-11.659
▁excite	-11.659
set	-11.6606
▁Ven	-11.6613
▁ranch	-11.6628
▁sat	-11.6632
▁reign	-11.6632
AC	-11.6641
▁lov	-11.6643
▁Nint	-11.6643
▁Estonia	-11.6649
cha	-11.6651
▁heal	-11.6663
▁HD	-11.6667
▁farms	-11.6668
▁contra	-11.6669
▁volcan	-11.667
▁micro	-11.6672
▁Camero	-11.6673
▁academ	-11.6677
▁tipp	-11.6677
▁coron	-11.6678
▁excess	-11.6678
▁Arro	-11.6679
▁advanc	-11.6679
▁SUV	-11.668
▁iPod	-11.668
▁ingredient	-11.668
▁umbrella	-11.668
▁Previous	-11.668
▁intellectual	-11.668
▁monument	-11.668
▁stomach	-11.668
▁premium	-11.668
▁competitor	-11.668
▁misdemeanor	-11.668
▁lugg	-11.668
▁galler	-11.668
▁logistic	-11.668
▁ridicul	-11.668
▁definition	-11.668
▁Alfred	-11.668
▁Junichi	-11.668
▁taint	-11.668
▁penguin	-11.668
▁UFO	-11.668
▁Cecil	-11.668
▁chunk	-11.668
▁breast	-11.668
▁mysterious	-11.668
▁psychological	-11.668
▁milk	-11.668
▁lyric	-11.6681
▁squi	-11.6681
▁Guild	-11.6681
▁absent	-11.6682
▁cancellation	-11.6682
▁contentious	-11.6682
▁prefecture	-11.6682
▁hurl	-11.6682
▁orange	-11.6682
ethane	-11.6682
▁pageant	-11.6682
▁Investment	-11.6683
▁array	-11.6683
▁slugg	-11.6684
▁delight	-11.6684
▁linger	-11.6684
▁Movie	-11.6684
sley	-11.6684
▁injection	-11.6685
▁generator	-11.6685
▁consultant	-11.6686
▁Violen	-11.6686
▁deem	-11.6687
▁Aug	-11.6688
▁bloc	-11.6691
▁extremis	-11.6694
▁Area	-11.6695
chum	-11.6696
▁spurr	-11.6696
▁Arsen	-11.6699
▁Bulgarian	-11.6699
▁dual	-11.67
▁shadow	-11.67
▁cage	-11.67
▁acquisition	-11.6701
▁glimpse	-11.6701
▁lashe	-11.6705
▁Va	-11.6707
ud	-11.6709
oell	-11.6709
▁Nasr	-11.6712
▁programm	-11.6714
▁drunken	-11.672
▁impression	-11.672
▁powder	-11.672
▁loom	-11.6721
▁sponsors	-11.6722
▁Bird	-11.6728
▁Ye	-11.6729
bon	-11.6732
▁rejection	-11.6736
ero	-11.6738
cheong	-11.6739
uki	-11.6741
▁espi	-11.6744
etic	-11.6753
arq	-11.6755
▁frustrat	-11.6757
▁Sach	-11.6762
ida	-11.6771
ature	-11.6771
kun	-11.6774
▁importan	-11.6779
▁Ida	-11.678
elro	-11.6782
▁Gib	-11.6782
▁chan	-11.6786
▁measurement	-11.6788
vian	-11.6788
▁Ax	-11.6791
▁supervis	-11.6796
▁obes	-11.68
▁SK	-11.681
▁Fear	-11.6811
▁heir	-11.6813
▁Mag	-11.6813
idel	-11.6817
▁mess	-11.6818
▁Br	-11.6825
▁Hot	-11.6826
▁cleaner	-11.6832
▁Pole	-11.6835
▁speculate	-11.6838
▁gangs	-11.686
▁LA	-11.6872
irk	-11.6872
pton	-11.6881
gar	-11.689
▁tense	-11.6892
▁distan	-11.6896
▁Bil	-11.6896
▁Kh	-11.6915
▁Karl	-11.6915
▁Lion	-11.6926
▁reinstate	-11.693
ock	-11.6931
▁climber	-11.6934
▁adequate	-11.6935
▁Centre	-11.6953
ou	-11.6955
▁measur	-11.696
▁Bor	-11.6961
▁speculat	-11.6966
▁humiliat	-11.6973
▁Liu	-11.6974
▁wipe	-11.6976
ot	-11.6976
Tun	-11.6982
specifi	-11.6991
▁triple	-11.6992
▁LP	-11.6998
▁cub	-11.7
ib	-11.7001
▁shocking	-11.7003
▁Kyu	-11.7013
▁poses	-11.702
▁Dama	-11.7024
▁reunit	-11.7025
folk	-11.7027
Station	-11.7037
hand	-11.7042
▁ash	-11.7053
▁Swede	-11.7059
▁poster	-11.7062
▁Stalinis	-11.7064
AN	-11.7069
logo	-11.7071
▁Natur	-11.7079
shift	-11.7087
▁chips	-11.7093
furt	-11.7101
▁Guatemala	-11.7102
▁ratio	-11.7103
▁rad	-11.7103
▁Romania	-11.7105
▁Wy	-11.7108
pei	-11.7109
▁drag	-11.7121
▁grounds	-11.713
▁recess	-11.7131
▁compos	-11.7133
▁accomplish	-11.7133
▁deport	-11.7134
▁martyr	-11.7134
▁Shepherd	-11.7134
▁Sumatra	-11.7134
▁abrupt	-11.7134
▁fragil	-11.7134
▁illicit	-11.7134
▁negligen	-11.7134
▁portrait	-11.7134
▁recount	-11.7134
▁Through	-11.7134
▁casino	-11.7134
▁depriv	-11.7134
▁diminish	-11.7134
▁jirga	-11.7134
▁vault	-11.7134
▁provocative	-11.7134
▁anxious	-11.7134
▁chronic	-11.7134
▁Diamond	-11.7134
▁Telecom	-11.7135
▁Initial	-11.7135
▁unhapp	-11.7135
▁psychiatr	-11.7135
▁derail	-11.7135
▁Fitzg	-11.7135
▁sugar	-11.7135
▁Solomon	-11.7135
▁replie	-11.7135
▁Orthodox	-11.7135
▁harass	-11.7135
▁cluster	-11.7135
▁reception	-11.7135
▁dependent	-11.7136
▁Buff	-11.7136
▁Wonder	-11.7136
▁informant	-11.7136
▁grain	-11.7137
▁Again	-11.7137
▁hover	-11.7137
▁archaeolog	-11.7137
▁Holding	-11.7137
▁Regional	-11.7138
▁Few	-11.7138
▁sheep	-11.7138
▁Ukrainian	-11.7139
▁Pearl	-11.7139
▁Grace	-11.7139
▁Yale	-11.714
▁batch	-11.714
▁frustration	-11.714
▁Sharon	-11.714
▁handgun	-11.7141
▁stunt	-11.7141
▁nail	-11.7141
▁tolerate	-11.7142
▁detective	-11.7142
▁counterterroris	-11.7143
▁cabin	-11.7143
▁Won	-11.7143
▁robotic	-11.7144
▁McCon	-11.7144
▁Flin	-11.7144
▁organic	-11.7145
▁Ras	-11.7145
emi	-11.7146
▁opera	-11.7147
▁rack	-11.7148
scus	-11.7148
▁Letter	-11.7148
▁Hick	-11.7148
▁silver	-11.715
▁contestant	-11.7153
▁Where	-11.7153
▁Cit	-11.7154
▁showdown	-11.7156
▁chess	-11.7157
▁disappointment	-11.7158
▁retaliati	-11.7159
▁Ferrer	-11.7161
▁playoff	-11.7162
▁preferr	-11.7163
▁Fuku	-11.7167
▁instruction	-11.7169
▁Trust	-11.7169
▁unrel	-11.7169
ffen	-11.7169
▁Ashle	-11.717
▁Santi	-11.7171
ww	-11.7172
▁Further	-11.7176
▁Wii	-11.7176
▁allege	-11.7177
vo	-11.7179
▁horse	-11.7185
▁Judiciar	-11.7186
▁Tens	-11.7188
▁resemble	-11.7191
▁upgrade	-11.7194
eera	-11.7199
▁tout	-11.7203
▁Tian	-11.7204
▁Leone	-11.7207
▁graduat	-11.7209
shes	-11.7209
▁Neal	-11.7211
▁Collins	-11.7214
born	-11.7227
▁bulk	-11.7232
▁bread	-11.7232
▁procession	-11.7239
▁launche	-11.724
H	-11.7247
▁interrupt	-11.7255
▁Hae	-11.7256
▁Goh	-11.7259
▁staffer	-11.7259
▁Bran	-11.7261
▁semi	-11.7262
ac	-11.7265
▁remarkabl	-11.7269
▁Bin	-11.7281
▁Bull	-11.7284
▁Pun	-11.7285
▁bounce	-11.7286
stice	-11.7288
▁seller	-11.7289
▁Trad	-11.7289
▁Daw	-11.729
▁choices	-11.7295
▁fitt	-11.7297
▁sketch	-11.7305
itchen	-11.7309
venue	-11.7312
ama	-11.7316
▁accelerate	-11.7316
▁Tar	-11.732
▁tone	-11.7321
▁nurs	-11.7325
▁Bobb	-11.7327
nder	-11.733
▁Interfa	-11.733
▁Thir	-11.7339
▁inner	-11.7342
izu	-11.7354
▁underscore	-11.7357
▁bang	-11.7357
▁Baby	-11.7359
▁Lak	-11.7364
▁preserv	-11.7368
▁Berg	-11.737
▁ethical	-11.7385
▁Bern	-11.7396
▁cla	-11.7398
▁characteriz	-11.7408
mo	-11.7415
▁rig	-11.7442
▁uncertain	-11.7443
▁Garri	-11.7449
▁intimidat	-11.7449
▁owe	-11.7453
fo	-11.7461
break	-11.7467
▁Front	-11.7474
▁performer	-11.7483
▁Chos	-11.7486
uda	-11.7487
conscious	-11.7489
▁expose	-11.7489
▁smoker	-11.7492
▁revolutionar	-11.7493
ttle	-11.7499
▁div	-11.75
rage	-11.7501
▁Fal	-11.7534
cular	-11.754
▁Haniy	-11.7543
wealth	-11.7544
▁Gh	-11.7548
▁exclud	-11.7549
scope	-11.7549
week	-11.7555
▁planner	-11.7562
rank	-11.7562
amba	-11.7565
WC	-11.7567
▁Keat	-11.7572
▁Intel	-11.7576
will	-11.7579
▁Fan	-11.7579
▁Ethiopia	-11.7581
cent	-11.7586
▁transparen	-11.7589
▁Lan	-11.759
▁grip	-11.7603
▁contradict	-11.7604
pollo	-11.7605
▁scrutin	-11.7607
▁extract	-11.7607
▁column	-11.761
▁Concern	-11.7611
▁Himalaya	-11.7611
▁Passenger	-11.7611
▁artifact	-11.7611
▁brigade	-11.7611
▁cosmonaut	-11.7611
▁efficienc	-11.7611
▁enterprise	-11.7611
▁harvest	-11.7611
▁tycoon	-11.7611
▁implant	-11.7611
▁inflict	-11.7611
▁Refuge	-11.7611
▁chocolate	-11.7611
▁Oxford	-11.7611
▁anxiet	-11.7611
▁Owen	-11.7611
▁valley	-11.7611
▁Hispanic	-11.7611
▁disgrace	-11.7611
▁bicycle	-11.7611
▁frontrunner	-11.7611
▁perception	-11.7611
▁persistent	-11.7611
▁verification	-11.7611
▁Malawi	-11.7611
▁garb	-11.7611
▁Keith	-11.7611
▁mislead	-11.7611
▁salarie	-11.7611
▁veterinarian	-11.7611
▁Atleti	-11.7611
▁Shwe	-11.7611
▁click	-11.7611
▁JER	-11.7611
▁Blake	-11.7611
▁workforce	-11.7612
▁Survivor	-11.7612
▁Basque	-11.7612
▁flock	-11.7612
▁fantastic	-11.7612
▁donkey	-11.7613
igh	-11.7613
▁deportation	-11.7613
▁Milk	-11.7613
▁Frost	-11.7614
▁frank	-11.7614
▁grace	-11.7614
▁Medit	-11.7614
▁dictatorship	-11.7614
▁interaction	-11.7614
▁headache	-11.7614
▁rover	-11.7615
▁pink	-11.7615
▁infringe	-11.7615
▁Hunter	-11.7619
▁costume	-11.762
tact	-11.762
▁adventure	-11.7621
▁Vanco	-11.7622
▁continuous	-11.7623
jean	-11.7623
▁qualifier	-11.7625
▁Dam	-11.7626
▁precise	-11.7626
▁creator	-11.7626
▁Brigade	-11.7627
▁Given	-11.7628
▁PF	-11.7629
▁interfer	-11.7633
▁BE	-11.7633
▁Buck	-11.7641
▁valid	-11.7641
unt	-11.7646
▁prediction	-11.7648
omposite	-11.7648
▁Bak	-11.7648
▁Mong	-11.765
▁particle	-11.7655
▁tapp	-11.7658
▁establishment	-11.7664
aga	-11.7666
holm	-11.7668
▁ugl	-11.767
▁occasional	-11.767
▁rider	-11.7674
▁complicate	-11.7678
▁rear	-11.7679
▁castle	-11.7684
▁Minute	-11.7684
▁glow	-11.7687
von	-11.7691
▁eve	-11.7691
▁facial	-11.7691
▁depos	-11.7694
▁portal	-11.7698
▁aquarium	-11.7698
▁airliner	-11.7698
▁orchestrat	-11.7701
gory	-11.7702
▁tender	-11.7704
▁Mu	-11.7706
▁cab	-11.7712
▁universal	-11.7715
▁Mori	-11.7717
▁analyze	-11.7717
oka	-11.7725
▁Lucas	-11.7739
▁layer	-11.7742
▁Hart	-11.7749
▁tongue	-11.7754
▁Chase	-11.7756
▁offend	-11.7756
▁Mwa	-11.7758
nprofit	-11.7767
hong	-11.7769
▁bowl	-11.7773
bel	-11.7776
mp	-11.7777
▁assurance	-11.7784
▁marr	-11.7791
▁appli	-11.7792
▁Claren	-11.7795
▁Monte	-11.7796
juan	-11.7798
till	-11.78
▁MI	-11.7808
▁nominate	-11.7812
▁AU	-11.7813
▁stockpile	-11.7819
▁Jimm	-11.782
▁Ah	-11.782
▁spur	-11.7827
oming	-11.7829
▁soften	-11.783
▁yell	-11.7831
▁medi	-11.7835
▁org	-11.7837
jo	-11.7837
apoli	-11.7839
use	-11.7846
▁Rud	-11.7854
ze	-11.7855
▁Maha	-11.7862
▁Train	-11.7875
▁Denn	-11.7877
▁Cast	-11.7877
hmer	-11.7888
part	-11.7891
izing	-11.7894
▁fold	-11.7897
▁Protecti	-11.7897
▁anim	-11.7902
▁settl	-11.7902
▁cannon	-11.7903
ssif	-11.7909
▁Dar	-11.791
▁ranger	-11.791
▁hostilit	-11.7914
▁Tok	-11.7914
▁utter	-11.7917
▁regulate	-11.7922
▁Alg	-11.7923
▁believ	-11.7924
▁Work	-11.7924
▁dig	-11.7929
▁Griffi	-11.7945
▁fines	-11.7948
▁Storm	-11.7961
▁overwhelm	-11.7961
BP	-11.7965
▁Dell	-11.7966
▁diagnos	-11.7977
▁applau	-11.7987
▁judicia	-11.8004
asha	-11.8009
▁cop	-11.8013
onga	-11.8024
ork	-11.8026
▁forth	-11.8026
▁Helen	-11.8029
GS	-11.8036
ndra	-11.8036
▁architect	-11.8036
play	-11.8041
▁scholars	-11.8042
gang	-11.8047
▁happi	-11.8048
▁Bi	-11.8052
castle	-11.8058
▁Brus	-11.8058
unch	-11.8061
▁Val	-11.8062
▁verifi	-11.8069
▁Fight	-11.8073
▁explor	-11.8077
USAL	-11.808
▁Algeria	-11.8081
▁nationalist	-11.8082
▁rotat	-11.8085
▁significan	-11.8089
▁bump	-11.809
▁dorm	-11.809
hima	-11.8091
what	-11.8091
▁Communi	-11.8095
▁beam	-11.8097
▁Duk	-11.8098
iora	-11.8101
▁authentic	-11.8101
▁Gibb	-11.8102
▁memorab	-11.8102
▁mode	-11.8103
▁inject	-11.8105
humi	-11.8108
▁pond	-11.8109
▁guitar	-11.811
▁Franco	-11.811
▁barricade	-11.8111
▁calendar	-11.8111
▁prototype	-11.8111
▁stalemate	-11.8111
▁wheelchair	-11.8111
▁Retail	-11.8111
▁unilateral	-11.8111
▁curator	-11.8111
▁calorie	-11.8111
▁rogue	-11.8111
▁intensify	-11.8111
▁Abraham	-11.8111
▁spouse	-11.8111
athedral	-11.8111
▁wrist	-11.8111
▁Jihad	-11.8111
▁pharmaceutical	-11.8111
▁Exxon	-11.8111
▁engulf	-11.8111
▁pretend	-11.8111
▁keynote	-11.8111
▁railroad	-11.8111
▁potato	-11.8111
▁reminisc	-11.8111
▁evolv	-11.8111
▁collar	-11.8112
▁revelation	-11.8112
▁fiber	-11.8112
▁liais	-11.8113
▁Hui	-11.8113
▁Evans	-11.8113
▁vocal	-11.8114
▁snack	-11.8114
▁supplement	-11.8114
▁honey	-11.8115
▁innocen	-11.8115
▁Djo	-11.8115
▁reinforcement	-11.8116
▁ideolog	-11.8116
▁Claus	-11.8118
▁justifie	-11.8118
▁bias	-11.8118
▁cordon	-11.8119
▁Blitz	-11.8119
▁superb	-11.812
▁auditor	-11.812
NG	-11.812
▁barrage	-11.812
▁overlook	-11.812
▁Look	-11.8126
leet	-11.8127
▁Advisor	-11.8128
▁wield	-11.8128
▁riders	-11.8128
▁youngster	-11.8128
▁dealer	-11.8128
▁Jean	-11.8129
chenk	-11.8129
▁Border	-11.813
▁Micke	-11.813
▁Andrea	-11.8133
▁Christin	-11.8133
▁acceptance	-11.8134
▁spann	-11.8135
▁fantas	-11.8137
▁historian	-11.8137
▁inspiration	-11.8141
▁publicize	-11.8141
▁Visit	-11.8142
spoke	-11.8145
▁composer	-11.8148
▁bleed	-11.815
▁addiction	-11.815
▁Natural	-11.8158
tano	-11.8161
▁reunifi	-11.8165
▁Sau	-11.8169
▁sprint	-11.8169
▁Napoli	-11.8171
▁liver	-11.8172
▁conscien	-11.8174
▁Gue	-11.8178
▁apple	-11.8178
▁seeming	-11.8179
▁Pier	-11.818
▁Ferrar	-11.8185
▁Player	-11.8187
▁rift	-11.8189
nitiative	-11.8194
▁Spe	-11.8201
▁Soon	-11.8204
▁dissolve	-11.8207
▁pub	-11.8209
▁Fly	-11.821
▁guarded	-11.8218
▁frog	-11.8218
▁salt	-11.822
▁Chan	-11.8226
▁applaud	-11.8236
▁Ring	-11.8238
ache	-11.8239
▁winger	-11.8242
▁arena	-11.8243
dominant	-11.8248
tive	-11.8255
▁bust	-11.8256
▁Mour	-11.8258
manuel	-11.8259
▁Jos	-11.826
▁trailer	-11.826
log	-11.826
▁Mat	-11.8261
▁Are	-11.8274
▁Greg	-11.8278
▁attribute	-11.8278
▁orient	-11.8278
▁Cher	-11.8281
▁Bros	-11.8282
▁Arabian	-11.8294
▁du	-11.8295
atar	-11.8296
erous	-11.8297
▁tag	-11.8298
▁Vincen	-11.8301
▁campaigner	-11.8303
witt	-11.8308
bly	-11.8311
▁Aid	-11.8321
▁fr	-11.8323
▁swear	-11.8336
rosa	-11.8347
▁Bat	-11.8348
▁detonate	-11.8349
ual	-11.8361
▁Jam	-11.8362
▁KOS	-11.8364
▁Schu	-11.8372
ello	-11.8375
▁Cel	-11.8384
▁skinn	-11.8386
ico	-11.8388
aft	-11.8392
▁Rosen	-11.8406
▁dwindl	-11.8414
bright	-11.8421
ob	-11.8427
▁Roj	-11.844
▁wan	-11.8444
▁vest	-11.8453
▁Kay	-11.8458
anda	-11.8474
oi	-11.8476
▁cope	-11.8489
▁motivate	-11.8492
▁Tra	-11.8498
▁cl	-11.8502
▁empir	-11.8508
▁cure	-11.8512
▁seeker	-11.8522
arov	-11.8524
▁dipp	-11.8528
▁trauma	-11.8528
▁rag	-11.8531
action	-11.8532
jani	-11.8545
▁substanti	-11.8548
▁Gil	-11.8551
eum	-11.8552
▁Fe	-11.8553
▁lean	-11.8554
ao	-11.8558
▁tune	-11.8562
▁Multi	-11.8575
▁pod	-11.8577
uous	-11.8577
ilia	-11.8579
ndrome	-11.8579
jab	-11.8582
▁ravag	-11.8583
▁End	-11.8588
ron	-11.8589
▁Troop	-11.8589
aking	-11.8593
cover	-11.8595
▁Laute	-11.8595
▁Julia	-11.8596
BO	-11.8599
▁Jamaica	-11.8606
▁Fre	-11.8608
▁Independen	-11.8615
▁restrain	-11.8615
▁Beck	-11.8615
▁sue	-11.8618
▁emphasiz	-11.8619
mont	-11.862
mon	-11.862
▁explore	-11.8621
source	-11.8625
▁stir	-11.8627
▁Cle	-11.8628
lit	-11.863
box	-11.863
▁erect	-11.8633
croft	-11.8636
▁Social	-11.8637
▁Rwanda	-11.8637
▁clerk	-11.8637
▁convincing	-11.8637
▁embargo	-11.8637
▁hectare	-11.8637
▁juvenile	-11.8637
▁mechanism	-11.8637
▁perspective	-11.8637
▁robust	-11.8637
▁spectator	-11.8637
▁technician	-11.8637
▁unauthori	-11.8637
▁premise	-11.8637
▁spree	-11.8637
▁Jacob	-11.8637
▁bipartisan	-11.8637
▁dentist	-11.8637
▁federation	-11.8637
▁evasion	-11.8637
▁gossip	-11.8637
▁bishop	-11.8637
▁blunt	-11.8637
▁steroid	-11.8637
▁glad	-11.8637
▁spiral	-11.8637
▁biofuel	-11.8637
▁Spiel	-11.8637
▁Picture	-11.8637
▁proclaim	-11.8637
▁excerpt	-11.8637
▁cinema	-11.8637
▁Flood	-11.8637
▁Laborator	-11.8637
▁unlawful	-11.8637
▁Parent	-11.8638
▁comparison	-11.8638
▁database	-11.8638
▁DEL	-11.8638
sang	-11.8638
▁pandem	-11.8638
▁differ	-11.8638
▁Yellow	-11.8639
▁uncomm	-11.8639
▁constructive	-11.8639
▁Lugo	-11.8639
▁Roll	-11.864
▁Chadian	-11.864
lies	-11.864
▁rod	-11.864
▁plume	-11.864
▁cartel	-11.864
▁unbeat	-11.864
▁exploration	-11.864
▁Lawyer	-11.8641
▁comedian	-11.8641
▁cheat	-11.8641
▁instructor	-11.8642
▁Supervisor	-11.8642
▁oversight	-11.8642
▁albatross	-11.8643
hold	-11.8643
▁Kasp	-11.8643
▁downplay	-11.8643
▁policymaker	-11.8644
▁Vick	-11.8645
▁coastline	-11.8645
▁Marin	-11.8645
▁Guardian	-11.8646
▁salary	-11.8646
▁foil	-11.8647
▁soap	-11.8648
▁Cameroon	-11.8648
▁Costa	-11.8649
▁hyper	-11.8649
▁Winston	-11.8649
▁gust	-11.865
▁confession	-11.8651
▁bubble	-11.8652
▁notifi	-11.8653
▁maneuver	-11.8655
rubber	-11.8655
▁finalist	-11.8656
▁cough	-11.8658
▁fortress	-11.8661
▁normaliz	-11.8663
▁thriller	-11.8663
▁readers	-11.8666
▁Carla	-11.8666
▁Burk	-11.8667
▁scratch	-11.8668
hof	-11.867
aretaker	-11.867
▁tail	-11.8671
uds	-11.8671
▁mari	-11.8674
▁soda	-11.8675
▁Thu	-11.8676
▁charisma	-11.8676
edger	-11.8677
▁Ingr	-11.8677
▁horses	-11.8679
▁buyout	-11.869
▁fier	-11.8699
▁scuffle	-11.8701
▁destabilize	-11.8711
▁Bod	-11.8712
▁avert	-11.8715
environmentalist	-11.8716
▁tribe	-11.8716
▁bo	-11.8716
▁Ivanov	-11.8723
▁Phu	-11.8731
▁clippe	-11.8736
▁Gett	-11.8738
▁clan	-11.8738
rap	-11.8738
▁fiction	-11.8738
▁Till	-11.8738
▁Karim	-11.874
▁Leno	-11.874
ATH	-11.8744
▁stumbl	-11.8746
▁Galla	-11.8748
▁Hak	-11.8748
▁privilege	-11.8751
▁Russe	-11.8753
▁charg	-11.8754
▁metropoli	-11.8754
▁automotive	-11.8754
tz	-11.8757
▁warhead	-11.8763
apet	-11.8763
▁Mail	-11.8769
▁armi	-11.8785
▁corpse	-11.881
▁Canc	-11.8812
▁brake	-11.8813
course	-11.8814
▁Nichol	-11.8815
▁keeper	-11.8819
amount	-11.8825
row	-11.883
▁Dodge	-11.8833
RLIN	-11.8834
▁Sand	-11.8838
ette	-11.8841
pon	-11.8843
▁Kil	-11.8849
▁digg	-11.8851
▁companion	-11.8854
▁Pelo	-11.8855
M	-11.8856
▁sore	-11.8859
▁Poo	-11.886
LE	-11.8865
▁provoke	-11.8866
▁uncle	-11.8872
▁Final	-11.8876
▁Test	-11.888
▁dem	-11.8885
▁Prot	-11.8885
▁enhanc	-11.8903
▁Tan	-11.8905
iste	-11.891
ologist	-11.8917
az	-11.8923
▁NH	-11.8929
enos	-11.8932
▁plug	-11.8941
▁pan	-11.8954
▁facilitate	-11.8959
▁Mem	-11.8959
▁Hoi	-11.896
iano	-11.8971
HI	-11.8971
hen	-11.8985
point	-11.8993
▁Fo	-11.8996
hrai	-11.8998
▁Jud	-11.9012
▁NAS	-11.9015
FC	-11.902
entia	-11.9034
▁Statistic	-11.9041
▁mal	-11.9046
▁wings	-11.9046
▁relocate	-11.9056
agh	-11.9056
▁Hard	-11.9061
▁Administrati	-11.9063
▁exception	-11.9066
▁j	-11.9071
▁Mill	-11.9074
▁municipal	-11.9077
▁Say	-11.908
▁Enr	-11.9091
▁lane	-11.9092
▁AM	-11.9103
rative	-11.9105
▁extradit	-11.9109
arter	-11.9112
kins	-11.9114
ueens	-11.9114
▁Dav	-11.9116
▁ensur	-11.9116
outhwest	-11.9116
▁slim	-11.912
▁underst	-11.912
▁philosoph	-11.9131
lary	-11.9132
adley	-11.9136
▁NIS	-11.9145
▁Mile	-11.9148
▁Henri	-11.915
illionaire	-11.9151
immer	-11.9154
▁prop	-11.9157
▁Million	-11.9164
uc	-11.9166
▁Fu	-11.9169
grade	-11.9169
▁Kumar	-11.9171
hwa	-11.9178
▁corn	-11.9181
▁Sp	-11.9183
▁Spring	-11.9184
▁commerc	-11.9191
▁luc	-11.9192
▁cigar	-11.9192
▁Custom	-11.9192
▁Tikrit	-11.9192
▁Veteran	-11.9192
▁evangelical	-11.9192
▁fatigue	-11.9192
▁immense	-11.9192
▁machete	-11.9192
▁precinct	-11.9192
▁quarantine	-11.9192
▁reprocess	-11.9192
▁ritual	-11.9192
▁subpoena	-11.9192
▁unconditional	-11.9192
▁Bahrain	-11.9192
▁appall	-11.9192
▁kangaroo	-11.9192
▁staunch	-11.9192
▁Litvin	-11.9192
▁Patriot	-11.9192
▁chimp	-11.9192
▁cruel	-11.9192
▁lesbian	-11.9192
▁Soldier	-11.9192
▁nickname	-11.9193
▁supermarket	-11.9193
▁adjourn	-11.9193
▁helmet	-11.9193
▁parachute	-11.9193
▁parallel	-11.9193
▁Fabio	-11.9193
▁Tower	-11.9193
▁View	-11.9193
▁Johannes	-11.9193
▁translator	-11.9193
▁Centur	-11.9193
▁gauge	-11.9193
▁horror	-11.9193
▁parole	-11.9193
▁unofficial	-11.9193
▁obstruct	-11.9193
▁wholesale	-11.9193
▁splash	-11.9193
▁sheikh	-11.9193
luster	-11.9193
▁Jefferson	-11.9193
RID	-11.9193
▁crystal	-11.9193
▁Saint	-11.9193
▁sneak	-11.9193
▁Export	-11.9193
▁disclosure	-11.9193
▁lavish	-11.9193
▁ailment	-11.9194
▁Titan	-11.9194
▁lifestyle	-11.9194
▁Separate	-11.9194
▁multinational	-11.9194
▁copyright	-11.9194
▁lobbyist	-11.9194
▁Firefighter	-11.9194
▁torrent	-11.9194
▁Brent	-11.9195
▁composite	-11.9195
▁centimeter	-11.9195
▁liqu	-11.9195
▁predator	-11.9195
▁Lehman	-11.9195
▁landfall	-11.9195
▁seminar	-11.9196
▁JP	-11.9196
▁mismanage	-11.9196
▁Adel	-11.9196
▁ancestor	-11.9196
▁forgot	-11.9197
▁scam	-11.9197
▁Lyon	-11.9197
EGO	-11.9198
▁Francois	-11.9198
▁entit	-11.9198
▁picket	-11.9198
▁decorat	-11.9199
▁Jerem	-11.9199
▁trap	-11.9199
ctic	-11.9199
▁reliabl	-11.9199
▁sadden	-11.9199
▁referee	-11.92
▁Flo	-11.92
▁Holder	-11.9201
▁bypass	-11.9201
▁complication	-11.9202
▁tenor	-11.9202
▁Tuck	-11.9202
jeon	-11.9204
▁rings	-11.9205
TLAN	-11.9206
▁Nike	-11.9206
▁Lynn	-11.9207
▁backward	-11.9208
▁Sund	-11.9211
▁embark	-11.9212
▁leaf	-11.9212
▁Country	-11.9214
AIRO	-11.9214
boy	-11.9217
▁detector	-11.9217
▁capitalist	-11.9218
scale	-11.9218
▁staple	-11.9219
▁Kenne	-11.922
▁Buy	-11.9221
▁Writer	-11.9221
▁reiterate	-11.9222
▁Abdel	-11.9222
▁Capital	-11.9223
▁inning	-11.9227
▁hardship	-11.9227
L	-11.9227
▁Tu	-11.9229
▁Rush	-11.9229
▁robe	-11.923
▁attendant	-11.9234
are	-11.9236
SC	-11.9238
▁ounce	-11.9239
▁Jang	-11.9242
eful	-11.9244
▁Rak	-11.9245
▁bidd	-11.9247
descent	-11.925
▁Kiev	-11.9251
▁Floren	-11.926
▁Observat	-11.9264
▁Inde	-11.9266
soo	-11.9267
▁wheels	-11.9268
▁scholar	-11.9268
aiss	-11.9268
▁amuse	-11.9269
lim	-11.9278
▁partisan	-11.9279
▁Shell	-11.928
▁Word	-11.929
▁Mot	-11.929
▁sicken	-11.9294
▁Ruth	-11.9297
▁Timo	-11.93
▁Pin	-11.93
stam	-11.9306
▁craz	-11.9309
▁compile	-11.9317
▁Point	-11.9319
▁Kean	-11.9321
▁edit	-11.9322
map	-11.9323
▁el	-11.9328
▁manufacture	-11.9329
▁Aar	-11.9333
▁Anba	-11.9335
uck	-11.9339
▁Book	-11.9339
uarte	-11.9342
▁retaliat	-11.9342
▁renounce	-11.9347
istic	-11.9351
▁Nam	-11.9352
▁Lucian	-11.9362
▁behead	-11.9374
▁li	-11.9374
▁candle	-11.9375
▁Schol	-11.9393
▁Deb	-11.9393
▁carve	-11.9403
▁fann	-11.9412
nts	-11.9413
▁formula	-11.9418
▁Mother	-11.9422
▁tapes	-11.9423
▁Ran	-11.9427
▁observ	-11.9432
lese	-11.9434
mun	-11.9435
▁Prod	-11.9438
▁pav	-11.9444
eb	-11.9449
▁exo	-11.9451
▁accessor	-11.9455
▁irritat	-11.9463
▁Munic	-11.9472
lroo	-11.9475
▁IT	-11.9481
zone	-11.9481
▁slope	-11.9483
II	-11.9486
bari	-11.9494
kat	-11.9495
hui	-11.9495
▁conventional	-11.9496
wick	-11.9498
▁defi	-11.9509
▁outage	-11.9516
▁donate	-11.9516
▁Stal	-11.9519
▁trainer	-11.952
▁burg	-11.9522
ito	-11.9529
▁sum	-11.9531
voi	-11.9531
▁provok	-11.9536
▁Dor	-11.9537
ambia	-11.9539
eba	-11.9539
▁ER	-11.954
state	-11.9542
I	-11.9542
att	-11.9547
▁congratulate	-11.9552
▁Alk	-11.9555
▁der	-11.9556
ivic	-11.9557
▁ASE	-11.9558
ew	-11.9558
▁Gol	-11.956
▁Bide	-11.9566
far	-11.9566
▁arch	-11.9567
▁arsenal	-11.9576
▁Eva	-11.958
▁Nichols	-11.9585
ido	-11.9588
▁lonel	-11.9591
▁cred	-11.9599
▁invade	-11.9609
▁Ti	-11.9609
adic	-11.9611
▁Mari	-11.9613
▁starv	-11.9615
▁tick	-11.9617
▁devot	-11.962
▁Forb	-11.9621
▁Ber	-11.9624
▁UNE	-11.9626
sian	-11.9634
▁guil	-11.9637
amburg	-11.9638
reserved	-11.964
▁gram	-11.9644
rek	-11.965
rell	-11.9652
▁Pedr	-11.9653
ummit	-11.9655
▁DA	-11.9657
▁worri	-11.9661
RE	-11.9663
eur	-11.9666
tory	-11.9669
▁sensation	-11.9671
▁Sales	-11.9685
▁Ivan	-11.9686
▁Islami	-11.9692
▁jin	-11.9694
pot	-11.9697
▁trans	-11.9701
ali	-11.9706
▁dose	-11.9707
▁Ok	-11.971
▁crippl	-11.972
▁Northwest	-11.9725
nze	-11.9732
▁comb	-11.9736
NK	-11.9738
▁Yea	-11.9753
lan	-11.9762
▁Mario	-11.9764
▁MAD	-11.9769
▁Chae	-11.9769
beki	-11.9773
▁Morocc	-11.9773
▁interfere	-11.9774
▁distort	-11.9775
▁riches	-11.9776
▁adj	-11.9777
▁quest	-11.9778
▁feat	-11.978
▁blank	-11.978
▁Address	-11.9781
▁Jupiter	-11.9781
▁McLa	-11.9781
▁archipelag	-11.9781
▁reconsider	-11.9781
▁skyscraper	-11.9781
▁pedestrian	-11.9781
▁renown	-11.9781
▁dormitor	-11.9781
▁improper	-11.9781
▁tariff	-11.9781
▁Dmitr	-11.9781
▁delicate	-11.9781
▁gloom	-11.9781
▁definitive	-11.9781
▁Fellow	-11.9781
▁yacht	-11.9781
▁Filipino	-11.9781
▁feud	-11.9781
▁falter	-11.9781
▁Product	-11.9781
▁foreclosure	-11.9781
▁noodle	-11.9781
▁jacket	-11.9781
▁external	-11.9781
▁Studio	-11.9781
▁dissatisf	-11.9781
▁Building	-11.9781
▁Hutchins	-11.9781
▁persist	-11.9781
▁monster	-11.9781
▁rhythm	-11.9781
▁stint	-11.9781
▁safeguard	-11.9781
▁Team	-11.9782
▁forensic	-11.9782
▁consulate	-11.9782
▁Investor	-11.9782
▁disband	-11.9782
▁Limit	-11.9782
▁Salah	-11.9782
▁Armenian	-11.9782
▁Alvar	-11.9782
▁furni	-11.9782
▁merchant	-11.9782
▁slaying	-11.9782
▁wander	-11.9782
▁luna	-11.9783
▁Davyd	-11.9783
▁rehab	-11.9783
dorf	-11.9783
▁squeeze	-11.9783
▁forthcoming	-11.9784
▁Mandel	-11.9784
▁collaboration	-11.9784
▁ditch	-11.9784
zer	-11.9785
▁Respond	-11.9785
▁Kaka	-11.9785
▁outrageous	-11.9786
▁Lux	-11.9787
▁Fritz	-11.9788
▁spawn	-11.9788
▁workplace	-11.9788
Capri	-11.9788
DU	-11.9789
▁Tension	-11.9789
▁gripp	-11.9791
▁vary	-11.9791
▁newborn	-11.9793
▁snatch	-11.9793
▁dragon	-11.9793
zov	-11.9795
▁Roland	-11.9796
▁defiant	-11.9797
▁festiv	-11.9799
▁Bennet	-11.9799
▁console	-11.98
abel	-11.9801
▁courthouse	-11.9801
▁Slam	-11.9801
▁carriage	-11.9801
eth	-11.9802
▁absorb	-11.9802
▁transformation	-11.9802
▁installment	-11.9805
▁Observer	-11.9806
acent	-11.9807
▁fledg	-11.9808
▁addresse	-11.9808
▁vanish	-11.9809
▁Luft	-11.981
▁Alma	-11.9811
▁tun	-11.9812
▁cake	-11.9812
▁Kad	-11.9814
▁dish	-11.9814
▁Grant	-11.9817
works	-11.9819
▁lone	-11.9824
otti	-11.9832
▁perch	-11.9832
bei	-11.9833
chen	-11.9833
▁coupon	-11.9833
continent	-11.9835
constitutional	-11.9836
▁Lead	-11.9838
beat	-11.9838
▁Store	-11.9841
▁blackout	-11.9843
▁Liberia	-11.9843
NHC	-11.9845
▁dra	-11.9846
▁transmitte	-11.9849
▁Emm	-11.9849
▁Klo	-11.985
iko	-11.9851
▁fi	-11.9853
stair	-11.9853
AL	-11.9853
▁Suz	-11.9855
▁snap	-11.9856
▁McA	-11.9856
▁examiner	-11.9856
atic	-11.9861
▁anticipate	-11.9862
pi	-11.9865
due	-11.9866
▁archive	-11.9867
▁woke	-11.9867
trust	-11.9868
▁caffein	-11.9873
RNA	-11.9873
▁Riot	-11.9876
▁Soccer	-11.9877
▁therapist	-11.9879
▁educate	-11.9885
athan	-11.9885
▁collide	-11.9892
▁Maure	-11.9892
▁Ann	-11.9893
▁pot	-11.9896
Craw	-11.9904
▁devil	-11.9905
▁Pic	-11.9906
hapter	-11.9907
▁Cro	-11.9907
▁seasonal	-11.9908
▁Mesh	-11.9908
▁Masa	-11.9911
rum	-11.9914
berra	-11.9917
▁bay	-11.9924
elli	-11.993
oria	-11.9932
▁Khala	-11.9938
aro	-11.9939
look	-11.994
▁Russ	-11.9941
▁Lou	-11.9942
▁Feli	-11.9942
▁debat	-11.995
▁retract	-11.995
uran	-11.9959
▁arise	-11.9959
▁Toshi	-11.9964
▁devote	-11.997
▁ignit	-11.9973
▁Rang	-11.9975
▁server	-11.9976
lotter	-11.9976
uso	-11.9978
AO	-11.9981
▁Sein	-11.9985
▁lunche	-11.9986
▁Guy	-11.9998
▁funn	-11.9998
eong	-11.9998
▁ja	-12
▁kn	-12.0002
▁serial	-12.0007
▁folk	-12.001
▁passionate	-12.0014
▁hills	-12.0015
▁drift	-12.0021
▁Shre	-12.0022
▁Sale	-12.0028
▁Valen	-12.0028
drop	-12.0029
CS	-12.0032
▁calculate	-12.0037
▁assassinat	-12.0038
▁pancreati	-12.0041
▁pian	-12.0044
▁hook	-12.0047
pat	-12.0053
▁Mine	-12.0063
▁Protect	-12.0074
▁ridd	-12.0077
spies	-12.008
vin	-12.0082
▁Had	-12.0091
▁troubles	-12.0101
hem	-12.0102
▁reassure	-12.0107
▁Dia	-12.0108
sud	-12.0115
ifi	-12.0115
▁vici	-12.0117
mble	-12.0118
▁Dai	-12.0118
iat	-12.012
wi	-12.0131
▁Libert	-12.0132
▁Secret	-12.0139
▁Kara	-12.0148
▁Inside	-12.015
▁lighter	-12.0152
▁cr	-12.0152
▁Joy	-12.0163
▁Holm	-12.0163
▁sampl	-12.0165
OE	-12.0168
▁gar	-12.0175
▁accelerat	-12.0177
utt	-12.0183
▁Lig	-12.0184
nga	-12.0188
▁horrif	-12.0188
▁pad	-12.019
▁Ci	-12.0191
▁bury	-12.0193
▁reinforce	-12.0193
ore	-12.0194
ec	-12.0196
▁capp	-12.0198
oc	-12.0201
▁bite	-12.0215
RC	-12.0217
NSO	-12.023
bi	-12.0247
▁frighten	-12.0248
▁lawn	-12.0259
inj	-12.0266
▁analyz	-12.0273
▁Bayer	-12.0274
▁hom	-12.0275
▁Oz	-12.0275
▁Prest	-12.0276
▁Pak	-12.0284
▁bruis	-12.0289
▁em	-12.0291
▁collid	-12.0303
▁VE	-12.031
▁AL	-12.0316
▁chok	-12.0322
bro	-12.033
▁extraditi	-12.0331
▁Cook	-12.0331
lining	-12.0336
▁wishe	-12.0338
ES	-12.0339
zio	-12.034
▁blackmail	-12.0345
redit	-12.035
▁koo	-12.0353
▁default	-12.0354
lena	-12.0358
▁stair	-12.0364
▁Data	-12.0369
take	-12.0373
atiri	-12.0381
eafood	-12.0383
▁fundrais	-12.0386
▁cord	-12.0392
phis	-12.0393
rwin	-12.0393
▁loya	-12.04
▁SAN	-12.0401
▁Come	-12.0404
▁conspir	-12.0405
rchestra	-12.0405
AKAR	-12.0406
uebec	-12.0406
▁Azerbaijan	-12.0406
▁Confederation	-12.0406
▁Disaster	-12.0406
▁centrifuge	-12.0406
▁compatriot	-12.0406
▁diarrhea	-12.0406
▁inflammat	-12.0406
▁necessit	-12.0406
▁nutrient	-12.0406
▁paramilitar	-12.0406
▁sacred	-12.0406
▁submarine	-12.0406
▁surname	-12.0406
▁temblor	-12.0406
▁defensive	-12.0406
▁exaggerat	-12.0406
▁explicit	-12.0406
▁hurdle	-12.0406
▁sculpture	-12.0406
▁Siberia	-12.0406
▁resurgen	-12.0406
▁whistle	-12.0406
▁Treat	-12.0406
▁clown	-12.0406
▁Source	-12.0406
▁humpback	-12.0406
▁inherit	-12.0406
▁Sultan	-12.0406
▁beverage	-12.0406
▁overshadow	-12.0406
▁justify	-12.0406
▁meteorologist	-12.0406
▁BANG	-12.0406
▁provocation	-12.0406
▁rebuke	-12.0406
▁feather	-12.0406
▁overheat	-12.0406
▁skeleton	-12.0406
▁arthr	-12.0406
▁brink	-12.0406
▁rooftop	-12.0406
▁cricket	-12.0406
▁description	-12.0406
▁leverage	-12.0406
▁Investigation	-12.0406
▁garner	-12.0406
▁Darling	-12.0406
▁Number	-12.0406
▁Hanaro	-12.0406
▁meltdown	-12.0407
▁overdose	-12.0407
▁Pla	-12.0407
▁Chuck	-12.0407
▁stump	-12.0407
▁Conner	-12.0407
▁Globo	-12.0407
▁Robinson	-12.0407
▁collud	-12.0407
shmi	-12.0407
▁translation	-12.0408
fia	-12.0408
▁Journalist	-12.0408
▁heavyweight	-12.0408
▁disturbance	-12.0408
▁notify	-12.0408
▁magnetic	-12.0409
▁showcase	-12.0409
YD	-12.0409
▁Lafa	-12.0409
▁orientation	-12.0409
▁Scientolog	-12.041
▁shortfall	-12.041
▁genom	-12.041
▁horribl	-12.041
▁litter	-12.041
▁floodwater	-12.041
▁annul	-12.0411
▁slapp	-12.0411
▁Kirk	-12.0411
▁Duck	-12.0412
▁deterrent	-12.0412
▁distributor	-12.0412
▁breakdown	-12.0413
▁baton	-12.0413
▁Pi	-12.0413
▁Gerald	-12.0414
▁technological	-12.0414
▁advertisement	-12.0414
▁checkup	-12.0415
▁Moroccan	-12.0415
▁Fish	-12.0415
▁Boll	-12.0416
IM	-12.0417
▁manual	-12.0418
▁Abram	-12.0418
RI	-12.0419
▁Yoko	-12.0419
▁scorch	-12.0419
▁Lower	-12.042
▁Spur	-12.042
uver	-12.042
ateur	-12.0421
▁IU	-12.0423
liberation	-12.0424
▁Sanch	-12.0427
▁receiver	-12.0427
▁censor	-12.0427
▁mock	-12.0428
▁stern	-12.0429
▁alcoholic	-12.0431
▁Independent	-12.0432
▁Yemeni	-12.0434
▁progressive	-12.0434
▁stranger	-12.0435
▁portrayal	-12.0436
▁Valentin	-12.0436
▁Add	-12.0439
▁motivation	-12.0439
▁Millen	-12.044
WF	-12.044
ai	-12.0441
nam	-12.0443
tatistical	-12.0444
▁Algerian	-12.0445
▁bash	-12.0449
▁Yass	-12.0452
▁donat	-12.0453
anana	-12.0453
▁compensate	-12.0454
▁Gry	-12.0455
ylan	-12.0456
fraction	-12.0458
lam	-12.0458
▁lag	-12.0458
atero	-12.0459
▁Ward	-12.0461
▁mega	-12.0463
▁Valeri	-12.0463
▁sway	-12.0465
▁web	-12.0466
▁walkout	-12.0478
▁Fla	-12.0483
▁felon	-12.0486
▁Bund	-12.0487
▁rein	-12.0493
▁Tod	-12.0497
▁orde	-12.0498
▁Body	-12.0499
▁roller	-12.0499
MI	-12.0501
▁comet	-12.0501
▁v	-12.0504
secretar	-12.0504
▁mel	-12.0506
▁sabotage	-12.0508
Ang	-12.0508
▁dismissal	-12.0511
▁Gome	-12.0514
▁Nash	-12.0519
▁skipp	-12.052
▁Emil	-12.0522
▁Pick	-12.0524
▁butter	-12.0526
gate	-12.0533
▁Duja	-12.0535
▁facto	-12.0536
cow	-12.0541
▁Ghan	-12.0547
▁motivat	-12.0548
rena	-12.0552
▁Max	-12.0553
ncheon	-12.0559
rimp	-12.0566
ake	-12.0567
▁exceptional	-12.0571
terior	-12.0576
kind	-12.0581
odor	-12.0581
▁Gal	-12.0582
▁intentional	-12.0587
▁cancell	-12.0587
▁Trac	-12.0588
▁Gard	-12.0595
▁leaning	-12.0595
ircuit	-12.0605
▁soak	-12.0606
▁Yar	-12.062
evel	-12.0622
riel	-12.0622
rio	-12.0626
▁Banda	-12.0628
eem	-12.0629
ambo	-12.0637
▁Ar	-12.0642
▁relation	-12.0642
▁Hag	-12.0646
mates	-12.0649
▁Care	-12.0656
▁Stil	-12.0657
rov	-12.066
▁Hur	-12.066
▁Kat	-12.0663
trophy	-12.0667
▁prey	-12.0667
▁Jav	-12.0672
▁brac	-12.0677
▁Sull	-12.07
▁doubl	-12.0704
▁inevitabl	-12.0706
▁Elev	-12.0711
▁Gill	-12.0713
▁Moss	-12.0715
dium	-12.0718
▁aero	-12.0727
▁KG	-12.0728
▁Mah	-12.0728
▁undermin	-12.0736
▁credibl	-12.0737
▁plain	-12.0748
bre	-12.0767
errill	-12.0772
▁RC	-12.0774
V	-12.0777
▁sword	-12.0785
▁Naga	-12.0794
anga	-12.0794
tun	-12.0794
yman	-12.0794
LM	-12.0795
zak	-12.0796
toge	-12.08
▁Bot	-12.0801
▁Crist	-12.0802
▁Bernie	-12.0805
ON	-12.0805
▁aggravate	-12.0809
eparation	-12.0818
vinen	-12.0819
▁Burn	-12.0829
▁Cut	-12.0839
mate	-12.0841
eval	-12.0846
▁BR	-12.0848
▁Kas	-12.0849
▁Jur	-12.085
▁bounc	-12.0855
▁corps	-12.0856
▁statistical	-12.0856
▁Rey	-12.0858
▁penn	-12.086
oh	-12.0869
▁jo	-12.087
▁Kan	-12.0871
▁Jen	-12.0876
scar	-12.0878
▁lett	-12.0879
asco	-12.0881
vine	-12.0884
▁Ful	-12.0885
▁Vin	-12.0888
uart	-12.0891
▁offset	-12.0897
▁Ger	-12.0902
eta	-12.0907
▁translate	-12.0914
▁stabb	-12.0917
▁log	-12.0926
ggy	-12.0927
▁defuse	-12.0931
av	-12.0936
▁Vinc	-12.0938
▁saint	-12.0939
▁acquir	-12.0945
▁franc	-12.0952
▁Maru	-12.0956
reze	-12.0971
▁bore	-12.0984
▁memo	-12.0985
ssi	-12.101
▁entr	-12.1014
▁crumbl	-12.1019
ato	-12.1022
▁persuad	-12.1023
bye	-12.1026
▁listing	-12.103
king	-12.103
▁Key	-12.103
▁Warn	-12.1035
G	-12.1035
▁Mak	-12.1036
etti	-12.1036
▁Bulgaria	-12.1042
▁integrat	-12.1044
▁Les	-12.1044
▁comput	-12.1045
▁Hawkin	-12.1046
▁Clemen	-12.1051
afford	-12.1053
▁porn	-12.1053
▁harmon	-12.1057
▁skip	-12.106
iquit	-12.1062
rose	-12.1067
▁villa	-12.1067
▁stimulate	-12.1068
▁squeez	-12.1069
▁orphan	-12.1071
lihood	-12.1071
pportunit	-12.1072
bvious	-12.1072
▁vomit	-12.1072
▁Barclay	-12.1072
▁Charlotte	-12.1072
▁Paraguay	-12.1072
▁Sleep	-12.1072
▁accumulate	-12.1072
▁affidavit	-12.1072
▁disapprov	-12.1072
▁fragment	-12.1072
▁librar	-12.1072
▁malfunction	-12.1072
▁mogul	-12.1072
▁monaster	-12.1072
▁nephew	-12.1072
▁precondition	-12.1072
▁unearth	-12.1072
▁unleash	-12.1072
▁unnecessar	-12.1072
▁Delegate	-12.1072
▁Lawrence	-12.1072
▁Marathon	-12.1072
▁vendor	-12.1072
▁pneum	-12.1072
▁thumb	-12.1072
▁bystander	-12.1072
▁reshuffl	-12.1072
▁martial	-12.1072
▁excellent	-12.1072
▁Sherpa	-12.1072
▁elegan	-12.1072
▁estrange	-12.1073
UMP	-12.1073
▁email	-12.1073
▁roadblock	-12.1073
▁Advance	-12.1073
▁Braun	-12.1073
▁coffin	-12.1073
▁textile	-12.1073
▁memoir	-12.1073
▁blacklist	-12.1073
▁Keep	-12.1073
▁Teacher	-12.1073
▁minimal	-12.1073
▁minimiz	-12.1073
▁spacewalk	-12.1073
▁Diplomat	-12.1073
▁stroll	-12.1074
▁commentator	-12.1074
▁enlist	-12.1074
▁rejoin	-12.1074
▁clamp	-12.1074
▁redeployment	-12.1074
▁Meyer	-12.1074
▁Tribun	-12.1074
▁peel	-12.1074
▁conservationist	-12.1074
▁orphanage	-12.1074
▁miracle	-12.1074
onso	-12.1074
▁Large	-12.1075
▁jaw	-12.1075
▁foul	-12.1075
▁spotlight	-12.1075
▁Luther	-12.1076
▁Petrole	-12.1076
▁Roos	-12.1076
▁Trail	-12.1076
▁swamp	-12.1076
▁cramp	-12.1077
▁prescrib	-12.1077
▁pilgrimage	-12.1077
▁chopper	-12.1078
▁tremor	-12.1078
roll	-12.1079
▁Hugh	-12.1079
▁Llo	-12.1081
ilo	-12.1081
▁teach	-12.1081
▁accomplishment	-12.1081
▁Askari	-12.1082
▁jogg	-12.1082
▁hideout	-12.1082
▁lenient	-12.1084
▁Wie	-12.1085
▁stray	-12.1087
▁Casp	-12.1089
▁Shank	-12.1092
▁homeowner	-12.1093
▁farmland	-12.1094
▁valuable	-12.1096
crates	-12.1097
▁hinder	-12.1098
▁quantit	-12.1098
▁boot	-12.1099
▁Barney	-12.1102
abo	-12.1103
▁interviewer	-12.1108
▁Cox	-12.1113
ku	-12.1113
▁Lahi	-12.1114
▁swarm	-12.1116
▁Demonstrat	-12.1118
▁Fried	-12.1119
▁reminder	-12.112
▁demonstrat	-12.112
musse	-12.112
▁Want	-12.1122
▁dresse	-12.1124
▁wo	-12.1124
▁reel	-12.1126
▁Cycl	-12.1128
rot	-12.113
▁Wong	-12.1131
kawa	-12.1131
▁presid	-12.1132
▁bureaucrat	-12.1134
▁juror	-12.1134
▁dignitar	-12.1134
▁Save	-12.1135
▁Doming	-12.1137
ave	-12.1143
▁Ash	-12.1144
▁laborer	-12.1152
▁Pais	-12.1154
TC	-12.1155
▁freezer	-12.1155
▁Sula	-12.1155
▁hacker	-12.1159
▁unite	-12.1163
▁Dress	-12.1163
▁Happy	-12.1165
▁Nabi	-12.1168
waken	-12.1171
dysse	-12.1171
▁periodic	-12.1173
▁hijacker	-12.1183
▁ke	-12.1184
▁Estra	-12.1185
ncer	-12.1185
▁underline	-12.1186
▁beside	-12.1188
▁accommodate	-12.1189
▁Meghan	-12.1192
▁shower	-12.1192
▁credib	-12.1193
▁influen	-12.1196
iffe	-12.1197
▁Shand	-12.1204
▁stirring	-12.1206
▁Hungar	-12.1206
ig	-12.1212
▁Johans	-12.1215
frame	-12.1216
Morgan	-12.1216
model	-12.1219
morning	-12.122
▁pillar	-12.1222
onic	-12.1224
ngue	-12.1231
▁mates	-12.1235
eng	-12.1242
och	-12.1246
▁ne	-12.1248
migration	-12.1251
▁nett	-12.1252
▁gum	-12.1264
▁Patt	-12.1269
▁AG	-12.127
▁invad	-12.1276
bane	-12.1284
▁hi	-12.1285
roads	-12.129
ches	-12.1291
▁quota	-12.1292
▁dece	-12.1292
yres	-12.1294
▁Marco	-12.1296
▁superior	-12.1297
▁Beth	-12.1297
mpire	-12.1301
▁desir	-12.1301
▁approache	-12.1303
▁Ice	-12.1304
▁separat	-12.1307
llen	-12.1308
▁Lump	-12.132
▁mineral	-12.1321
ulous	-12.1328
tious	-12.1329
nom	-12.1331
▁jun	-12.1337
▁Fey	-12.1337
gaz	-12.1337
▁assur	-12.1339
▁Mai	-12.1344
▁pleasure	-12.135
▁stabiliz	-12.1353
▁bio	-12.1356
▁dependenc	-12.1359
MS	-12.136
▁rust	-12.1385
▁swam	-12.1388
EN	-12.1391
▁Mek	-12.1394
▁sang	-12.1398
▁assum	-12.1411
▁Kyong	-12.1412
dustrializ	-12.1413
▁Naj	-12.1416
▁Yama	-12.1426
post	-12.1428
▁Hell	-12.1441
▁cultivat	-12.1443
asso	-12.1443
reau	-12.1445
▁tumble	-12.1475
▁Stop	-12.1487
▁Cra	-12.149
wes	-12.15
toya	-12.1506
▁prosecute	-12.1517
safe	-12.1519
▁Sara	-12.1519
▁mono	-12.152
▁Polit	-12.1527
▁disciplin	-12.1535
▁mediate	-12.1542
text	-12.1543
imon	-12.1551
▁Barks	-12.1553
▁Tyl	-12.1555
ith	-12.1571
zi	-12.1573
worker	-12.1576
▁Brand	-12.158
▁Fil	-12.1587
▁Beng	-12.1589
ci	-12.1596
▁precedent	-12.1602
▁span	-12.1603
▁Gig	-12.1607
▁plains	-12.161
▁Score	-12.1611
aka	-12.1612
gue	-12.1622
ational	-12.1624
▁Mall	-12.1629
▁Hend	-12.1634
bin	-12.1635
gne	-12.1636
▁mat	-12.1639
stra	-12.1643
▁assembl	-12.1644
ference	-12.1651
ating	-12.1672
ria	-12.1684
saw	-12.1687
ulu	-12.1689
▁Bain	-12.169
heim	-12.1693
▁bless	-12.1696
▁Heath	-12.1707
▁integrate	-12.1708
nnan	-12.1708
▁pric	-12.1716
nier	-12.1727
▁deter	-12.1727
ehr	-12.173
inous	-12.1734
▁vacan	-12.1735
▁Kor	-12.1735
▁Spect	-12.1735
▁Bark	-12.174
▁Opera	-12.1741
▁Voi	-12.1746
▁rage	-12.1748
▁mobiliz	-12.1753
▁Nest	-12.1753
▁Wor	-12.1754
▁Pack	-12.1755
▁extinguish	-12.1759
▁buck	-12.1762
▁Machi	-12.1762
erry	-12.1764
▁reluctan	-12.1765
geant	-12.177
▁laund	-12.1773
▁evacu	-12.1774
guet	-12.1775
▁emitt	-12.1775
▁Pul	-12.1777
▁Abdulla	-12.1779
▁inflat	-12.1783
ussi	-12.1784
uclear	-12.1785
▁appreciati	-12.1787
▁Baptist	-12.1787
▁Estimate	-12.1787
▁Insurgent	-12.1787
▁Lithuania	-12.1787
▁Ritchie	-12.1787
▁Salvador	-12.1787
▁Satellite	-12.1787
▁Similar	-12.1787
▁acclaim	-12.1787
▁convenience	-12.1787
▁curtain	-12.1787
▁evident	-12.1787
▁gondola	-12.1787
▁indirect	-12.1787
▁jurisdiction	-12.1787
▁motorbike	-12.1787
▁volley	-12.1787
▁Dupre	-12.1787
▁Strong	-12.1787
▁clarify	-12.1787
▁relegat	-12.1787
▁reunion	-12.1787
▁superstar	-12.1787
▁Blanchett	-12.1787
▁grocer	-12.1787
▁corridor	-12.1787
▁Casino	-12.1787
▁fascinat	-12.1787
▁Muhammad	-12.1787
▁dynamic	-12.1787
▁pupp	-12.1787
▁specify	-12.1787
▁Gilbert	-12.1787
misunderstanding	-12.1787
▁Mubar	-12.1787
▁clause	-12.1787
▁Freud	-12.1787
▁Emmanuel	-12.1787
▁crane	-12.1787
▁Archaeologi	-12.1787
▁expulsion	-12.1787
▁blade	-12.1787
▁roam	-12.1787
▁Eduard	-12.1787
▁erotic	-12.1787
▁envision	-12.1787
▁ideological	-12.1787
▁patch	-12.1787
▁curious	-12.1788
metric	-12.1788
▁tread	-12.1788
▁preference	-12.1788
▁Ameli	-12.1788
▁cathedral	-12.1788
▁exert	-12.1788
▁imagination	-12.1788
▁malign	-12.1788
▁perpetrator	-12.1789
▁shunn	-12.1789
▁Archive	-12.1789
▁whipp	-12.1789
▁annoy	-12.1789
▁Trump	-12.1789
▁systematic	-12.179
▁aisle	-12.179
▁verbal	-12.1791
▁insect	-12.1791
▁Dill	-12.1791
▁invention	-12.1791
▁contemporar	-12.1791
▁relian	-12.1791
▁foment	-12.1792
▁enthusiastic	-12.1792
▁Gator	-12.1793
▁knight	-12.1794
▁molest	-12.1794
▁interpretation	-12.1795
▁thigh	-12.1796
▁authoritarian	-12.1797
▁Militant	-12.1797
▁Willi	-12.1797
▁boil	-12.1797
▁canoe	-12.1798
▁Urban	-12.1798
aewoo	-12.1799
▁disk	-12.1801
▁gangster	-12.1802
▁Code	-12.1803
emptive	-12.1804
▁Ranch	-12.1804
▁shootout	-12.1804
▁racist	-12.1805
bola	-12.1805
▁interrogat	-12.1808
▁tenth	-12.1809
▁wrestl	-12.181
▁Battle	-12.181
▁phrase	-12.1812
▁Harle	-12.1816
▁combatant	-12.1817
▁delta	-12.1818
▁incit	-12.1819
itu	-12.1819
▁banker	-12.1819
▁Lamp	-12.182
▁Kati	-12.1823
WP	-12.1823
▁doom	-12.1825
▁rental	-12.1827
▁skidd	-12.1828
▁Alme	-12.1829
▁Jamaican	-12.1829
▁Lum	-12.183
▁Shau	-12.1832
▁Nationalist	-12.1837
▁plantation	-12.1837
▁Silver	-12.1841
▁lawless	-12.1846
▁Stam	-12.1848
▁trench	-12.1848
▁Youth	-12.1849
▁Colomb	-12.185
▁Commander	-12.185
▁Barros	-12.1853
▁cream	-12.1856
▁scal	-12.1859
▁Shrin	-12.1861
▁fuse	-12.1861
▁Rama	-12.1865
harmonic	-12.1865
▁Philipp	-12.187
taka	-12.1873
▁unwa	-12.1876
▁User	-12.1877
▁Nasir	-12.1879
▁dip	-12.1884
▁slice	-12.1885
▁Hans	-12.1885
▁dancer	-12.1888
▁forge	-12.1891
▁architectur	-12.1895
▁reserv	-12.1895
oga	-12.1896
▁una	-12.1898
▁Mirr	-12.1901
▁McC	-12.1904
▁Samp	-12.1906
ark	-12.1907
▁Duca	-12.1916
lender	-12.1917
CN	-12.1917
▁boo	-12.1921
▁See	-12.1922
▁poet	-12.1924
fre	-12.1926
still	-12.1933
▁creditor	-12.1936
cin	-12.1936
▁Hai	-12.1937
bach	-12.1937
ult	-12.1937
atus	-12.1939
TP	-12.1941
▁Finn	-12.1942
▁Vera	-12.1945
▁dot	-12.1945
▁Fl	-12.195
doch	-12.1951
▁Sharp	-12.1952
oman	-12.1954
nian	-12.1966
ex	-12.1971
ome	-12.1972
UR	-12.1986
acks	-12.1986
usk	-12.1987
bridge	-12.1988
iac	-12.1988
found	-12.1988
bur	-12.1989
▁tile	-12.1989
RM	-12.199
▁clutch	-12.1994
ario	-12.1994
▁fend	-12.1998
▁clone	-12.2005
▁Claudi	-12.2006
▁Winds	-12.201
▁Ima	-12.2015
▁multimillion	-12.2023
ridge	-12.2026
▁sung	-12.2027
▁amo	-12.203
▁injure	-12.203
▁desp	-12.2034
▁regrett	-12.2036
pin	-12.2039
▁toppl	-12.204
▁Reporter	-12.2045
▁Alexandr	-12.2046
grow	-12.2046
stitution	-12.2048
▁mon	-12.2051
CF	-12.2053
▁exercis	-12.2069
▁Mull	-12.2071
▁Jess	-12.2072
▁dome	-12.2079
ieu	-12.2085
▁wip	-12.2087
nfantry	-12.2087
SL	-12.2092
▁tackl	-12.2099
▁Duran	-12.2108
▁neo	-12.211
▁slashing	-12.2114
book	-12.2123
raged	-12.2127
▁belly	-12.213
▁repatriat	-12.2131
toff	-12.2143
▁meteor	-12.2163
thic	-12.2165
decent	-12.2166
▁preside	-12.217
▁Try	-12.2173
car	-12.2173
lett	-12.2181
▁Benoi	-12.2182
▁Guards	-12.2182
ehan	-12.2184
lman	-12.2185
▁Mega	-12.2186
▁enabl	-12.2187
du	-12.2189
▁Petro	-12.2193
▁Garc	-12.2193
▁gu	-12.2197
kin	-12.2199
▁Josh	-12.22
unny	-12.2207
▁Pu	-12.2207
▁Sola	-12.221
▁Ros	-12.2217
SBURG	-12.2225
▁Ferr	-12.2236
▁Shar	-12.2251
▁Gin	-12.2257
▁rec	-12.2259
▁Juli	-12.2262
▁heel	-12.2263
ego	-12.2263
acco	-12.2263
▁Eli	-12.2264
▁mone	-12.2265
ption	-12.227
▁tortur	-12.2278
xis	-12.2288
ubb	-12.2289
lis	-12.2292
▁initiate	-12.2297
oxid	-12.2302
▁Rap	-12.2303
life	-12.2309
▁Dora	-12.2314
▁Mona	-12.2316
▁Wend	-12.2319
▁Ari	-12.2326
matic	-12.233
▁angle	-12.233
tting	-12.2336
▁Bab	-12.2339
▁Thie	-12.2342
▁embezzl	-12.2342
▁decent	-12.2345
▁nationalit	-12.2348
rag	-12.2357
tu	-12.2359
MAN	-12.2365
irming	-12.2366
▁wise	-12.2369
▁rout	-12.237
amilton	-12.2375
▁envelope	-12.2379
akat	-12.238
lu	-12.2382
▁compil	-12.2385
▁Mei	-12.239
▁educat	-12.2397
bian	-12.2398
▁render	-12.2398
▁Nativ	-12.2399
tel	-12.2404
▁aut	-12.2404
lumin	-12.2412
▁casual	-12.2412
avi	-12.2414
▁Cheng	-12.2418
ction	-12.2421
▁evaluate	-12.2422
▁stirr	-12.2435
RAN	-12.2439
eddin	-12.2443
▁Mili	-12.2458
▁abnormal	-12.2459
▁raft	-12.2465
▁deplor	-12.2466
▁DP	-12.247
▁messag	-12.247
▁admitt	-12.247
print	-12.2474
▁AS	-12.2479
▁coppe	-12.2484
oul	-12.249
▁firefight	-12.249
col	-12.2492
▁physic	-12.2493
▁minded	-12.2496
▁Fra	-12.2499
▁shall	-12.2504
▁Lal	-12.2507
▁Ein	-12.2515
than	-12.2518
▁sci	-12.2518
▁rib	-12.2519
▁bend	-12.252
▁simulate	-12.2525
▁Domini	-12.2526
▁veer	-12.2526
▁Gamb	-12.2533
▁Physic	-12.2533
▁Sher	-12.2537
ivan	-12.2538
chemical	-12.2543
moto	-12.2548
▁emphasi	-12.2549
▁excavat	-12.255
▁Shop	-12.2553
rivate	-12.2554
▁legitima	-12.2555
▁persecut	-12.2556
▁Adviser	-12.2556
▁Inspection	-12.2556
▁Namdaemu	-12.2556
▁Participa	-12.2556
▁Smurf	-12.2556
▁UNITE	-12.2556
▁aggregate	-12.2556
▁complicit	-12.2556
▁identical	-12.2556
▁insufficient	-12.2556
▁intimate	-12.2556
▁magistrate	-12.2556
▁neglect	-12.2556
▁quadruple	-12.2556
▁upheaval	-12.2556
▁wizard	-12.2556
▁Situation	-12.2556
▁ecosystem	-12.2556
▁frantic	-12.2556
▁resurrect	-12.2556
YANG	-12.2556
▁overflow	-12.2556
▁Tempel	-12.2556
▁rainforest	-12.2556
▁turkey	-12.2556
▁Resort	-12.2556
▁modifie	-12.2556
▁voyage	-12.2556
▁ossuar	-12.2556
▁zebra	-12.2556
▁bulb	-12.2556
▁Samuel	-12.2556
▁Sindh	-12.2556
▁Blood	-12.2556
▁Anglican	-12.2556
▁analog	-12.2556
▁fugitive	-12.2556
▁faint	-12.2556
▁motel	-12.2556
▁Adolf	-12.2556
▁salute	-12.2556
▁glove	-12.2556
▁vague	-12.2556
▁warlord	-12.2556
▁balk	-12.2556
▁Population	-12.2556
▁resemblance	-12.2556
▁Jalal	-12.2556
▁merit	-12.2556
▁chemist	-12.2556
▁Elvi	-12.2556
▁sermon	-12.2557
▁nightmare	-12.2557
▁Fresh	-12.2557
▁canister	-12.2557
▁surrogate	-12.2557
▁Hajj	-12.2557
▁astonish	-12.2557
opyright	-12.2557
▁mixture	-12.2557
▁Celtic	-12.2557
▁prophet	-12.2557
▁psychiatrist	-12.2557
▁battalion	-12.2557
▁compell	-12.2557
▁footprint	-12.2557
▁snowfall	-12.2558
▁frenz	-12.2558
▁swimmer	-12.2558
▁weird	-12.2558
▁Trev	-12.2558
▁Mirror	-12.2559
▁unfold	-12.2559
▁calculation	-12.2559
▁hillside	-12.2559
▁deaf	-12.2559
▁embroi	-12.2559
▁jihadist	-12.256
▁Grow	-12.256
▁Caffe	-12.256
▁gown	-12.256
▁thaw	-12.256
▁enrollment	-12.2561
▁feminin	-12.2561
▁deliberation	-12.2561
▁ramm	-12.2561
▁dogged	-12.2562
▁adaptation	-12.2562
▁throng	-12.2563
ukov	-12.2563
▁Ryo	-12.2563
DT	-12.2563
schle	-12.2563
▁budd	-12.2564
▁twenty	-12.2564
▁Maritime	-12.2564
▁battlefield	-12.2565
▁Bog	-12.2565
▁flatten	-12.2566
▁hut	-12.2566
▁downgrade	-12.2566
▁assignment	-12.2567
mark	-12.2568
▁Railway	-12.2568
Spark	-12.2568
▁resettle	-12.2568
▁Gwang	-12.2568
▁Beaut	-12.2569
▁shotgun	-12.2569
▁Thi	-12.257
▁Krug	-12.2571
tina	-12.2571
eille	-12.2572
▁Disneyland	-12.2572
▁heroic	-12.2572
▁Sound	-12.2573
▁hallway	-12.2573
▁Producer	-12.2574
▁lament	-12.2575
▁Boni	-12.2576
▁Burt	-12.2576
ouf	-12.2576
▁collector	-12.2577
ussain	-12.2581
▁sanctuar	-12.2582
▁congregat	-12.2583
▁fetch	-12.2583
▁abdomen	-12.2583
▁characteristic	-12.2584
▁Planet	-12.2584
▁Bau	-12.2584
▁bark	-12.2585
▁Sometime	-12.2585
▁reache	-12.2585
▁Lars	-12.2587
▁adventurer	-12.2589
▁tangib	-12.2589
▁sniff	-12.2589
▁VIP	-12.259
mid	-12.2592
▁Hogan	-12.2593
▁Luna	-12.2594
▁Lari	-12.2597
▁Carre	-12.2598
▁Camill	-12.2599
has	-12.2602
▁logg	-12.2603
▁jitter	-12.2604
lept	-12.2608
icon	-12.2608
of	-12.2608
▁conductor	-12.2609
▁explorer	-12.2609
▁Mason	-12.261
▁cele	-12.2611
lines	-12.2611
EH	-12.2614
oulder	-12.2615
bert	-12.2618
▁Cheon	-12.2618
▁Ober	-12.2622
▁tide	-12.2624
▁closet	-12.2626
nova	-12.2626
allow	-12.263
▁Please	-12.2632
AMI	-12.2634
▁Ter	-12.2635
▁plagu	-12.2636
▁Lynd	-12.2638
▁Rach	-12.2639
▁rewrit	-12.2641
▁Tran	-12.2646
elling	-12.2651
inburg	-12.2652
▁proportional	-12.2654
entral	-12.2655
▁Carrie	-12.2656
▁Fill	-12.2656
ych	-12.266
▁degrad	-12.2662
▁reservation	-12.2663
▁couch	-12.2667
▁blend	-12.267
emilitariz	-12.2672
▁stat	-12.2673
▁reproducti	-12.2679
▁SA	-12.2681
errez	-12.2685
rawa	-12.2686
▁affection	-12.2687
mandu	-12.269
▁sour	-12.2697
▁Fol	-12.2699
▁Stevens	-12.2704
▁Ris	-12.2705
▁IP	-12.2706
▁hik	-12.2707
hurt	-12.2707
▁Berl	-12.2711
eban	-12.2711
horn	-12.2712
▁Close	-12.2712
talia	-12.2714
bee	-12.2718
▁Rand	-12.272
▁elde	-12.2722
▁Sina	-12.2726
▁AN	-12.2729
▁sake	-12.2729
▁usage	-12.2732
▁op	-12.2737
▁chin	-12.2738
fan	-12.2738
▁puni	-12.2741
▁thriv	-12.2743
rg	-12.2745
▁waterway	-12.2745
unting	-12.2748
▁Af	-12.2749
▁Ak	-12.2751
hor	-12.2751
LP	-12.2752
▁Rafi	-12.2753
▁communicat	-12.2754
andel	-12.2756
▁Guns	-12.2756
aw	-12.2759
wage	-12.2762
uez	-12.2765
▁Pesh	-12.2767
▁cling	-12.2797
▁ripple	-12.2801
skies	-12.2802
nutrition	-12.2802
▁Pont	-12.2805
▁Ica	-12.2808
▁prob	-12.2815
▁compuls	-12.2819
sleep	-12.2822
haus	-12.2822
conduct	-12.2822
▁Rees	-12.2822
foot	-12.2823
avoid	-12.2824
▁urin	-12.2826
▁initiat	-12.2826
four	-12.2828
▁Schult	-12.2829
▁Dark	-12.2829
anxi	-12.283
phone	-12.2833
▁admire	-12.2838
elo	-12.284
▁royalt	-12.2842
▁Uni	-12.2844
nterstate	-12.2848
▁Study	-12.2851
▁rub	-12.2856
cry	-12.2858
diac	-12.2862
pite	-12.2862
▁discipline	-12.2863
hue	-12.287
▁aggravat	-12.2871
▁Prat	-12.2874
▁defian	-12.288
ET	-12.2883
chai	-12.2885
mill	-12.2888
▁Kab	-12.2888
▁slate	-12.289
▁Taj	-12.2894
▁incorporate	-12.2894
▁specialize	-12.2904
▁destruct	-12.2906
▁displace	-12.2909
iagra	-12.2909
▁uphold	-12.2922
nted	-12.2924
rat	-12.2926
▁Gere	-12.2927
umn	-12.2928
▁Nu	-12.2929
▁fax	-12.293
▁realistic	-12.2932
▁Wei	-12.2939
steps	-12.294
▁cart	-12.2944
▁Prai	-12.2947
oha	-12.2955
▁Lang	-12.2958
▁Solan	-12.2958
kia	-12.296
▁hood	-12.2965
era	-12.2966
▁Bris	-12.2967
MD	-12.2976
tta	-12.2978
▁Cris	-12.2982
ddy	-12.2988
awar	-12.2993
jin	-12.2997
▁lac	-12.3006
fest	-12.3014
inal	-12.3014
eau	-12.3014
itude	-12.3017
▁Oman	-12.3018
▁admir	-12.3018
▁repressi	-12.3026
sibilit	-12.3027
▁Marshal	-12.3028
tia	-12.3037
▁Tha	-12.3038
abi	-12.3046
▁Barr	-12.3053
▁notable	-12.3055
▁sam	-12.306
▁hell	-12.3061
▁Schum	-12.3062
▁recorder	-12.3066
▁nutrition	-12.3084
shot	-12.3084
nda	-12.3088
cable	-12.3088
▁Vari	-12.3093
ving	-12.3097
▁Hwa	-12.3098
ika	-12.3105
marked	-12.311
▁Tel	-12.3117
▁Tog	-12.3118
▁wag	-12.3131
▁Hop	-12.3132
vi	-12.3133
▁expectan	-12.3134
▁horn	-12.3134
▁troph	-12.3144
▁Cars	-12.3144
▁equaliz	-12.3145
▁graves	-12.3152
▁confiscate	-12.3154
▁forger	-12.3157
▁Make	-12.3157
lcome	-12.3158
▁Cott	-12.316
▁Luc	-12.3169
chon	-12.3169
▁Clar	-12.3177
AP	-12.3179
▁shatter	-12.3188
▁dive	-12.319
▁whiske	-12.3203
utomotive	-12.3203
▁ascend	-12.3208
▁coaster	-12.3209
rticle	-12.3212
vac	-12.3212
bol	-12.3214
▁flavor	-12.3216
▁Sevent	-12.3217
▁Alba	-12.3219
▁reliev	-12.3221
▁Bere	-12.3226
▁frustrate	-12.3229
▁builder	-12.3232
TT	-12.3235
▁eras	-12.3236
▁masse	-12.3237
rick	-12.3247
retz	-12.3247
▁Stor	-12.3254
▁Webb	-12.3258
ety	-12.3267
▁proportion	-12.3278
chang	-12.3279
▁sla	-12.3282
bury	-12.3284
▁Sim	-12.3285
▁beard	-12.3291
▁coache	-12.3295
▁shells	-12.3299
▁Alp	-12.3306
hy	-12.3306
▁Sep	-12.3314
uicide	-12.3316
ks	-12.332
ip	-12.3321
wind	-12.3321
▁interven	-12.3324
▁Know	-12.3325
▁Wacho	-12.3332
▁Bron	-12.3337
▁commute	-12.3353
▁Sil	-12.3354
gye	-12.3357
U	-12.3359
▁abdom	-12.336
▁freight	-12.336
▁Albania	-12.336
▁shrug	-12.3361
▁prot	-12.3361
bas	-12.3362
▁Bah	-12.3368
▁KO	-12.3376
▁bike	-12.3378
CB	-12.338
▁Clint	-12.338
▁smuggle	-12.3382
hej	-12.3388
▁Palestin	-12.3388
riminal	-12.3388
▁fog	-12.3388
▁stiff	-12.3389
▁Depress	-12.3389
▁futurist	-12.3389
▁skyrocket	-12.3389
▁endeavor	-12.3389
▁Alejandr	-12.3389
▁Detective	-12.3389
▁Juventu	-12.3389
▁Trinidad	-12.3389
▁abolition	-12.3389
▁accomplice	-12.3389
▁athletic	-12.3389
▁avalanche	-12.3389
▁awkward	-12.3389
▁brawl	-12.3389
▁cantaloupe	-12.3389
▁cockpit	-12.3389
▁constituenc	-12.3389
▁discontent	-12.3389
▁disqualifi	-12.3389
▁emperor	-12.3389
▁enclave	-12.3389
▁frequenc	-12.3389
▁memorandum	-12.3389
▁qualification	-12.3389
▁Caesar	-12.3389
▁Panmunj	-12.3389
▁comrade	-12.3389
▁Connor	-12.3389
▁Consider	-12.3389
▁Namibia	-12.3389
▁Adventure	-12.3389
▁Knox	-12.3389
▁patent	-12.3389
ockefeller	-12.3389
▁chimpanzee	-12.3389
▁wrangl	-12.3389
▁Anchor	-12.3389
▁Theatre	-12.3389
▁blitz	-12.3389
▁plaintiff	-12.3389
▁intoxicat	-12.3389
▁prevail	-12.3389
▁patern	-12.3389
▁stalk	-12.3389
eutic	-12.3389
▁leopard	-12.3389
▁fertilizer	-12.3389
▁unify	-12.3389
▁Mauritania	-12.3389
▁unreasonabl	-12.3389
▁Newspaper	-12.3389
▁desktop	-12.339
▁heaven	-12.339
▁suitcase	-12.339
▁chef	-12.339
▁delinquent	-12.339
▁Screen	-12.339
▁marble	-12.339
▁elbow	-12.339
▁Search	-12.339
▁levee	-12.339
▁tarmac	-12.339
▁Hopkin	-12.339
▁Cesar	-12.339
▁mathematic	-12.339
▁sequel	-12.339
▁columnist	-12.339
▁allergi	-12.3391
▁forehand	-12.3391
▁Proceed	-12.3391
▁circuit	-12.3391
▁Balkan	-12.3391
▁Pepper	-12.3392
▁resent	-12.3392
▁Boulo	-12.3392
▁cubic	-12.3392
▁workshop	-12.3392
▁Slavi	-12.3392
▁purge	-12.3392
▁commemoration	-12.3392
▁rope	-12.3393
▁Ohmy	-12.3393
▁Corre	-12.3393
▁touchdown	-12.3393
▁revoke	-12.3393
▁discard	-12.3393
▁FRAN	-12.3393
▁reptile	-12.3394
▁Bradley	-12.3394
bun	-12.3394
▁purse	-12.3394
penh	-12.3394
▁sniper	-12.3394
▁fabrication	-12.3395
▁Roche	-12.3395
▁Manager	-12.3395
▁abductee	-12.3395
▁Have	-12.3395
▁lime	-12.3395
▁iceberg	-12.3396
▁Chungchon	-12.3396
▁Horse	-12.3396
▁Break	-12.3396
▁Explorer	-12.3397
▁collaborator	-12.3397
▁Sheik	-12.3397
▁gym	-12.3397
▁Oliver	-12.3397
▁feline	-12.3398
▁Lebo	-12.3398
▁Montrea	-12.3399
▁cull	-12.3399
▁Citizen	-12.3399
▁deflect	-12.34
▁mechanic	-12.34
▁void	-12.34
▁Diwa	-12.3401
▁Hernan	-12.3401
▁coward	-12.3401
▁stack	-12.3401
▁Salam	-12.3401
▁dash	-12.3401
▁tyrann	-12.3402
▁temper	-12.3402
▁weightless	-12.3402
PB	-12.3403
▁Gabriel	-12.3403
▁cheese	-12.3403
▁compris	-12.3404
▁Hat	-12.3404
▁gala	-12.3404
▁thorn	-12.3405
▁Turkmen	-12.3405
▁depiction	-12.3405
▁rename	-12.3406
▁matchup	-12.3406
▁mountainside	-12.3408
▁usher	-12.3409
▁counselor	-12.341
▁Por	-12.3411
agen	-12.3411
mpact	-12.3412
▁mute	-12.3412
▁McCla	-12.3412
▁wrestler	-12.3412
▁Eurosta	-12.3413
ANSA	-12.3414
▁reef	-12.3414
▁downward	-12.3415
▁hugg	-12.3416
▁worship	-12.3416
▁pools	-12.3418
▁Cypr	-12.3421
gg	-12.3421
▁stark	-12.3421
▁reasonabl	-12.3422
▁unfit	-12.3423
▁Fabr	-12.3424
▁hospitalization	-12.3426
▁Viru	-12.3426
▁dimensional	-12.3426
▁Sreb	-12.3426
▁Suva	-12.3428
▁Lai	-12.343
▁chore	-12.3434
▁popul	-12.3434
▁adolescent	-12.3436
▁Asha	-12.3437
etcher	-12.3438
▁Hoff	-12.3439
▁Jeon	-12.3439
ori	-12.3441
▁arts	-12.3442
uot	-12.3442
▁Fou	-12.3445
▁Colo	-12.3446
▁upward	-12.3446
▁Sien	-12.3447
▁Drew	-12.3451
▁navigat	-12.3454
ipper	-12.3454
▁indicator	-12.3457
▁rode	-12.3458
▁Cald	-12.3459
hart	-12.346
keeper	-12.3464
▁cement	-12.3467
▁physicist	-12.3474
▁Geno	-12.3474
▁bidder	-12.3475
▁Kerch	-12.3475
▁Hamm	-12.3478
igat	-12.3478
ahir	-12.3478
▁defy	-12.3482
▁forbidd	-12.3482
▁Cove	-12.3484
▁Meu	-12.3484
▁Bold	-12.3485
rup	-12.349
▁verifiabl	-12.349
▁Canar	-12.3492
▁Parr	-12.3497
▁antiquit	-12.3498
▁exclude	-12.3501
khar	-12.3502
▁doll	-12.3507
▁Ott	-12.3507
▁Has	-12.3511
▁Yog	-12.3513
elegraph	-12.3518
▁Does	-12.3521
▁cav	-12.3523
▁compatible	-12.3524
▁Start	-12.3524
▁groom	-12.3526
▁skeptical	-12.3527
lf	-12.3534
▁Lago	-12.3535
rjee	-12.3537
▁heroin	-12.3539
▁Soy	-12.3544
believ	-12.3554
▁ratifi	-12.3556
▁Ground	-12.3557
▁Wein	-12.3558
▁processor	-12.3565
▁sanit	-12.357
▁Rajas	-12.3575
▁flexibilit	-12.3577
quet	-12.3582
▁claw	-12.3582
egas	-12.3589
▁frig	-12.36
▁glor	-12.3601
▁Shan	-12.3601
sour	-12.3601
▁freeway	-12.3601
aimi	-12.3604
▁vet	-12.361
hiko	-12.3616
iot	-12.3618
▁ICE	-12.362
▁pessimist	-12.3623
▁socialist	-12.3624
yclone	-12.3627
▁sup	-12.3638
▁lip	-12.364
▁activat	-12.3642
dida	-12.3644
▁Colon	-12.3647
load	-12.3649
ode	-12.3649
ichi	-12.3653
▁chatt	-12.3656
▁Works	-12.3657
▁remed	-12.3657
▁mistaken	-12.3659
▁capita	-12.3661
▁Gaul	-12.3665
▁supreme	-12.3669
ANA	-12.367
▁Mun	-12.3671
▁Solt	-12.3674
▁dedicate	-12.3678
vani	-12.3679
▁Village	-12.368
track	-12.3684
LD	-12.3688
lift	-12.3688
▁Luck	-12.3689
niya	-12.3691
▁exchang	-12.3692
taek	-12.3698
▁Anton	-12.3701
ahn	-12.3702
▁prosecut	-12.3703
▁undern	-12.3706
pun	-12.3707
▁Garr	-12.3721
▁Mae	-12.3725
Chang	-12.3725
▁Tang	-12.3728
▁forgive	-12.373
nya	-12.3731
nnie	-12.3733
▁RS	-12.3733
▁pale	-12.3734
illy	-12.3737
lar	-12.3737
▁Berr	-12.3741
▁Sum	-12.3752
▁readi	-12.3762
▁Ricard	-12.3765
▁Frankl	-12.3768
▁Being	-12.3772
ast	-12.3773
▁insider	-12.3776
▁Dori	-12.3776
▁consolidate	-12.3777
▁Stre	-12.3778
▁Moussa	-12.3779
ormula	-12.3781
▁Activis	-12.3782
uca	-12.3786
▁bearer	-12.3787
jong	-12.3802
▁Mano	-12.3803
urious	-12.3803
▁Micro	-12.3807
▁Sai	-12.381
▁Haa	-12.3811
tract	-12.3824
▁induce	-12.3827
cini	-12.383
▁stresse	-12.3835
▁ea	-12.3838
▁Georgian	-12.3839
rin	-12.3841
▁interact	-12.3842
clusion	-12.3842
noble	-12.3848
hafi	-12.3849
▁Gate	-12.3851
▁miserabl	-12.3858
▁Marty	-12.3859
▁Nim	-12.3862
parent	-12.3864
▁Ruba	-12.3865
▁Kha	-12.3867
enate	-12.3868
▁Clay	-12.388
league	-12.3881
▁bloodie	-12.3883
▁NTS	-12.3883
ozen	-12.3884
▁Compa	-12.3885
▁Cost	-12.3888
imbo	-12.3889
▁math	-12.3891
pine	-12.3892
▁Sar	-12.3896
ymus	-12.3907
▁Fran	-12.3908
▁terminate	-12.3913
moon	-12.3916
▁Mann	-12.392
▁disguise	-12.3923
▁mill	-12.3924
ELS	-12.3925
▁Fuji	-12.3931
▁consume	-12.3932
angle	-12.3935
utter	-12.3945
raft	-12.3947
▁Hano	-12.395
▁bonds	-12.3953
ira	-12.3953
▁enforc	-12.3963
tner	-12.3966
imos	-12.397
ahab	-12.3971
▁Cay	-12.3976
▁Hal	-12.3989
pus	-12.3989
list	-12.3993
▁Bra	-12.4
▁Carolin	-12.4002
tech	-12.4003
sahi	-12.4003
▁ignite	-12.4004
young	-12.4011
▁Ren	-12.4024
▁Mang	-12.4026
RS	-12.4032
▁forci	-12.4033
▁outlin	-12.4039
▁SN	-12.4041
SE	-12.4044
▁EST	-12.4045
▁beak	-12.4048
▁Blu	-12.4049
▁biograph	-12.4051
ental	-12.4056
▁attache	-12.4057
▁suite	-12.4057
▁Joan	-12.4065
ndell	-12.4069
▁patrioti	-12.407
▁rep	-12.407
▁Arl	-12.4075
gle	-12.4078
▁thrive	-12.408
▁WM	-12.4082
▁Atta	-12.4082
▁Eisen	-12.4084
▁marcher	-12.4084
▁drumm	-12.4085
▁unp	-12.4086
▁Abd	-12.4086
▁covert	-12.4096
▁Devi	-12.4096
▁Messi	-12.4097
wall	-12.4098
▁Meteorologi	-12.4106
▁Stand	-12.4108
▁metro	-12.4111
rang	-12.4116
pinning	-12.4117
bbie	-12.4122
predictabl	-12.4125
VER	-12.4126
thy	-12.413
▁Burg	-12.4146
▁Basin	-12.4151
▁Mint	-12.4153
▁plen	-12.4155
▁Sham	-12.4159
▁Gallu	-12.416
▁Kana	-12.4164
▁preced	-12.4168
▁Gong	-12.4168
THE	-12.4176
▁brun	-12.4181
▁cycl	-12.4181
ishi	-12.4184
▁gro	-12.4186
▁Jessi	-12.4186
▁Ker	-12.4186
▁Hir	-12.4189
eef	-12.4189
▁characterize	-12.419
isco	-12.4191
▁unifi	-12.4192
▁finaliz	-12.4195
▁Vil	-12.4196
▁awake	-12.4197
table	-12.42
paste	-12.4201
▁Serg	-12.4202
lusive	-12.4205
▁fin	-12.4206
▁interactiv	-12.421
▁Carol	-12.4216
▁Robbe	-12.4216
▁fo	-12.4222
▁boundar	-12.4229
▁Iron	-12.4229
▁missionar	-12.4231
▁Saga	-12.4234
▁Roth	-12.4237
▁Prison	-12.4245
▁Spirit	-12.4251
ER	-12.4257
▁dri	-12.426
▁advoca	-12.4261
yze	-12.4265
▁liberaliz	-12.4269
▁profession	-12.4269
▁invent	-12.427
per	-12.4273
▁robb	-12.4276
glio	-12.4278
ughl	-12.428
▁Lah	-12.4283
▁realiz	-12.4287
▁Exi	-12.4287
scape	-12.4289
▁Bomb	-12.429
essenger	-12.4291
▁bat	-12.4291
smo	-12.4292
▁divisi	-12.4292
▁obsess	-12.4296
▁Fayya	-12.4297
▁veterinar	-12.4297
▁Born	-12.4297
▁merge	-12.4298
▁TM	-12.4298
▁JOHAN	-12.4298
▁McLe	-12.4298
▁Additional	-12.4298
▁Astronaut	-12.4298
▁Dreamliner	-12.4298
▁Glacier	-12.4298
▁Professional	-12.4298
▁Tanzania	-12.4298
▁Yugoslav	-12.4298
▁administer	-12.4298
▁appetite	-12.4298
▁bourse	-12.4298
▁conciliat	-12.4298
▁contagio	-12.4298
▁crawl	-12.4298
▁culprit	-12.4298
▁curtail	-12.4298
▁demolish	-12.4298
▁disregard	-12.4298
▁erratic	-12.4298
▁eyebrow	-12.4298
▁fluctuat	-12.4298
▁fraudulent	-12.4298
▁indiscriminate	-12.4298
▁leisure	-12.4298
▁loophole	-12.4298
▁ordinance	-12.4298
▁outnumber	-12.4298
▁portfolio	-12.4298
▁rebuff	-12.4298
▁rethink	-12.4298
▁rhino	-12.4298
▁seismic	-12.4298
▁souvenir	-12.4298
▁churn	-12.4298
▁goddess	-12.4298
▁jetliner	-12.4298
▁swirl	-12.4298
▁outflow	-12.4298
▁ultimatum	-12.4298
▁BlackBerr	-12.4298
▁mujah	-12.4298
▁jelly	-12.4298
▁trunk	-12.4298
▁Celebrit	-12.4298
▁coloss	-12.4298
▁snapshot	-12.4298
▁steadfast	-12.4298
▁Jorge	-12.4298
▁abstain	-12.4298
▁mistreat	-12.4298
▁complie	-12.4298
▁unwilling	-12.4298
▁backpack	-12.4298
▁Tigr	-12.4298
▁Wheel	-12.4298
▁grasp	-12.4298
▁sleeve	-12.4298
▁Clinic	-12.4299
▁Gwen	-12.4299
▁complian	-12.4299
▁Thunder	-12.4299
▁Edmund	-12.4299
▁chew	-12.4299
rystal	-12.4299
▁encrypt	-12.4299
▁juice	-12.4299
nourishe	-12.4299
▁preview	-12.4299
▁Lieber	-12.4299
▁fool	-12.4299
▁crab	-12.4299
▁incur	-12.4299
▁ecsta	-12.4299
▁cadet	-12.4299
▁grill	-12.4299
crony	-12.4299
▁cemeter	-12.4299
▁submerg	-12.4299
▁refund	-12.43
atorium	-12.43
▁Elisa	-12.43
▁generous	-12.43
▁fetus	-12.43
▁refrigerator	-12.43
▁birthrate	-12.43
▁Guti	-12.43
▁Return	-12.43
emeter	-12.43
▁Djam	-12.43
▁electorate	-12.43
▁Kampu	-12.43
▁Hosseini	-12.43
▁racket	-12.4301
▁motorist	-12.4301
▁Rocket	-12.4301
▁categorical	-12.4301
▁Cedar	-12.4301
▁fundamentalist	-12.4301
▁realign	-12.4301
▁revel	-12.4301
▁rabbit	-12.4302
▁straw	-12.4302
▁headphone	-12.4303
▁furious	-12.4303
▁Kinne	-12.4303
▁flourish	-12.4303
▁artwork	-12.4303
▁Kiku	-12.4304
rgis	-12.4304
▁certifi	-12.4304
▁clever	-12.4304
▁kyoo	-12.4304
▁Dyna	-12.4304
▁Graz	-12.4304
▁nest	-12.4304
▁superjumbo	-12.4304
▁colonel	-12.4305
▁interceptor	-12.4305
▁thankful	-12.4306
alcon	-12.4306
▁Pirate	-12.4306
awful	-12.4306
▁marketplace	-12.4307
▁muddy	-12.4307
▁innovation	-12.4307
▁mire	-12.4308
▁banana	-12.4308
▁specimen	-12.4308
▁dynamit	-12.4308
▁Glov	-12.4308
▁colorful	-12.4308
▁housekeeper	-12.4308
▁Natan	-12.4309
▁Ginger	-12.4311
▁supervisor	-12.4311
▁Hondura	-12.4312
▁Ruben	-12.4312
▁escalator	-12.4312
▁classmate	-12.4313
▁Coca	-12.4314
▁Pardo	-12.4314
▁Calder	-12.4315
▁Sal	-12.4316
▁hardline	-12.4316
▁charm	-12.4316
▁Ivor	-12.4316
▁sporadic	-12.4318
▁Heller	-12.432
▁billboard	-12.432
▁Plain	-12.4321
aptain	-12.4321
▁trek	-12.4321
▁hatch	-12.4324
▁sights	-12.4324
OW	-12.4325
▁scann	-12.4327
▁fundraiser	-12.4327
▁Clean	-12.4328
▁stoppage	-12.4329
▁scoop	-12.4331
▁Blanc	-12.4332
▁reper	-12.4332
▁pinn	-12.4332
▁heft	-12.4333
▁equalise	-12.4334
▁Thoms	-12.4336
▁rott	-12.4336
▁Gross	-12.4338
▁lapse	-12.4339
▁vent	-12.434
▁Clement	-12.434
nipes	-12.4341
▁Horm	-12.4341
elf	-12.4342
▁Fein	-12.4344
▁carat	-12.4346
▁Hammon	-12.4349
mith	-12.4353
▁intrigu	-12.4354
western	-12.4355
▁Tourist	-12.4359
omplex	-12.4359
▁Ryd	-12.4359
lestero	-12.4362
▁Patter	-12.4364
olog	-12.4365
▁airship	-12.437
▁flagg	-12.437
▁Om	-12.437
▁spaceship	-12.4371
▁loosen	-12.4371
▁Personal	-12.4371
▁fist	-12.4372
▁notion	-12.4373
▁Acros	-12.4377
▁Brod	-12.4378
▁Hyde	-12.4385
▁tee	-12.4387
▁Kraus	-12.439
▁dare	-12.439
▁Denis	-12.4393
▁nuts	-12.4394
▁incorporat	-12.4397
▁mobilize	-12.44
▁watche	-12.4404
▁Singaporean	-12.4405
jor	-12.4407
▁Dem	-12.4408
▁Sophi	-12.4409
lab	-12.4409
▁Suf	-12.441
tze	-12.441
▁boob	-12.4412
▁mapp	-12.4413
▁AAA	-12.4415
▁loser	-12.4416
iti	-12.442
▁disma	-12.442
▁Spokes	-12.4422
▁Basic	-12.4424
▁Homo	-12.4425
▁Friends	-12.4427
▁forceful	-12.4432
▁Carbo	-12.4434
wak	-12.444
▁stipulate	-12.4444
tri	-12.4446
▁Shui	-12.4447
reva	-12.4451
▁Traveler	-12.4452
▁turna	-12.4455
▁Minorit	-12.4456
anoma	-12.4457
▁dismay	-12.4462
▁ICR	-12.4464
▁Maldiv	-12.4468
APE	-12.447
▁Mauric	-12.4478
atherin	-12.4479
kg	-12.4481
▁McNam	-12.4484
ile	-12.449
▁Kill	-12.4504
ator	-12.4507
▁withstand	-12.4508
DR	-12.4509
▁collaborat	-12.4522
▁Vo	-12.4525
▁hog	-12.4526
olong	-12.4527
▁patriot	-12.4532
▁pitcher	-12.4538
▁perish	-12.4538
▁Pra	-12.4545
▁Gra	-12.4545
▁List	-12.4551
asia	-12.4552
▁Wol	-12.4556
▁Wear	-12.456
▁Mosle	-12.4564
▁pin	-12.4565
▁Parkin	-12.4571
▁Ethic	-12.4571
erber	-12.4583
▁worm	-12.4589
▁shorten	-12.4589
▁Creat	-12.4593
▁entertainer	-12.46
ghi	-12.46
▁printer	-12.46
▁downsiz	-12.4603
ealander	-12.4605
▁Teen	-12.4606
▁Jun	-12.4608
ublin	-12.4609
rel	-12.461
▁stampede	-12.4611
▁Intern	-12.4617
inos	-12.4622
▁viewing	-12.4622
▁Tab	-12.4623
▁Ying	-12.4623
▁Hous	-12.4624
▁Robin	-12.4628
▁Face	-12.463
iff	-12.463
ched	-12.4631
▁racis	-12.4634
▁Lind	-12.4634
tenberg	-12.4635
▁preach	-12.4645
ecca	-12.4647
otherap	-12.4652
▁Anni	-12.4654
▁advocat	-12.466
▁jeopardize	-12.4664
iv	-12.4673
suit	-12.4675
AGO	-12.4676
visibl	-12.4677
▁Yun	-12.4683
pur	-12.4684
▁dear	-12.469
▁basin	-12.469
▁Yeo	-12.4699
▁Mus	-12.4704
▁Tzi	-12.4711
brew	-12.4711
dog	-12.4712
▁Gaill	-12.4715
lls	-12.4716
▁ba	-12.4718
adequate	-12.4719
▁stoke	-12.4719
confirm	-12.4726
▁Money	-12.4726
▁Sixt	-12.4726
blaze	-12.4728
bah	-12.473
committee	-12.4731
position	-12.4734
▁Melan	-12.4734
watch	-12.4735
technolog	-12.4737
Works	-12.4738
media	-12.4742
▁birdie	-12.4745
▁physiolog	-12.4745
fann	-12.4753
tique	-12.4754
▁Herman	-12.4756
stands	-12.4757
▁sacking	-12.476
anu	-12.4768
oke	-12.4768
▁BO	-12.477
sphere	-12.4775
rches	-12.4783
lic	-12.4793
PR	-12.4794
▁destroyer	-12.4797
lock	-12.4799
▁Dona	-12.4801
▁outsider	-12.4806
▁Cat	-12.4806
▁journalis	-12.481
MO	-12.4814
anner	-12.4818
fold	-12.4819
robe	-12.482
gara	-12.4824
qui	-12.4825
▁Som	-12.4829
▁Takes	-12.4831
nese	-12.4831
▁enroll	-12.4831
▁Bong	-12.4832
CA	-12.4832
▁Duch	-12.4832
▁escalate	-12.4836
▁Darre	-12.4839
▁fracture	-12.4857
▁geo	-12.4858
▁Julian	-12.4864
mber	-12.4866
closure	-12.4867
urk	-12.4869
▁rash	-12.4876
▁Pett	-12.4891
▁bully	-12.4893
▁Hid	-12.4896
▁Bre	-12.4909
▁salvage	-12.4912
▁Mao	-12.4913
bok	-12.4914
make	-12.492
AI	-12.492
▁behave	-12.4921
▁Doug	-12.4922
▁DE	-12.4924
▁Tam	-12.4925
ADS	-12.4925
▁Tott	-12.494
▁header	-12.4949
LL	-12.4959
icho	-12.4962
owler	-12.4964
hoe	-12.4967
brough	-12.4972
▁Sde	-12.4978
iband	-12.4986
▁marker	-12.4991
zing	-12.4994
▁shin	-12.4994
link	-12.4998
uro	-12.5005
▁Fonda	-12.5013
▁shade	-12.5014
▁cal	-12.5034
▁Petr	-12.5038
▁Seg	-12.5039
ANE	-12.5047
▁revers	-12.5048
▁Tob	-12.5055
▁Tani	-12.5056
▁gene	-12.5057
heema	-12.506
uitt	-12.5072
US	-12.508
aci	-12.5086
▁Card	-12.5086
▁replica	-12.5089
reach	-12.5092
ried	-12.5093
▁syndicate	-12.5102
▁Reno	-12.5103
▁electro	-12.5104
▁wai	-12.5104
omi	-12.5106
alban	-12.5111
▁Gall	-12.5114
▁Sandr	-12.5115
quarium	-12.5116
oir	-12.5119
exico	-12.512
▁migration	-12.5122
owing	-12.5122
llan	-12.5125
▁stretche	-12.513
▁beg	-12.5133
▁va	-12.5133
ovic	-12.5141
▁sca	-12.5142
▁greeting	-12.5146
mir	-12.5147
▁Cind	-12.5148
▁Eu	-12.5148
▁Step	-12.5151
▁Regi	-12.5154
ign	-12.5154
▁BU	-12.5159
amy	-12.516
▁Spokesm	-12.5164
▁controller	-12.5165
▁Non	-12.5171
▁foray	-12.5172
▁hug	-12.5174
▁rebuil	-12.5176
▁Tomm	-12.5185
▁Circ	-12.519
enne	-12.5191
▁normalize	-12.5191
nne	-12.5192
nsei	-12.5193
▁milita	-12.5195
▁bankrupt	-12.5198
▁Shak	-12.5199
ound	-12.5199
▁Hyo	-12.5202
▁Ell	-12.5205
ppe	-12.5207
terrestrial	-12.521
▁Deng	-12.5233
rici	-12.5235
▁residenc	-12.5238
▁Past	-12.5238
kanit	-12.5244
ert	-12.5246
▁petro	-12.5246
▁retriev	-12.5248
▁neuro	-12.5252
▁Nikol	-12.5255
tractor	-12.5261
▁lips	-12.5261
eka	-12.5263
▁restructure	-12.5264
▁thre	-12.5267
▁jihad	-12.527
▁Colle	-12.5271
▁Bri	-12.5272
▁sweat	-12.5273
▁prominen	-12.5277
qu	-12.5278
▁geologic	-12.5281
▁comprise	-12.5282
▁notabl	-12.5283
▁snub	-12.5288
▁Speci	-12.5288
▁sens	-12.5289
▁waive	-12.5292
▁flip	-12.5292
▁distract	-12.5293
▁champ	-12.5293
▁ensu	-12.5294
oven	-12.5294
reliminar	-12.5296
▁innovati	-12.5297
▁magnet	-12.5297
▁buoy	-12.5298
▁pediatric	-12.5298
▁Belarus	-12.5298
▁Matthew	-12.5298
▁Restaurant	-12.5298
▁absurd	-12.5298
▁cuisine	-12.5298
▁disadvantage	-12.5298
▁dysfunction	-12.5298
▁effig	-12.5298
▁incompeten	-12.5298
▁lizard	-12.5298
▁mosquito	-12.5298
▁pacify	-12.5298
▁precarious	-12.5298
▁receipt	-12.5298
▁sandbag	-12.5298
▁spontaneous	-12.5298
▁surcharge	-12.5298
▁Alcohol	-12.5298
▁Ordinar	-12.5298
▁Rutger	-12.5298
▁complement	-12.5298
▁paleontologist	-12.5298
▁shrunk	-12.5298
▁Account	-12.5298
▁Bolivia	-12.5298
▁Kashiwa	-12.5298
▁TGV	-12.5298
▁revamp	-12.5298
▁rupture	-12.5298
▁telecast	-12.5298
▁wrack	-12.5298
▁Elysee	-12.5298
▁terrifi	-12.5298
▁Eagle	-12.5298
▁Senegal	-12.5298
▁detach	-12.5298
▁Monitor	-12.5298
▁eject	-12.5298
▁demographic	-12.5298
▁module	-12.5298
▁prevalen	-12.5298
▁Bishop	-12.5298
▁Elliot	-12.5298
▁newcomer	-12.5298
▁turbine	-12.5298
▁Twitter	-12.5298
▁pinpoint	-12.5298
▁Kirch	-12.5298
▁landlord	-12.5298
▁Blaz	-12.5298
▁pelvi	-12.5298
▁reneg	-12.5298
▁itinerar	-12.5299
▁relentless	-12.5299
▁screw	-12.5299
▁vigorous	-12.5299
▁Arsha	-12.5299
▁minivan	-12.5299
▁antenna	-12.5299
▁Osbourne	-12.5299
▁disconnect	-12.5299
quille	-12.5299
▁mimic	-12.5299
▁latitude	-12.5299
▁mortal	-12.5299
▁emphatic	-12.5299
▁spew	-12.5299
▁stymie	-12.5299
▁brisk	-12.5299
▁flank	-12.5299
▁sitcom	-12.5299
▁Declaration	-12.5299
▁eyewitness	-12.5299
▁commend	-12.5299
▁Azim	-12.5299
▁unnerv	-12.5299
▁spider	-12.5299
▁unfreez	-12.5299
▁solemn	-12.5299
▁assemble	-12.5299
▁affirm	-12.5299
▁preemptive	-12.5299
▁arraignment	-12.5299
▁reclaim	-12.5299
▁screenplay	-12.53
▁primate	-12.53
▁sidewalk	-12.53
▁Rebel	-12.53
▁Boat	-12.53
▁bolt	-12.53
▁Tuls	-12.53
▁rendition	-12.53
▁wrinkle	-12.53
▁pause	-12.53
▁hedge	-12.53
▁Yuko	-12.53
▁inviting	-12.53
▁Negotiation	-12.53
▁thirty	-12.53
▁oblige	-12.53
▁pluck	-12.5301
▁Escape	-12.5301
▁Mitch	-12.5301
▁Katz	-12.5301
▁Harmon	-12.5301
▁Hamza	-12.5301
▁cremation	-12.5302
▁dumpling	-12.5302
▁turbulen	-12.5302
▁Haq	-12.5302
▁Baek	-12.5302
▁unlock	-12.5302
▁derive	-12.5302
▁Transformer	-12.5303
▁MV	-12.5304
▁distraction	-12.5304
▁Paek	-12.5305
▁funnel	-12.5306
▁evict	-12.5306
▁Copper	-12.5306
▁infantry	-12.5306
▁Tsuyo	-12.5307
▁Could	-12.5307
▁surgical	-12.5307
▁dispel	-12.5307
▁Jamestown	-12.5308
▁unhe	-12.5308
▁enthusiast	-12.5309
▁Nobu	-12.5309
▁loung	-12.5309
mara	-12.5309
▁handset	-12.5309
▁burge	-12.5309
▁audiotape	-12.531
▁autobiograph	-12.531
▁strangle	-12.531
▁Slovakia	-12.531
▁Tasmania	-12.531
uddin	-12.5311
▁interruption	-12.5311
▁totalitarian	-12.5312
▁fluid	-12.5312
▁humid	-12.5313
▁Taji	-12.5313
▁Vonn	-12.5314
idge	-12.5314
▁feast	-12.5315
▁recit	-12.5315
▁contributor	-12.5316
▁Marx	-12.5316
▁condom	-12.5317
fe	-12.5317
▁Laurent	-12.5318
▁Legal	-12.5319
▁Giro	-12.5319
news	-12.532
▁Imag	-12.532
▁adjustment	-12.5321
▁woodland	-12.5322
▁germ	-12.5323
▁Giz	-12.5324
▁gag	-12.5325
▁dweller	-12.5325
▁cardiov	-12.5327
▁Sprint	-12.5327
▁lame	-12.5327
▁Heather	-12.5328
▁stain	-12.5329
▁porch	-12.5329
▁slap	-12.533
▁fume	-12.5331
▁tutori	-12.5331
▁lander	-12.5331
tilin	-12.5332
▁flush	-12.5334
▁Popula	-12.5335
▁abundan	-12.5335
▁quarte	-12.5336
▁Benz	-12.5336
▁adversar	-12.5337
▁overture	-12.5339
gged	-12.5341
▁Espan	-12.5341
▁Biolog	-12.5342
▁Listen	-12.5342
gram	-12.5342
▁Eri	-12.5344
▁rework	-12.5344
▁versa	-12.5345
▁wagon	-12.5346
▁nast	-12.5347
▁offence	-12.535
▁Smithson	-12.535
▁Musta	-12.5353
▁reconn	-12.5358
▁firearm	-12.5359
ngchon	-12.5359
▁Equal	-12.5359
RA	-12.5361
▁Eun	-12.5362
hni	-12.5365
tical	-12.5366
▁Borg	-12.5367
comfortabl	-12.5368
▁Estonian	-12.5372
▁Merv	-12.5374
▁directive	-12.5374
▁Borne	-12.5375
▁Fighter	-12.5377
iver	-12.5382
▁lakes	-12.5383
▁Robbi	-12.5387
qb	-12.5391
▁Plann	-12.5394
▁Lotte	-12.5395
▁genital	-12.5396
pua	-12.54
▁Masha	-12.54
▁perceive	-12.5402
▁cripple	-12.5405
▁betray	-12.5406
CLA	-12.5406
▁Appa	-12.5407
▁Khalil	-12.541
▁unsur	-12.5413
▁Finding	-12.5422
aq	-12.5423
▁infuriate	-12.5425
▁Bett	-12.5426
▁Hair	-12.5428
▁Mako	-12.543
▁outfield	-12.5435
▁dott	-12.5439
▁Merck	-12.5442
▁grapple	-12.5442
▁Sali	-12.5444
▁Gregor	-12.5447
▁timeline	-12.545
▁Dep	-12.545
▁Hann	-12.5451
ovi	-12.5453
▁swelling	-12.5456
dental	-12.5456
▁Ull	-12.5459
▁commando	-12.5459
AND	-12.5461
▁intestin	-12.5463
kistan	-12.5464
▁Scar	-12.5465
glass	-12.5468
▁Sc	-12.5471
▁Shaun	-12.5473
▁tur	-12.5474
ST	-12.5475
▁Lia	-12.5478
▁discourage	-12.5478
▁Trin	-12.5479
▁allocat	-12.5479
▁conscript	-12.548
▁tablet	-12.5481
▁Pur	-12.5481
▁Adrian	-12.5485
rix	-12.5486
▁endless	-12.5487
▁erode	-12.5488
▁Pir	-12.5489
▁ME	-12.549
▁Ches	-12.5491
▁extort	-12.5492
▁swo	-12.5496
▁Comb	-12.5496
▁Vel	-12.55
▁Chiap	-12.5501
▁conceive	-12.5502
▁Gene	-12.5506
RU	-12.5518
oun	-12.552
▁Venet	-12.5528
ask	-12.5529
▁Boc	-12.5537
stabili	-12.554
▁assumption	-12.554
▁suck	-12.5544
▁Hadi	-12.5544
▁Gir	-12.5546
alai	-12.5547
▁relocat	-12.555
▁Shaha	-12.555
▁Shen	-12.5555
▁inconvenience	-12.5562
▁Branc	-12.5562
nce	-12.5562
rie	-12.5563
aver	-12.5565
▁dishe	-12.5569
▁Bashir	-12.5571
view	-12.5575
▁moderniz	-12.5579
▁Naf	-12.5584
▁Natali	-12.5587
▁saga	-12.5591
▁extradite	-12.5597
accessib	-12.5597
▁Cana	-12.5598
▁Tas	-12.5602
gues	-12.5606
hard	-12.5606
▁Lek	-12.5611
tage	-12.5613
var	-12.5621
carf	-12.5622
ken	-12.5625
▁quo	-12.5628
▁raz	-12.5628
tisa	-12.5629
▁Bid	-12.563
▁Lot	-12.5635
▁Cap	-12.5636
▁sock	-12.5636
▁undertake	-12.5639
yu	-12.564
▁oppress	-12.5647
▁Aj	-12.5648
▁bun	-12.565
gon	-12.5654
▁Name	-12.5656
aptop	-12.5657
▁Mende	-12.5662
▁solicit	-12.5662
cchi	-12.5668
yette	-12.567
▁liberate	-12.5673
▁angri	-12.5674
▁Ei	-12.5674
▁Nou	-12.5679
▁Gan	-12.5683
▁Low	-12.5687
TRA	-12.5687
▁Len	-12.5689
▁Hunting	-12.5694
ENS	-12.5695
▁Pace	-12.5697
science	-12.5698
▁Onta	-12.5701
▁Corn	-12.5704
▁graz	-12.5709
▁Uls	-12.5709
arve	-12.5711
fill	-12.5717
▁merchandise	-12.5719
obb	-12.5721
▁Allah	-12.5725
word	-12.5726
nski	-12.5726
▁scarce	-12.5728
▁concentrat	-12.573
ander	-12.5731
▁hon	-12.5734
▁Naha	-12.5736
▁Piro	-12.574
emise	-12.5748
▁Way	-12.5751
rga	-12.5753
▁Baba	-12.5757
arms	-12.5757
▁Das	-12.5759
▁secularis	-12.5759
▁unfor	-12.5759
▁exceeding	-12.5764
▁hijacking	-12.5767
▁diagnose	-12.5769
▁Soli	-12.577
stable	-12.5774
▁gam	-12.5776
▁Ski	-12.5785
uito	-12.5789
▁abound	-12.5794
▁ha	-12.5794
convenient	-12.5802
dder	-12.5803
now	-12.5805
iki	-12.5812
bras	-12.5813
aire	-12.5821
tini	-12.5822
▁cater	-12.5824
arra	-12.5827
accurate	-12.5831
ollea	-12.5831
etting	-12.5834
▁Shal	-12.5834
hapel	-12.5838
friend	-12.5839
spring	-12.5841
government	-12.5842
affect	-12.5843
economic	-12.5843
▁retiree	-12.5843
roar	-12.5845
daughter	-12.5846
▁Leaders	-12.5847
help	-12.5847
effective	-12.5848
GM	-12.5849
evic	-12.585
▁Hor	-12.5861
emin	-12.5867
match	-12.5869
▁toleran	-12.5871
▁tract	-12.5871
style	-12.5875
▁defamat	-12.5879
roz	-12.5885
worth	-12.5892
▁diar	-12.5895
ammar	-12.5899
uang	-12.5906
▁ag	-12.5907
mund	-12.5912
▁fa	-12.5929
▁Aero	-12.5931
▁brew	-12.5933
▁Gila	-12.5934
▁GE	-12.5934
▁Eye	-12.594
rou	-12.5944
▁Ply	-12.5944
illo	-12.5947
▁Bess	-12.5954
▁Sol	-12.5963
egu	-12.5967
▁clima	-12.5969
▁candles	-12.5973
▁treasur	-12.5975
▁cott	-12.5975
opa	-12.5981
▁adulter	-12.5983
▁Seo	-12.5984
stick	-12.5985
▁Satt	-12.5985
drome	-12.5988
▁correction	-12.5988
▁Tat	-12.5991
pick	-12.5998
▁Heat	-12.6
▁motorc	-12.6004
▁refin	-12.6004
season	-12.6005
fusion	-12.6005
sense	-12.6008
effer	-12.601
▁Nan	-12.6011
▁Soo	-12.6021
▁Barad	-12.6028
pulsion	-12.6035
dler	-12.6036
▁douse	-12.6036
▁curv	-12.6039
thura	-12.6039
sight	-12.6045
▁Shil	-12.6045
▁Race	-12.6053
▁intra	-12.6059
rop	-12.6059
gay	-12.6061
cock	-12.6065
▁Marlboro	-12.608
▁Sto	-12.6081
▁Tama	-12.6082
ML	-12.6087
▁Claud	-12.6089
▁fle	-12.6094
▁prep	-12.6096
cop	-12.6103
▁Bit	-12.6107
▁Idi	-12.6107
tics	-12.6107
▁Gert	-12.6109
ID	-12.611
achi	-12.6111
pecialist	-12.6112
▁myth	-12.6119
ench	-12.6119
SN	-12.6131
gel	-12.6133
▁ridge	-12.6141
astic	-12.6141
bard	-12.6143
▁bl	-12.6144
diari	-12.6144
▁phon	-12.6146
▁utilize	-12.6149
▁curl	-12.615
rk	-12.6156
▁indecen	-12.6159
▁Marian	-12.6168
▁elevate	-12.6176
▁Pass	-12.6177
▁wealthie	-12.6178
▁Sub	-12.618
▁PET	-12.6182
▁Byr	-12.6183
▁Unifi	-12.6192
ven	-12.6192
▁Natal	-12.6193
▁Cour	-12.6196
▁uncla	-12.6198
▁Pine	-12.6204
▁Dis	-12.6205
azar	-12.6213
rchbishop	-12.6214
cker	-12.6217
cade	-12.6218
ading	-12.622
▁Malt	-12.6224
▁Tsu	-12.6228
kwan	-12.6228
▁conceiv	-12.623
mendment	-12.623
▁satisfy	-12.624
tmospher	-12.6242
▁Vik	-12.6245
▁deteriorate	-12.6245
▁defer	-12.6247
slaughter	-12.6249
▁rem	-12.6249
wha	-12.6251
▁aspir	-12.6251
▁cu	-12.6252
▁pal	-12.6254
▁Happ	-12.6255
▁varie	-12.6261
soon	-12.6263
rescent	-12.6267
▁Stra	-12.627
greement	-12.6271
▁expir	-12.6272
iji	-12.6274
eij	-12.6276
peculation	-12.6284
▁Judicia	-12.6287
▁Alban	-12.6288
▁casting	-12.6289
▁plague	-12.6294
shu	-12.6294
▁imperial	-12.6299
▁inundate	-12.6316
liga	-12.6318
▁beneficia	-12.6321
▁uneas	-12.6332
▁conced	-12.6333
▁Alf	-12.6344
▁clergy	-12.6345
▁gunne	-12.6347
we	-12.635
train	-12.635
▁hydra	-12.6351
rdin	-12.6351
agoni	-12.6351
hould	-12.6358
▁suicid	-12.6358
▁nano	-12.636
▁Writ	-12.6363
IT	-12.6363
cat	-12.6368
rnab	-12.6374
▁MR	-12.6376
▁Americ	-12.6385
▁Luz	-12.6387
▁summar	-12.639
sper	-12.639
▁Lei	-12.6392
ameter	-12.6392
▁Person	-12.6395
midt	-12.6395
▁Carli	-12.6396
▁Lui	-12.6398
▁infring	-12.6398
▁flam	-12.6398
sunami	-12.6399
zar	-12.6401
agazine	-12.6402
▁Coo	-12.6403
▁Taka	-12.6405
▁gentle	-12.6407
▁calib	-12.6407
▁Francesc	-12.6409
▁pharmac	-12.6409
imeter	-12.6409
pponent	-12.6409
▁McClinto	-12.6409
▁entrepreneur	-12.6409
▁straddl	-12.6409
▁susceptib	-12.6409
hygien	-12.6409
▁Certain	-12.6409
▁Daimler	-12.6409
▁Fashion	-12.6409
▁Liechtenstein	-12.6409
▁Magistrate	-12.6409
▁Uruguay	-12.6409
▁cheetah	-12.6409
▁demolition	-12.6409
▁derelict	-12.6409
▁detergent	-12.6409
▁friction	-12.6409
▁hemorrhag	-12.6409
▁imbalance	-12.6409
▁immoral	-12.6409
▁involuntar	-12.6409
▁kilowatt	-12.6409
▁nonviolen	-12.6409
▁occupy	-12.6409
▁quirk	-12.6409
▁recipient	-12.6409
▁redistribute	-12.6409
▁remittance	-12.6409
▁shepherd	-12.6409
▁theoretical	-12.6409
▁unravel	-12.6409
▁Evolution	-12.6409
▁Princip	-12.6409
▁apprehend	-12.6409
▁banteng	-12.6409
▁encircl	-12.6409
▁handcuff	-12.6409
▁nickel	-12.6409
▁procure	-12.6409
▁Wilkins	-12.6409
▁jockey	-12.6409
▁manhunt	-12.6409
▁Marriot	-12.6409
▁classify	-12.6409
▁malicious	-12.6409
▁minibus	-12.6409
▁scour	-12.6409
▁Cambridge	-12.6409
▁bulldozer	-12.6409
▁Fioren	-12.6409
▁suffocat	-12.6409
▁whirl	-12.6409
▁narco	-12.6409
▁conspirator	-12.6409
▁injustice	-12.6409
▁gymnast	-12.6409
▁biometric	-12.641
▁diaper	-12.641
▁trampl	-12.641
▁Suspect	-12.641
▁entail	-12.641
▁pupil	-12.641
▁warrior	-12.641
▁cosmetic	-12.641
▁taunt	-12.641
▁discord	-12.641
▁smear	-12.641
▁gaffe	-12.641
▁graveyard	-12.641
nthia	-12.641
▁acquaintance	-12.641
▁Inspector	-12.641
▁Legend	-12.641
▁ATM	-12.641
▁Brief	-12.641
▁Obeid	-12.641
▁carnival	-12.641
▁recharge	-12.641
▁dissent	-12.641
▁Gartner	-12.641
▁Aviv	-12.641
▁snowstorm	-12.641
▁Antw	-12.641
▁Neighbor	-12.641
▁Idris	-12.641
▁Reform	-12.641
▁chipmaker	-12.641
▁ventilat	-12.641
▁masterpiece	-12.641
▁Mukas	-12.641
▁Solution	-12.641
▁marvel	-12.641
▁Wheat	-12.641
▁Brewer	-12.641
▁vulnerabilit	-12.641
▁grievance	-12.641
▁nongovernment	-12.641
▁Hoop	-12.641
▁eavesdropp	-12.641
▁chapel	-12.641
▁Spider	-12.6411
▁overreact	-12.6411
▁accommodation	-12.6411
▁czar	-12.6411
gorge	-12.6411
▁jack	-12.6411
▁Monster	-12.6411
▁cardinal	-12.6411
▁Soprano	-12.6411
▁Regard	-12.6411
▁luxurious	-12.6411
▁pizz	-12.6411
▁lava	-12.6411
▁wiretapp	-12.6411
rogba	-12.6411
▁scout	-12.6411
▁interstate	-12.6411
▁polite	-12.6411
▁Reeve	-12.6411
▁Launch	-12.6411
▁Weekend	-12.6412
▁pinch	-12.6412
▁essay	-12.6412
▁haircut	-12.6412
▁Mous	-12.6412
▁Cloud	-12.6412
▁twel	-12.6412
▁tamper	-12.6412
▁airlift	-12.6412
▁Simpl	-12.6412
▁Grin	-12.6412
▁boulder	-12.6413
uestion	-12.6413
▁cache	-12.6413
▁entice	-12.6413
▁Territor	-12.6413
▁Milos	-12.6413
▁novelist	-12.6413
▁elevation	-12.6414
▁Clover	-12.6414
▁flawless	-12.6414
▁valve	-12.6414
▁exemption	-12.6414
▁Holz	-12.6414
▁carving	-12.6415
▁Jaip	-12.6415
▁Factor	-12.6415
▁Cu	-12.6415
▁Vander	-12.6415
▁Yuca	-12.6415
▁fringe	-12.6415
▁LaB	-12.6415
▁toxin	-12.6415
▁downpour	-12.6415
▁doctrine	-12.6415
▁fiance	-12.6415
▁McCle	-12.6416
▁bandit	-12.6416
▁Hashem	-12.6416
▁jolt	-12.6416
▁covet	-12.6416
▁Foster	-12.6417
▁maul	-12.6417
▁aspiration	-12.6417
wich	-12.6418
▁booth	-12.6418
▁Jabal	-12.6418
liabilit	-12.6419
cursor	-12.642
▁knot	-12.642
▁Prof	-12.642
▁organism	-12.642
▁siren	-12.642
▁curricul	-12.642
▁amass	-12.6421
▁chem	-12.6422
▁sift	-12.6422
▁alligator	-12.6422
▁decoration	-12.6422
choa	-12.6423
▁Mongolia	-12.6423
▁legislat	-12.6423
▁Yuri	-12.6423
▁hoard	-12.6424
▁cynical	-12.6424
▁waiver	-12.6424
guel	-12.6425
▁Firef	-12.6425
▁audition	-12.6426
▁respectful	-12.6426
▁Rubin	-12.6427
▁Bolsh	-12.6427
emic	-12.6428
▁Locke	-12.6428
▁worshipper	-12.6429
▁Hath	-12.643
▁Scul	-12.643
▁attire	-12.643
▁damp	-12.643
▁adorn	-12.6432
▁Smart	-12.6433
cott	-12.6433
▁Rale	-12.6434
anyon	-12.6436
▁veil	-12.6437
▁bugg	-12.6437
▁Gua	-12.6438
▁bot	-12.644
riq	-12.644
▁worthless	-12.644
▁Wax	-12.644
lobo	-12.644
▁Crest	-12.6441
▁buff	-12.6442
▁Sauer	-12.6443
▁Fiji	-12.6443
▁ayurved	-12.6444
ERA	-12.6445
vara	-12.6445
▁compass	-12.6445
▁Horn	-12.6445
▁Cliff	-12.6445
▁playground	-12.6445
▁Alessandr	-12.6446
▁overpower	-12.6446
▁fluor	-12.6446
▁barber	-12.6448
▁Grove	-12.6449
▁Leon	-12.6449
▁Mello	-12.6449
▁Walt	-12.6449
▁gigabyte	-12.645
▁insert	-12.645
ashi	-12.6453
▁Map	-12.6453
▁Casa	-12.6454
TAM	-12.6454
▁Naka	-12.6454
▁Hashim	-12.6456
rump	-12.6457
▁verge	-12.6457
▁Hacke	-12.646
▁Terroris	-12.6461
▁ancest	-12.6461
▁scanner	-12.6461
▁glea	-12.6462
▁Chai	-12.6462
▁breez	-12.6463
▁Hyn	-12.6464
▁imagin	-12.6465
▁Moai	-12.6466
▁Farmer	-12.6466
okou	-12.6467
▁confusi	-12.6468
▁vigilant	-12.6471
▁shave	-12.6471
▁insurer	-12.6472
▁Latino	-12.6472
cak	-12.6473
▁Weiss	-12.6474
▁Tao	-12.6475
▁anthropolog	-12.6475
▁Ing	-12.6476
▁widower	-12.6478
▁Joon	-12.6479
SS	-12.6481
▁herald	-12.6483
teau	-12.6484
yah	-12.6485
▁Panda	-12.6485
▁emitter	-12.6487
▁Dou	-12.6487
▁Hayd	-12.6489
dez	-12.6489
▁Hadn	-12.6489
▁Campo	-12.649
▁Ellis	-12.6492
▁Bac	-12.6494
mb	-12.6495
▁designation	-12.6496
▁Kristin	-12.6496
▁composition	-12.6498
▁beneficiar	-12.6499
▁Santor	-12.6501
▁dair	-12.6503
▁Aq	-12.6504
▁perk	-12.6505
uil	-12.6505
ATION	-12.6506
▁Sander	-12.6507
▁mold	-12.6509
▁Dub	-12.6511
▁slick	-12.6512
omo	-12.6516
▁merc	-12.6517
▁Calv	-12.6518
▁arc	-12.6519
▁Heng	-12.6519
▁bras	-12.652
▁premeditat	-12.6521
▁Tries	-12.6522
▁termination	-12.6525
hab	-12.6527
▁institutional	-12.6529
▁alga	-12.653
▁brace	-12.6532
▁hiker	-12.6534
▁Lauren	-12.6536
▁rightful	-12.6538
▁Rule	-12.654
nity	-12.654
▁disclos	-12.6543
KARA	-12.6544
▁Berger	-12.6545
▁Stau	-12.6547
nction	-12.6548
umu	-12.655
iah	-12.655
▁Krist	-12.655
▁twister	-12.6551
▁dictate	-12.6553
aria	-12.6554
▁Lombard	-12.6555
▁citation	-12.6556
▁Ac	-12.6558
▁Vern	-12.6558
▁meddl	-12.6559
▁Mwan	-12.6564
▁Yoshi	-12.6565
etz	-12.6565
▁shutter	-12.6567
▁stitche	-12.6567
napp	-12.6569
▁Revere	-12.6569
gawa	-12.6571
▁Hoy	-12.6571
▁runaway	-12.6573
▁destin	-12.6575
▁Goul	-12.6575
hall	-12.6576
▁Harbo	-12.6578
ges	-12.658
holder	-12.6581
bling	-12.6584
chett	-12.6589
▁wade	-12.6591
▁Meri	-12.6597
▁embrac	-12.6598
▁molecul	-12.6602
▁Gray	-12.6605
▁Lankan	-12.6605
▁Maggi	-12.6606
▁Employe	-12.6606
ilja	-12.6607
▁DI	-12.6609
▁Sign	-12.6616
▁Thor	-12.662
▁PE	-12.662
▁dangl	-12.6623
▁Santos	-12.6623
olonel	-12.6625
▁Meteor	-12.6626
badi	-12.6629
▁Plat	-12.6629
▁Pet	-12.663
▁Divers	-12.6638
▁satisfactor	-12.6638
▁NY	-12.6638
▁Wilder	-12.6639
▁cur	-12.6641
▁Bait	-12.6642
magine	-12.6643
not	-12.6644
▁Hanu	-12.6648
▁psycho	-12.6651
▁fade	-12.6653
▁downside	-12.6656
▁Kup	-12.6656
▁rev	-12.6661
▁gutte	-12.6661
▁Ele	-12.6665
▁arrow	-12.6665
lier	-12.6669
▁deliberat	-12.6669
PC	-12.667
▁Normal	-12.667
trategic	-12.6672
ection	-12.6677
▁Reina	-12.6679
▁penetrat	-12.6679
▁witch	-12.668
ronical	-12.6684
▁visitation	-12.6688
▁dodge	-12.669
▁reunite	-12.6692
afe	-12.6694
▁Muha	-12.6694
▁Dogs	-12.6694
veral	-12.6697
iq	-12.6699
▁Cau	-12.6703
▁Nat	-12.6711
▁unha	-12.6711
▁Uh	-12.6713
▁poke	-12.6721
▁likeness	-12.6723
▁pie	-12.6723
orne	-12.6725
▁breeder	-12.6726
isch	-12.673
NC	-12.6739
▁fabricat	-12.675
PAN	-12.6754
▁rug	-12.6755
tter	-12.6755
ourage	-12.6759
▁Assa	-12.6763
▁Mayo	-12.6764
▁awe	-12.6773
▁Yin	-12.6779
▁trafficker	-12.6779
▁Sura	-12.678
ggle	-12.678
▁Gat	-12.6781
bad	-12.6789
gher	-12.6792
▁skier	-12.6793
erp	-12.6797
rill	-12.6802
▁Crowd	-12.6804
▁Mok	-12.6804
▁Barg	-12.6805
arro	-12.6806
▁Too	-12.6818
▁Jenn	-12.6821
ff	-12.6831
poly	-12.6832
▁Lex	-12.6833
ieve	-12.6841
▁pressur	-12.6842
▁Kel	-12.6845
▁Shri	-12.6847
▁Fame	-12.6848
sushi	-12.6856
itch	-12.6857
mperial	-12.686
▁governors	-12.6869
▁Bana	-12.6871
▁vo	-12.6871
▁Soft	-12.6875
▁abide	-12.6882
MC	-12.6883
▁manipulate	-12.6887
▁skit	-12.6892
▁disguis	-12.6893
lat	-12.69
into	-12.6904
bble	-12.6906
▁kisse	-12.6918
▁repress	-12.6922
▁fractur	-12.6927
▁vindicat	-12.6928
▁tracker	-12.6932
tai	-12.6937
▁Progress	-12.6941
icker	-12.6948
▁Seb	-12.6948
▁regulat	-12.695
▁Helms	-12.6951
dent	-12.6955
▁alleviate	-12.6958
▁tit	-12.6959
▁Saba	-12.6967
notic	-12.6968
CIO	-12.6973
aj	-12.6975
▁mus	-12.6975
jid	-12.6982
▁Norm	-12.6991
▁sharpen	-12.6993
▁Wald	-12.6997
core	-12.7006
▁culminate	-12.7008
▁Slum	-12.701
▁Sab	-12.7014
cube	-12.7014
▁verse	-12.7015
▁camel	-12.7019
nacio	-12.7024
solution	-12.7025
▁whaler	-12.7035
pert	-12.7036
rude	-12.704
▁col	-12.7046
▁underscor	-12.7048
fsha	-12.7049
▁legalize	-12.705
▁Odi	-12.7055
▁Bro	-12.706
anni	-12.706
vit	-12.706
bent	-12.7063
ymo	-12.7064
▁Frederic	-12.7064
chu	-12.7065
realistic	-12.7069
▁Wolfe	-12.7079
tooth	-12.7081
▁ma	-12.7084
▁stimulat	-12.7085
case	-12.7085
stroke	-12.7088
walk	-12.7088
elieve	-12.7088
girl	-12.709
pour	-12.7091
historic	-12.7091
graduate	-12.7091
swam	-12.7093
▁grie	-12.7096
nger	-12.7102
tana	-12.7104
▁herb	-12.7112
bil	-12.7113
otic	-12.7113
HP	-12.7117
reason	-12.7121
GO	-12.7131
▁lamp	-12.7136
▁pe	-12.714
eller	-12.714
nz	-12.714
▁Cali	-12.7142
▁Ol	-12.7145
cast	-12.7157
▁Hindus	-12.7162
yud	-12.7164
▁Marul	-12.717
enza	-12.7171
ug	-12.7174
▁Lowe	-12.7182
joy	-12.7184
▁Vid	-12.7187
pag	-12.7187
guide	-12.7193
▁Turki	-12.7205
ines	-12.7206
▁Wide	-12.7207
▁Mate	-12.7208
▁taek	-12.7209
▁tallie	-12.7219
ender	-12.722
productiv	-12.7226
TS	-12.723
▁cau	-12.7231
fluent	-12.724
▁distinguish	-12.7251
▁Pha	-12.7254
▁Danc	-12.7258
ussel	-12.7264
▁stok	-12.7264
▁Lau	-12.7267
▁Hale	-12.7267
wire	-12.7268
rates	-12.728
▁Ami	-12.728
▁dine	-12.7283
aff	-12.7288
SCE	-12.7292
olf	-12.7302
▁Promoti	-12.7318
▁cro	-12.7322
iar	-12.7323
▁activate	-12.7328
▁Kau	-12.734
rama	-12.7342
▁emir	-12.7343
TN	-12.735
▁Page	-12.7351
ashvil	-12.7355
escent	-12.7356
▁reap	-12.7369
ethy	-12.7371
▁shine	-12.7374
▁Ingra	-12.7376
▁dodg	-12.7378
▁Christo	-12.7378
ltz	-12.7379
▁Cristi	-12.7382
▁structur	-12.7386
oui	-12.7392
nes	-12.7401
▁vibra	-12.7401
▁Range	-12.7405
▁optim	-12.7411
▁dissolv	-12.7413
▁compassion	-12.7415
▁Fah	-12.7415
▁Bee	-12.7415
hiro	-12.7427
enberg	-12.7428
▁misus	-12.743
illian	-12.7438
frost	-12.744
▁Ace	-12.7442
▁Ou	-12.7443
uinn	-12.7443
▁importer	-12.7449
▁Dot	-12.7453
kel	-12.7453
fu	-12.7457
▁React	-12.7462
gro	-12.7463
thma	-12.747
erno	-12.7475
▁gil	-12.7483
ISI	-12.7484
▁Piz	-12.749
▁DM	-12.749
▁swell	-12.7493
▁affiliat	-12.7495
▁ego	-12.7498
usan	-12.75
nforcement	-12.7501
▁Lewi	-12.7502
elipe	-12.7507
reconcil	-12.7508
OL	-12.7524
▁Wo	-12.7524
▁hotte	-12.7524
▁perceiv	-12.753
trayal	-12.753
cientific	-12.7532
urveill	-12.7532
kull	-12.7533
▁allocate	-12.7535
kar	-12.754
▁unsee	-12.7542
▁logic	-12.755
ARAC	-12.7551
▁Kal	-12.7552
▁Bail	-12.7559
ep	-12.756
▁Niss	-12.756
▁stereo	-12.7563
▁transmit	-12.7565
utmos	-12.7575
rash	-12.7585
▁Limon	-12.759
ubei	-12.7591
mert	-12.7593
▁scrub	-12.7594
▁Ike	-12.7595
ati	-12.7598
▁temp	-12.7598
▁Meg	-12.7603
▁thrust	-12.7605
▁RF	-12.7605
▁spoil	-12.7606
▁Cent	-12.7606
assim	-12.7607
bou	-12.761
▁CHI	-12.7611
▁Alto	-12.7614
▁insure	-12.7615
▁Vill	-12.7616
zhn	-12.7616
souf	-12.7617
▁precis	-12.7618
▁Audi	-12.7621
tub	-12.7627
gh	-12.7628
▁Astro	-12.7629
eaten	-12.763
▁chick	-12.7633
▁Chech	-12.7636
▁numb	-12.7636
▁enthusias	-12.7637
▁Levi	-12.7637
▁lenien	-12.7637
▁disast	-12.7641
▁fabric	-12.7644
▁conf	-12.7646
sign	-12.765
▁Morris	-12.765
▁snag	-12.7651
▁Bli	-12.7652
slaught	-12.7652
▁begg	-12.7653
▁flour	-12.7653
▁reconstruct	-12.7654
etsk	-12.7654
igital	-12.7654
lizzard	-12.7655
▁satisfact	-12.7656
▁registr	-12.7657
attalion	-12.7657
antas	-12.7658
▁euthan	-12.7659
funct	-12.7659
▁Saa	-12.7659
▁clarifi	-12.7659
cussion	-12.7659
▁cogniti	-12.7659
▁Admiral	-12.7659
▁Bombardier	-12.7659
▁Confiden	-12.7659
▁Montenegr	-12.7659
▁Pablo	-12.7659
▁Success	-12.7659
▁blatant	-12.7659
▁brazen	-12.7659
▁dilemma	-12.7659
▁fortunate	-12.7659
▁fountain	-12.7659
▁gharial	-12.7659
▁glitch	-12.7659
▁incorrect	-12.7659
▁irreversibl	-12.7659
▁jaguar	-12.7659
▁linguistic	-12.7659
▁lodging	-12.7659
▁mishandl	-12.7659
▁modify	-12.7659
▁mudslide	-12.7659
▁pesticide	-12.7659
▁picnic	-12.7659
▁pundit	-12.7659
▁scapegoat	-12.7659
▁stupid	-12.7659
▁subtitle	-12.7659
▁tumult	-12.7659
▁uninhabit	-12.7659
▁variation	-12.7659
▁Prefectur	-12.7659
▁crisscross	-12.7659
▁encroach	-12.7659
▁glorify	-12.7659
▁tirade	-12.7659
▁tweak	-12.7659
▁unpleasant	-12.7659
▁avatar	-12.7659
▁blunder	-12.7659
▁reprimand	-12.7659
▁shroud	-12.7659
▁Alegr	-12.7659
▁Target	-12.7659
▁piercing	-12.7659
▁purple	-12.7659
▁turtle	-12.7659
▁conversion	-12.7659
▁kennel	-12.7659
▁mattress	-12.7659
▁rigorous	-12.7659
▁Mahmud	-12.7659
▁Oleg	-12.7659
▁LED	-12.766
▁horizontal	-12.766
▁polygam	-12.766
▁impersonat	-12.766
▁grizzl	-12.766
osexual	-12.766
▁Coroner	-12.766
▁dynast	-12.766
▁Dramatic	-12.766
▁Camera	-12.766
iaoyu	-12.766
▁Couple	-12.766
▁remorse	-12.766
▁bundle	-12.766
▁indigen	-12.766
▁refuel	-12.766
▁Rhino	-12.766
▁annex	-12.766
▁grape	-12.766
▁Provision	-12.766
▁empower	-12.766
▁electrocut	-12.766
▁defence	-12.766
▁Sexual	-12.766
▁transgender	-12.766
▁octopus	-12.766
ricket	-12.766
▁Giovan	-12.766
▁gunbattle	-12.766
▁arrogan	-12.766
▁Candidate	-12.766
▁butterfl	-12.766
▁Ivanko	-12.766
▁assailant	-12.766
▁blond	-12.766
▁infra	-12.766
▁mercur	-12.766
▁microwave	-12.766
elein	-12.766
▁eradicat	-12.766
▁reschedul	-12.766
▁deforest	-12.766
▁pharaoh	-12.766
eppel	-12.766
▁niece	-12.766
▁tasting	-12.766
▁euthanize	-12.766
▁Parole	-12.766
▁ovation	-12.766
▁loath	-12.766
▁neutralize	-12.766
▁perennial	-12.766
▁postcard	-12.766
▁Humbert	-12.766
▁neural	-12.766
▁pavilion	-12.7661
▁undervalue	-12.7661
▁pervasive	-12.7661
▁Calif	-12.7661
▁Aeronautic	-12.7661
▁hoax	-12.7661
▁Explosive	-12.7661
▁Budge	-12.7661
▁distr	-12.7661
▁thunder	-12.7661
▁Rapid	-12.7661
▁clogg	-12.7661
▁thirst	-12.7661
▁Ols	-12.7662
▁pleasant	-12.7662
▁grue	-12.7662
▁Bancroft	-12.7662
▁chic	-12.7662
▁maximize	-12.7662
AVAN	-12.7662
▁schoolgirl	-12.7662
▁lifeguard	-12.7662
▁narrat	-12.7662
▁peek	-12.7662
▁tarnish	-12.7662
▁Flag	-12.7662
JD	-12.7663
▁payroll	-12.7663
▁liar	-12.7663
▁rapper	-12.7663
▁haunt	-12.7663
▁livelihood	-12.7663
▁tailor	-12.7663
▁Protestant	-12.7663
▁cylinder	-12.7663
▁Bjor	-12.7663
▁Ernest	-12.7663
▁dealership	-12.7664
▁retest	-12.7664
▁Lef	-12.7664
▁disabilit	-12.7664
▁stave	-12.7665
▁lurk	-12.7665
▁lb	-12.7665
▁Reco	-12.7665
▁Torri	-12.7665
▁alternate	-12.7665
▁outsourc	-12.7665
▁Mulia	-12.7665
▁lax	-12.7665
▁Rhon	-12.7665
▁NGO	-12.7666
▁Includ	-12.7666
▁politicize	-12.7666
▁financier	-12.7666
▁Satan	-12.7666
▁Salmon	-12.7666
▁Huang	-12.7667
▁Curti	-12.7667
▁relic	-12.7667
NT	-12.7667
▁Flame	-12.7667
▁hoist	-12.7667
▁imperialist	-12.7667
▁rehearsal	-12.7668
▁exhaustive	-12.7668
▁Impr	-12.7668
▁Midnight	-12.7668
▁Shaw	-12.7669
▁MS	-12.7669
▁appointee	-12.7669
▁Devil	-12.7669
▁snagg	-12.767
▁Semiti	-12.767
▁mound	-12.767
num	-12.767
ILA	-12.767
▁Shuk	-12.7671
▁Combin	-12.7671
▁regiment	-12.7671
▁nullify	-12.7671
▁advers	-12.7672
▁adhere	-12.7672
▁distortion	-12.7672
▁salad	-12.7674
▁wow	-12.7674
▁kiln	-12.7675
▁Cabo	-12.7675
▁harmless	-12.7676
▁Halper	-12.7676
▁Verb	-12.7676
▁subscriber	-12.7677
▁Broke	-12.7678
▁reversal	-12.7678
lfrie	-12.7678
zine	-12.7679
▁Hand	-12.7679
▁Rival	-12.7679
▁socialite	-12.7679
▁pedophile	-12.7679
▁Institution	-12.7679
▁Whistle	-12.768
▁Grave	-12.768
▁beekeeper	-12.7681
▁Origin	-12.7681
▁sitter	-12.7682
habi	-12.7682
▁Fabian	-12.7682
▁ANC	-12.7682
▁Walton	-12.7682
▁Astronomer	-12.7682
▁gods	-12.7684
▁Hiroshi	-12.7684
▁tempt	-12.7684
▁Ot	-12.7684
▁Hung	-12.7685
▁wobble	-12.7685
▁defection	-12.7685
▁newsroom	-12.7685
▁spillway	-12.7687
▁Digg	-12.7688
▁lagg	-12.7688
▁regroup	-12.7688
▁Chamber	-12.7689
▁neat	-12.7689
▁Gonu	-12.769
▁idle	-12.769
▁Found	-12.7691
▁Chechen	-12.7691
▁selloff	-12.7691
▁wool	-12.7691
nate	-12.7692
▁perma	-12.7692
▁murderer	-12.7693
▁Gwan	-12.7694
▁parliamentarian	-12.7694
▁cutback	-12.7695
▁Bachel	-12.7695
▁prohibition	-12.7695
xi	-12.7697
gby	-12.7697
▁Historical	-12.7699
▁anorexi	-12.7699
▁Stat	-12.77
▁Left	-12.7702
▁levi	-12.7703
▁acquittal	-12.7703
▁Az	-12.7704
▁filter	-12.7704
rubb	-12.7706
▁cellar	-12.7706
▁Shum	-12.7707
▁makeover	-12.7708
▁Conrad	-12.7709
▁Shann	-12.7709
poon	-12.7709
usnes	-12.771
▁homi	-12.771
▁Ng	-12.771
▁Dayton	-12.7711
▁LI	-12.7711
▁Parma	-12.7712
▁paralysi	-12.7713
▁Place	-12.7713
▁Tenzin	-12.7714
▁Amir	-12.7714
▁prim	-12.7715
▁backhand	-12.7716
oper	-12.7717
▁Bamb	-12.7717
▁bestsell	-12.7719
▁plow	-12.772
▁spurt	-12.772
▁Guest	-12.7721
agliar	-12.7721
▁lobbie	-12.7722
comm	-12.7725
▁reput	-12.7726
▁hive	-12.7727
▁DUB	-12.773
▁Plant	-12.7732
rupe	-12.7733
▁limitation	-12.7733
com	-12.7734
flation	-12.7737
eek	-12.7737
▁Miya	-12.7737
▁jeo	-12.7737
▁tram	-12.7737
embe	-12.774
gam	-12.774
mela	-12.7742
uga	-12.7742
▁cour	-12.7743
▁ABB	-12.7743
▁Deser	-12.7744
▁Forget	-12.7745
NP	-12.7745
▁subversi	-12.7747
▁billow	-12.7747
▁Oxy	-12.775
▁rightist	-12.775
▁aurora	-12.775
▁Erik	-12.7752
▁freighter	-12.7752
heir	-12.7752
▁Crand	-12.7752
▁bombard	-12.7753
▁functional	-12.7754
▁violator	-12.7754
▁holi	-12.7758
▁cite	-12.7763
▁consula	-12.7763
▁Flore	-12.7764
▁Bao	-12.7764
vert	-12.7765
▁stoning	-12.7767
▁Ninet	-12.7768
▁defaulter	-12.7768
▁Carne	-12.7772
imo	-12.7773
▁eco	-12.7773
▁Inca	-12.7774
▁Maur	-12.7777
▁rescu	-12.7778
▁pil	-12.7778
▁poli	-12.7779
▁Coordinat	-12.7785
adel	-12.7789
▁stride	-12.7789
▁shortcoming	-12.779
▁allowance	-12.7791
stad	-12.7792
nov	-12.7795
▁Roan	-12.7797
▁Siddiq	-12.7798
▁Guse	-12.7798
▁spru	-12.7799
▁cruiser	-12.781
▁incon	-12.7811
mount	-12.7817
▁gut	-12.782
▁Solid	-12.7821
gers	-12.7824
cio	-12.7826
SF	-12.783
▁Withers	-12.7835
elescope	-12.7836
▁arr	-12.7837
pago	-12.784
kaya	-12.7842
▁beast	-12.7843
▁Sac	-12.7843
▁insight	-12.7844
▁Ishi	-12.7846
▁gasp	-12.7847
fax	-12.7851
▁painter	-12.7851
▁Nong	-12.7852
▁Keller	-12.7852
▁Saf	-12.7853
▁Vote	-12.7855
ailroad	-12.7858
▁Rif	-12.7858
▁Kum	-12.7859
▁ca	-12.786
▁Highland	-12.7861
▁Hatt	-12.7861
▁Lyn	-12.7862
▁kit	-12.7864
unset	-12.7865
ucinic	-12.7867
▁cliff	-12.7869
▁Tira	-12.7874
gart	-12.7878
▁Adm	-12.7879
▁Cell	-12.788
▁barb	-12.7881
▁pacifi	-12.7881
▁Yasa	-12.7899
▁focuse	-12.79
▁Karr	-12.7902
GHA	-12.7903
▁Libr	-12.7905
▁bruise	-12.7905
▁congest	-12.7906
ixteen	-12.7907
▁spectacle	-12.7907
▁communis	-12.7911
▁Gro	-12.7911
▁Find	-12.7911
▁Sundar	-12.7918
▁Bio	-12.7922
▁Bent	-12.7923
▁Sule	-12.7923
alf	-12.7929
lle	-12.7936
▁converter	-12.7944
▁decreas	-12.7947
▁Vas	-12.7952
▁Shel	-12.7952
▁Govern	-12.7957
▁menac	-12.7957
nsu	-12.7959
▁Mau	-12.7959
▁Flyn	-12.7966
▁defus	-12.7966
▁syn	-12.7966
▁Kwa	-12.7968
enay	-12.7988
ft	-12.799
▁frightening	-12.7994
TU	-12.7994
▁amber	-12.7999
▁provisional	-12.8001
OG	-12.8007
ram	-12.8012
▁Isabell	-12.8013
▁exploitati	-12.8017
▁Gand	-12.8019
▁Eldor	-12.8022
▁Condo	-12.8023
▁hun	-12.8023
avalier	-12.8028
▁confiscat	-12.8031
▁lid	-12.8035
▁Yasuhi	-12.8035
lindo	-12.8044
niche	-12.8046
▁Kono	-12.8048
▁Tree	-12.8057
▁Pino	-12.8059
nar	-12.8059
▁Benit	-12.806
▁divulge	-12.8063
nu	-12.8064
▁Doub	-12.8068
▁Tril	-12.8069
▁Ichi	-12.808
▁Reg	-12.8083
▁Dut	-12.8095
▁Ill	-12.8097
▁glid	-12.8104
▁lookout	-12.8112
▁confuse	-12.812
▁Op	-12.8122
arab	-12.8123
▁horrifi	-12.8125
▁illustrate	-12.8127
lli	-12.8128
wat	-12.8132
▁Deco	-12.8138
▁Babi	-12.8138
adi	-12.8142
tial	-12.8142
▁commun	-12.815
▁glamor	-12.8155
gie	-12.8161
▁handler	-12.8171
LS	-12.8177
▁reset	-12.8177
inner	-12.8178
▁seab	-12.8182
▁borough	-12.8183
ntiff	-12.8184
ographic	-12.8184
▁Hi	-12.8189
▁Ness	-12.8196
▁Construct	-12.8196
▁Tur	-12.8197
▁Tah	-12.8198
enez	-12.8206
▁toast	-12.8209
▁paw	-12.8211
▁bush	-12.8212
arat	-12.8212
uti	-12.8219
ute	-12.822
pple	-12.8221
lara	-12.8223
▁humble	-12.8224
▁Av	-12.8224
▁Dani	-12.8225
FF	-12.8229
▁Jian	-12.8232
▁Bring	-12.8232
tress	-12.8233
▁Lever	-12.8242
▁Salem	-12.8247
esult	-12.8248
rock	-12.825
issa	-12.825
▁pu	-12.8255
▁Nova	-12.8261
▁Eat	-12.8264
▁chilling	-12.8266
VA	-12.8267
BURG	-12.8272
TSB	-12.8279
kes	-12.8279
▁Fit	-12.8288
▁Baku	-12.8294
guard	-12.8296
▁JA	-12.83
▁Wins	-12.8301
▁Jee	-12.8307
ryl	-12.8309
NI	-12.8311
▁Chery	-12.8312
▁Bir	-12.8314
▁intern	-12.8317
doubted	-12.8317
huttle	-12.8323
ffel	-12.8323
▁glue	-12.8325
erner	-12.8328
▁Brea	-12.8331
goya	-12.8334
uant	-12.8334
▁piled	-12.8336
▁Kost	-12.8338
glia	-12.8338
RO	-12.834
▁feasibl	-12.8343
▁Liz	-12.8348
unker	-12.835
▁democrat	-12.8352
▁Shahr	-12.8352
lus	-12.8352
▁Plu	-12.8355
hap	-12.8356
rno	-12.8361
▁Kra	-12.8362
ohn	-12.8366
▁clu	-12.8371
▁Slo	-12.8374
▁convenient	-12.8395
▁Akh	-12.8396
▁embed	-12.8412
IO	-12.8412
slav	-12.8422
▁lur	-12.8424
▁hyp	-12.8426
▁wig	-12.8434
▁Morale	-12.8435
uli	-12.8441
▁rational	-12.8441
speak	-12.8441
PD	-12.8444
▁cosmo	-12.8459
▁socio	-12.8471
cane	-12.8475
▁Iz	-12.8477
▁Kingsto	-12.8485
mission	-12.8486
▁Champ	-12.8488
Money	-12.8494
▁spik	-12.8497
▁bor	-12.8498
ograph	-12.8498
pleasure	-12.8502
laughter	-12.8505
▁paddle	-12.851
RES	-12.8512
Chrys	-12.8519
famous	-12.852
electric	-12.852
blood	-12.8521
stopp	-12.8521
account	-12.8521
apa	-12.8522
first	-12.8522
AU	-12.8523
complete	-12.8524
▁rocker	-12.8525
broken	-12.8527
▁Fr	-12.8527
tight	-12.8536
hel	-12.8539
▁Stein	-12.854
tension	-12.8543
fford	-12.855
▁Teres	-12.8552
drift	-12.8555
▁Haas	-12.8555
▁liner	-12.8558
une	-12.8558
cke	-12.8561
oma	-12.8564
GC	-12.8566
▁bragg	-12.8572
▁Chu	-12.8572
adh	-12.8578
▁PS	-12.858
belt	-12.8581
▁antibiotic	-12.8581
▁Bow	-12.8582
face	-12.8583
tention	-12.8587
▁calculat	-12.8589
▁CAN	-12.8589
▁Thank	-12.8591
ech	-12.8605
announce	-12.8609
▁Fur	-12.861
▁Hass	-12.861
▁Rim	-12.8616
▁pur	-12.8617
Brow	-12.8618
riano	-12.862
vici	-12.8621
▁Maji	-12.8624
▁Gale	-12.8624
▁Epis	-12.8628
▁jab	-12.8628
▁Chamb	-12.863
▁stranding	-12.8631
▁Stephan	-12.8636
oppo	-12.8636
RD	-12.8637
ica	-12.8637
▁trends	-12.8637
hemical	-12.8638
utton	-12.8639
hazi	-12.8642
qi	-12.8642
▁diver	-12.8645
▁Mut	-12.8649
master	-12.8649
▁intermedia	-12.8651
▁Mol	-12.8655
▁Towns	-12.8661
nie	-12.8663
ermo	-12.8663
sche	-12.8665
▁dominan	-12.8689
iao	-12.8692
▁huddle	-12.8693
▁Hilla	-12.8696
oom	-12.8697
▁compromis	-12.8698
▁Marcos	-12.8698
▁Stac	-12.8701
▁supervisi	-12.8705
▁Ea	-12.8707
▁decepti	-12.8717
hamble	-12.8718
iman	-12.8721
▁worrying	-12.8726
igan	-12.8728
▁Jia	-12.8729
▁Chua	-12.8729
earby	-12.873
▁Thro	-12.8735
▁Nei	-12.8739
▁Books	-12.8744
elho	-12.8746
▁Aba	-12.8747
ingles	-12.875
▁exclusi	-12.8758
mature	-12.8772
kus	-12.8772
gura	-12.8775
reb	-12.8779
acle	-12.8784
itive	-12.8789
lana	-12.8791
▁polariz	-12.8791
▁overtake	-12.8797
passionate	-12.8801
▁jud	-12.8803
shik	-12.8803
VILL	-12.8809
jev	-12.8812
▁illuminat	-12.8818
▁Lami	-12.8818
ADA	-12.8818
▁Osl	-12.8822
▁Bons	-12.8826
itzer	-12.8829
▁Metro	-12.8831
▁cosm	-12.8838
ellwe	-12.884
evan	-12.8844
hara	-12.8847
baz	-12.8848
[...]
