<pad>	0
<s>	0
</s>	0
<unk>	0
▁	-3.22481
▁.	-3.24969
을	-3.61231
는	-3.75745
의	-3.78131
은	-3.98294
를	-4.11602
가	-4.33842
에	-4.44325
,	-4.46153
이	-4.47346
고	-4.69746
▁그	-5.15931
한	-5.16951
에서	-5.19547
로	-5.20058
며	-5.29742
인	-5.30363
▁일	-5.3116
▁이	-5.31364
으로	-5.44398
▁있다	-5.49789
과	-5.51061
와	-5.56613
다	-5.60403
도	-5.61703
▁고	-5.661
▁수	-5.69922
▁밝혔다	-5.7487
▁말했다	-5.77187
할	-5.82533
▁년	-5.92887
▁있는	-5.95473
지	-6.02459
하고	-6.08711
▁것	-6.14886
▁전	-6.23768
했다	-6.24181
나	-6.24724
▁대한	-6.25407
▁위해	-6.27045
▁이번	-6.32589
▁미국	-6.33955
▁전했다	-6.3494
▁월	-6.3559
하는	-6.37083
▁한	-6.42261
▁지난	-6.42481
▁현지시간	-6.45364
된	-6.45455
▁정부	-6.46519
▁대해	-6.5267
▁중	-6.55145
▁미	-6.57474
던	-6.58069
기	-6.59011
해	-6.59307
▁것으로	-6.60926
▁명이	-6.63952
▁명	-6.64236
▁것이라고	-6.65672
에게	-6.65677
▁며	-6.69243
▁있다고	-6.72712
s	-6.74499
러나	-6.76751
▁것을	-6.77095
히	-6.78251
지만	-6.7973
▁더	-6.79883
들	-6.80266
게	-6.80759
▁이라크	-6.81345
스	-6.83801
▁다른	-6.88145
자	-6.90985
▁명의	-6.91497
하게	-6.92706
운	-6.92759
▁대통령	-6.94181
▁중국	-6.95936
▁있	-6.97165
이다	-6.97236
▁한편	-6.99561
▁북한	-7.01893
하	-7.02518
▁또	-7.02788
▁약	-7.03486
▁이라고	-7.03516
▁오바마	-7.03567
▁주	-7.04518
▁만	-7.0629
▁경찰	-7.07538
▁등	-7.08777
들이	-7.1036
▁대변인	-7.10719
▁총리	-7.11206
▁후	-7.11455
▁말	-7.1217
▁많은	-7.1458
▁부시	-7.15985
▁우리	-7.16091
▁통해	-7.16151
하기	-7.16296
▁이후	-7.16857
적인	-7.18616
▁대통령은	-7.19778
▁관련	-7.20542
▁영국	-7.2137
만	-7.21418
▁내	-7.21785
▁가장	-7.2187
▁세	-7.21997
하지	-7.22479
리	-7.22585
위한	-7.23493
까지	-7.23499
▁두	-7.23519
▁동안	-7.2423
▁같은	-7.24517
▁것이다	-7.26244
될	-7.27132
▁않았다	-7.28081
▁한국	-7.28409
시	-7.35782
▁주장했다	-7.36983
▁세계	-7.36995
▁개	-7.37143
면	-7.37607
▁이들	-7.38945
▁에	-7.39274
라	-7.39662
어	-7.39681
▁현재	-7.39921
트	-7.40103
▁달러	-7.40176
도록	-7.40252
▁한다	-7.40528
▁바	-7.41296
▁될	-7.41405
▁문제	-7.41603
▁또한	-7.41747
▁때	-7.42777
드	-7.43719
서	-7.44898
▁알	-7.45626
▁일부	-7.45991
상	-7.46055
▁이상	-7.4693
▁보도했다	-7.47205
▁할	-7.47751
▁덧붙였다	-7.48157
▁최근	-7.48362
및	-7.48408
▁시	-7.49262
했으	-7.49376
했습니다	-7.49527
▁대	-7.4973
▁경우	-7.49965
▁있었다	-7.5031
▁지역	-7.5033
▁영화	-7.52689
사	-7.53032
습니다	-7.53272
▁자신의	-7.53561
했던	-7.53811
▁모든	-7.54071
▁했다	-7.55548
▁것이	-7.55895
▁후보	-7.55909
▁있으	-7.56439
▁새로	-7.57013
수	-7.57156
했다고	-7.57366
▁위	-7.57895
▁함께	-7.58245
▁당시	-7.58742
▁시간	-7.59187
▁예정이	-7.59277
거	-7.60164
라고	-7.61261
일	-7.61308
▁미군	-7.61326
▁라고	-7.61446
주	-7.61835
입니다	-7.62116
▁일본	-7.62324
때문에	-7.62953
▁그리고	-7.63094
▁경제	-7.63406
에따르면	-7.64557
됐다	-7.65132
▁뒤	-7.65893
야	-7.66096
▁조사	-7.67298
▁사람들	-7.67437
▁수도	-7.69618
▁모두	-7.70145
▁설명했다	-7.70248
▁결과	-7.7029
▁있습니다	-7.7119
성	-7.71344
▁계획	-7.72673
▁러시아	-7.73073
▁몇	-7.73475
▁처음	-7.73848
▁프랑스	-7.7404
▁아직	-7.75499
▁유엔	-7.76168
보다	-7.76269
▁당국	-7.76639
간	-7.77001
▁공격	-7.77822
▁큰	-7.77829
▁없다	-7.7795
▁파키스탄	-7.79145
▁이란	-7.79202
▁the	-7.79422
▁사실	-7.79569
▁이스라엘	-7.79945
▁계속	-7.8066
해야	-7.80808
진	-7.81176
▁경기	-7.81336
비	-7.82549
▁사고	-7.82567
▁CNN	-7.82607
▁분	-7.83222
니	-7.83365
▁그녀	-7.83612
▁회담	-7.83638
▁지난해	-7.83897
▁올해	-7.84369
아	-7.84466
▁국가	-7.84547
한다	-7.8457
▁대통령이	-7.84835
▁제	-7.86059
▁민주당	-7.86401
▁하는	-7.86771
면서	-7.8694
▁않을	-7.86974
▁사건	-7.87403
르	-7.8742
▁열린	-7.88052
▁클린턴	-7.88062
▁로	-7.88754
장	-7.88864
▁이날	-7.89313
▁차	-7.89427
▁억	-7.89579
하여	-7.90314
대	-7.91742
▁번째	-7.92982
▁to	-7.93166
▁발표했다	-7.93537
▁비	-7.93952
▁발생한	-7.94072
크	-7.94475
길	-7.94885
▁받고	-7.95106
▁하	-7.95177
▁받았다	-7.95469
하다	-7.95507
e	-7.95533
▁테러	-7.95604
▁나	-7.95945
▁존	-7.96507
▁미국의	-7.97231
이라고	-7.97593
▁다시	-7.97671
▁그들	-7.97853
▁지원	-7.98192
적	-7.98756
부	-7.99162
선	-7.99239
치	-7.99343
▁여성	-7.99634
▁관계자	-7.99898
▁된다	-7.99914
▁가운데	-8.00585
▁of	-8.00654
당	-8.00698
▁에서	-8.00912
▁핵	-8.0109
▁사망했다	-8.01477
즈	-8.01498
▁라	-8.0237
▁반	-8.02502
▁사람들이	-8.02503
▁사	-8.02819
▁이라	-8.03153
▁발표	-8.03364
▁지	-8.0355
▁주요	-8.03583
▁이에	-8.04092
▁의해	-8.0431
▁달	-8.04531
었다	-8.04814
부터	-8.05659
▁있을	-8.05756
▁오	-8.05895
▁국제	-8.06901
적으로	-8.0725
에도	-8.07648
▁인해	-8.07744
▁초	-8.07856
▁하고	-8.08055
▁결정	-8.08093
▁군	-8.08115
에따라	-8.08184
▁사람	-8.08311
▁장관	-8.08375
용	-8.09062
▁대부분	-8.09139
▁데	-8.09869
▁첫	-8.10145
▁조	-8.10159
소	-8.10296
▁않은	-8.10436
화	-8.10503
세	-8.1071
▁선거	-8.10728
▁채	-8.11341
▁됐다	-8.11462
▁관계	-8.11463
▁시위	-8.12091
▁조치	-8.12156
처럼	-8.1241
전	-8.12562
▁아	-8.13123
하지만	-8.13326
▁혐의로	-8.13528
▁아프간	-8.13729
▁보고	-8.13947
▁TV	-8.14147
▁지금	-8.14234
▁이미	-8.14353
▁안	-8.14878
▁연구	-8.15038
이나	-8.15068
라는	-8.15672
▁해	-8.16178
▁마	-8.16224
보기	-8.16362
▁S	-8.16539
▁원문기사	-8.16569
le	-8.16643
▁번	-8.16689
▁자	-8.17035
원	-8.18235
▁위치한	-8.18394
▁매우	-8.18645
에서는	-8.18684
▁거	-8.1873
보	-8.20313
▁이슬람	-8.20317
▁s	-8.2051
마	-8.21115
타	-8.21597
▁포함	-8.21795
▁W	-8.21872
하면서	-8.22021
▁줄	-8.22021
으	-8.2212
로부터	-8.22137
▁원	-8.22225
▁없는	-8.22273
?	-8.2234
▁예정	-8.22401
▁기자	-8.22624
▁피해	-8.22776
▁방문	-8.22827
▁정보	-8.22888
▁총	-8.23101
▁팔레스타인	-8.2323
였	-8.23653
되어	-8.23889
▁추가	-8.24042
▁A	-8.2413
▁승리	-8.2418
y	-8.24199
▁뉴욕	-8.24248
레	-8.24426
▁살	-8.24441
▁노	-8.24501
▁오늘	-8.24694
▁않고	-8.24863
▁km	-8.25003
했지만	-8.2504
우	-8.25103
▁회사	-8.25184
▁의원	-8.25562
▁있다는	-8.25871
명	-8.26028
▁조지	-8.26252
▁탈레반	-8.26375
였다	-8.2656
▁한다고	-8.26587
▁강	-8.26795
▁아이	-8.27038
▁지지	-8.27099
▁대선	-8.27435
▁호주	-8.2747
려	-8.27517
▁인도	-8.27542
돼	-8.27859
식	-8.28117
▁년간	-8.28167
프	-8.28174
▁유럽	-8.28181
▁성명	-8.28246
▁어떤	-8.28273
▁잘	-8.28519
▁정도	-8.28543
ing	-8.28575
▁in	-8.2889
파	-8.29242
▁대표	-8.29557
티	-8.29599
▁독일	-8.29625
▁부	-8.29637
▁내용	-8.30181
▁혐의	-8.30354
디	-8.30625
▁점	-8.3065
▁소속	-8.3071
▁인터넷	-8.30725
질	-8.30995
▁기록	-8.31212
▁새	-8.31724
▁시장	-8.31841
▁개의	-8.31982
▁감독	-8.32191
▁협상	-8.32474
미	-8.32718
▁우려	-8.32775
▁최고	-8.33048
제	-8.3307
▁간	-8.33623
▁프로그램	-8.33707
▁대학	-8.33812
함	-8.33945
▁상원의원	-8.34793
했	-8.34895
▁구	-8.35119
▁없다고	-8.35194
▁여러	-8.35716
▁않는다	-8.35991
바	-8.36135
▁받은	-8.36221
▁발생했다	-8.36589
▁못했다	-8.36609
▁활동	-8.36644
▁보고서	-8.36719
▁a	-8.37191
▁입장	-8.37605
었던	-8.37658
안	-8.37696
▁매케인	-8.38265
코	-8.38326
▁관리	-8.39217
▁폭탄	-8.39437
d	-8.39511
▁의회	-8.39523
▁하지	-8.39531
구	-8.39633
린	-8.39916
▁많	-8.4028
▁박사	-8.40365
▁부상	-8.40384
▁올림픽	-8.40502
▁오후	-8.40678
ed	-8.40746
되었다	-8.40753
▁지적했	-8.40882
▁성	-8.41054
▁기	-8.41368
권	-8.41569
▁카	-8.41606
산	-8.42498
▁북한이	-8.42614
▁판매	-8.42625
▁상	-8.4289
▁전쟁	-8.43123
▁모습	-8.43393
토	-8.43561
▁보도	-8.43697
러	-8.43877
▁언론	-8.44244
▁배	-8.44366
▁인터뷰에서	-8.44855
▁남자	-8.45125
되는	-8.45203
오	-8.45399
▁자동차	-8.45586
▁사망	-8.4561
▁단체	-8.4564
▁준비	-8.45772
요	-8.45844
이었다	-8.45886
▁우주	-8.46281
▁컴퓨터	-8.46448
▁보	-8.46463
▁비난	-8.46508
내	-8.46687
▁있어	-8.46756
▁앞으로	-8.46766
▁이러	-8.46771
▁개월	-8.46876
관	-8.4702
▁주장	-8.47138
▁나는	-8.47224
▁반대	-8.47483
▁터키	-8.47762
▁기술	-8.47771
▁사용	-8.47912
▁갖고	-8.47927
▁현지	-8.48208
▁공화당	-8.48421
▁마지막	-8.48531
▁미얀마	-8.48797
▁강조했다	-8.4881
▁차량	-8.48817
▁B	-8.49217
▁경찰이	-8.49413
▁병원	-8.49534
▁인쇄	-8.50182
▁생각	-8.5025
▁가진	-8.5032
국	-8.5037
▁노력	-8.50377
▁떨어진	-8.50423
▁개발	-8.50513
차	-8.50519
▁합의	-8.5079
▁곳	-8.50834
표	-8.50951
▁교수	-8.51416
▁석방	-8.51433
▁변화	-8.51726
설명	-8.51772
▁오전	-8.51925
▁앞서	-8.52088
▁힐러리	-8.5209
▁것에	-8.52093
▁남부	-8.52267
▁폭발	-8.52285
하는데	-8.52317
▁비난했다	-8.52361
▁무	-8.52456
되지	-8.52536
▁주지사	-8.52583
▁물	-8.52777
▁사이	-8.5278
▁오는	-8.52904
▁미국과	-8.52906
모	-8.52942
▁지도자	-8.53041
▁독해	-8.53108
▁차례	-8.53228
▁정책	-8.53376
▁시작	-8.53444
▁발생	-8.53507
▁평화	-8.53543
▁자신이	-8.53742
▁버락	-8.53818
▁이어	-8.5392
▁규모	-8.53991
▁검찰	-8.54224
▁원문	-8.5433
카	-8.54639
▁백악관	-8.54672
되고	-8.54801
▁여	-8.55041
▁사진	-8.55327
▁아시아	-8.55349
▁방송	-8.55583
들에게	-8.55638
▁다음	-8.55646
▁미국이	-8.55696
▁m	-8.55887
▁연방	-8.5629
▁AP	-8.56442
▁피	-8.56531
▁지난달	-8.56608
▁정	-8.56662
▁의사	-8.56759
릴	-8.56966
법	-8.57019
▁없었다	-8.57045
▁투표	-8.57369
▁스페인	-8.57583
▁도시	-8.57979
▁상황	-8.58086
▁좋은	-8.58355
▁무샤라프	-8.58614
▁하나	-8.58783
▁인근	-8.58844
▁지역에서	-8.59073
▁집	-8.59096
중	-8.59123
▁관한	-8.59301
▁이를	-8.59423
단	-8.59698
▁요구	-8.59949
호	-8.60022
▁볼	-8.60025
▁상태	-8.60108
물	-8.60231
▁가지	-8.60371
▁아무	-8.60458
하기로	-8.60538
▁N	-8.60743
▁안전	-8.60762
직	-8.60779
▁마리	-8.60813
▁전문가들	-8.60873
▁보인다	-8.61156
▁없이	-8.61195
정	-8.61221
▁이런	-8.61383
▁영향	-8.61415
▁날	-8.6178
▁치료	-8.6187
조	-8.6209
▁된	-8.62149
는데	-8.62187
▁야당	-8.6222
▁여행	-8.6238
으로부터	-8.62386
브	-8.6243
데	-8.62485
했었다	-8.62519
▁이탈리아	-8.62557
난	-8.62785
온	-8.62821
▁저	-8.62857
▁이름	-8.63082
들의	-8.63175
▁최소	-8.63328
이며	-8.63411
노	-8.63429
▁불법	-8.63637
▁않다	-8.63662
▁파	-8.63939
▁타	-8.64051
▁생산	-8.64346
▁금융	-8.6437
▁사망자	-8.64413
▁C	-8.64553
▁가능성	-8.646
al	-8.64713
▁없	-8.64726
▁미국은	-8.64749
▁증가	-8.6487
▁가족	-8.64888
루	-8.65034
▁재	-8.65097
▁김	-8.65162
▁미사일	-8.65171
씨	-8.653
▁양	-8.65553
▁이전	-8.65597
▁년에	-8.65755
▁해결	-8.6578
▁연기	-8.65907
▁T	-8.65935
▁중요한	-8.65971
▁행사	-8.66032
▁밤	-8.66054
▁공식	-8.66405
▁역사	-8.66707
▁산	-8.66728
▁비행기	-8.66944
▁artic	-8.66974
▁JO	-8.66978
박	-8.67116
▁최초	-8.67179
▁불	-8.67244
▁모	-8.67482
▁검사	-8.67592
신	-8.676
▁만에	-8.67611
▁논의	-8.6762
▁있었	-8.67746
▁주둔	-8.678
INS	-8.67822
▁알카에다	-8.6829
▁위협	-8.68329
▁알려졌다	-8.6869
▁보다	-8.68823
▁외	-8.69146
▁사태	-8.69328
▁포인트	-8.69399
군	-8.69416
▁매	-8.69607
▁이용	-8.69881
▁신	-8.6993
▁발언	-8.69975
▁유	-8.70121
▁대통령과	-8.70263
▁정치적	-8.70576
피	-8.70653
▁까지	-8.70942
▁돈	-8.71005
점	-8.71047
계	-8.71187
더	-8.71419
▁The	-8.71419
▁가격	-8.7156
▁이야기	-8.71582
a	-8.71634
여	-8.71715
▁관심	-8.71954
▁반면	-8.72002
▁법원	-8.72103
▁용의자	-8.72107
▁사망한	-8.72127
▁주민들	-8.72154
▁팀	-8.72499
▁방법	-8.72715
▁부토	-8.728
자들	-8.72848
▁P	-8.73196
들과	-8.73223
▁불구하	-8.73249
▁은행	-8.73298
▁열	-8.73406
포	-8.73442
▁씨	-8.73455
▁코리아	-8.73669
측	-8.73734
▁자신들	-8.73884
체	-8.73998
▁대해서	-8.74065
방	-8.74118
▁전에	-8.74196
▁런던	-8.74238
됐다고	-8.74365
▁지구	-8.74457
▁위험	-8.74481
▁자금	-8.74539
▁일간	-8.7455
▁무기	-8.74647
▁서비스	-8.74698
▁정치	-8.7472
▁조직	-8.74812
▁발	-8.74813
▁회장	-8.7484
▁호	-8.74844
터	-8.74846
든	-8.74892
▁코	-8.74905
and	-8.75146
됐으	-8.75253
▁최대	-8.75361
▁살해	-8.75399
▁자신	-8.75532
▁반군	-8.75534
▁학교	-8.75536
발	-8.75652
▁장	-8.76334
▁인질	-8.76443
▁관계자들	-8.7649
사전	-8.76672
▁한나라당	-8.76717
해서	-8.76836
▁것이라는	-8.76856
▁벌이	-8.76863
▁출신	-8.76958
▁높은	-8.77027
▁당	-8.77081
력	-8.77112
▁인용	-8.7718
▁for	-8.77247
임	-8.77367
▁골	-8.77394
▁뉴스	-8.77462
▁지난주	-8.77556
▁북부	-8.7774
▁바그다드	-8.78005
▁군사	-8.78273
위	-8.78325
▁역할	-8.78449
▁가능성이	-8.78468
▁공급	-8.78481
▁D	-8.78483
▁올	-8.78573
▁강력	-8.78621
i	-8.78707
▁수사	-8.7918
▁게임	-8.7935
▁밝혔	-8.7954
▁더욱	-8.79551
▁뜻	-8.7958
▁만명	-8.79653
▁필요	-8.79777
의하면	-8.79826
▁공	-8.79975
▁소식	-8.80011
▁상승	-8.8005
▁공동	-8.804
▁건물	-8.80427
동	-8.80431
▁지역에	-8.80483
▁알고	-8.80508
▁소	-8.80724
▁특	-8.80739
▁리	-8.8077
▁특별	-8.80816
▁왔다	-8.80936
츠	-8.81006
회	-8.81091
▁국경	-8.8114
▁천	-8.81168
▁않	-8.8141
▁우승	-8.81483
▁선수	-8.81562
▁아버지	-8.81569
이라는	-8.81672
시킬	-8.8183
▁서울	-8.81861
▁선	-8.81944
됐	-8.82093
▁고위	-8.82155
합니	-8.82255
▁것이며	-8.82281
▁거래	-8.82917
▁com	-8.8292
▁필요한	-8.83046
키	-8.83092
형	-8.83095
▁아니다	-8.83133
▁어제	-8.83154
▁기업	-8.83247
▁핵무기	-8.8345
위원회	-8.83509
이자	-8.83515
▁나라	-8.83764
니다	-8.83806
▁앞	-8.83841
▁자살	-8.83891
▁K	-8.83948
▁이와	-8.84167
▁아이들	-8.84221
날	-8.84348
▁병력	-8.84453
▁시작했다	-8.84504
▁않는	-8.84521
▁하루	-8.84573
▁Korea	-8.84677
▁부족	-8.84738
문	-8.84754
▁사르코지	-8.84785
▁법안	-8.85072
▁감소	-8.85133
▁하마스	-8.85408
▁티베트	-8.8546
▁라이스	-8.85493
슨	-8.8566
▁금지	-8.85702
▁위기	-8.8574
▁중단	-8.85745
▁결국	-8.85808
▁운동	-8.85816
▁투자	-8.86072
▁독립	-8.86132
▁행위	-8.86149
▁만달러	-8.86153
▁아들	-8.8617
▁폭탄테러	-8.86275
▁레	-8.86438
▁사람이	-8.8648
▁아침	-8.86486
▁이제	-8.86642
▁시위대	-8.8665
▁작업	-8.86672
▁전화	-8.86677
▁되는	-8.86842
▁포	-8.86855
▁보호	-8.86941
▁기자회견에서	-8.87056
▁콜롬비아	-8.87167
▁동영상	-8.87437
▁그것	-8.87584
▁국방부	-8.87596
▁건강	-8.87626
런	-8.87785
하겠다고	-8.87906
▁공항	-8.87912
t	-8.8794
▁보였다	-8.88014
▁직접	-8.88033
▁법	-8.88248
▁행동	-8.88278
▁적	-8.8849
▁이같	-8.88524
▁브라운	-8.88563
▁회의	-8.88581
▁아니라	-8.88759
▁못하	-8.88815
▁F	-8.88883
▁노무현	-8.88903
▁캘리포니아	-8.88995
▁워싱턴	-8.89094
▁위해서	-8.89293
▁여부	-8.89355
▁남성	-8.89374
시켰다	-8.89593
▁억원	-8.89707
▁받을	-8.89733
▁타고	-8.89807
란	-8.90264
▁손	-8.90765
유	-8.90819
종	-8.91253
▁비행	-8.91608
▁주택	-8.91791
▁각	-8.91878
▁건설	-8.91918
▁보안	-8.91944
된다	-8.92101
▁역시	-8.92131
스트	-8.92143
▁대화	-8.92246
하려	-8.92273
▁EU	-8.9247
감	-8.92539
▁발사	-8.92806
▁어떻게	-8.92832
네	-8.92884
▁충돌	-8.92892
재	-8.93007
▁요청	-8.93079
▁이유	-8.93539
▁년까지	-8.93555
▁열리는	-8.93633
er	-8.93824
▁음악	-8.93859
▁시신	-8.93939
었습니다	-8.93951
▁이유로	-8.9412
▁베이징	-8.94383
한다고	-8.94419
▁협력	-8.94456
인한	-8.9449
복	-8.94504
울	-8.94557
▁표	-8.94658
n	-8.94661
져	-8.94678
급	-8.94724
긴	-8.94762
▁곧	-8.94785
▁문제에	-8.94814
▁연설	-8.94833
▁서	-8.94855
▁호텔	-8.94909
▁철수	-8.95117
▁폴	-8.95147
▁빌	-8.95192
▁사건에	-8.95232
▁년대	-8.95252
▁판결	-8.9526
▁국무부	-8.95419
하면	-8.95447
▁기간	-8.95488
▁진행	-8.9556
실	-8.95592
▁폐쇄	-8.95725
▁자유	-8.95798
▁중에	-8.95838
▁숨졌다	-8.95868
▁어	-8.9603
경	-8.96396
▁에너지	-8.964
친	-8.9646
▁신문	-8.9649
▁데이비드	-8.96543
▁석유	-8.96601
▁월에	-8.96881
다고	-8.96907
▁한국인	-8.96909
▁아프가니스탄	-8.97097
설	-8.97375
▁문	-8.97793
▁기회	-8.98111
▁H	-8.98331
▁대선후보	-8.98454
▁상원	-8.98632
▁도로	-8.98723
▁있게	-8.98742
▁과학자들	-8.98959
▁변호사	-8.98975
▁대사	-8.99054
혀	-8.99202
▁기상	-8.99285
연	-8.99293
▁같다	-8.9931
▁증거	-8.99404
▁실	-8.99605
▁말하는	-8.9961
▁입	-8.99645
▁범죄	-8.99718
▁승인	-8.99754
▁내년	-8.99833
▁박	-8.99946
▁발견했다	-8.99999
▁종	-9.00006
▁수술	-9.00006
▁양국	-9.00034
버	-9.00077
▁생활	-9.00119
▁있기	-9.00257
▁요구했다	-9.00384
▁전세계	-9.00393
▁남	-9.00592
▁너무	-9.00595
▁주변	-9.00615
ar	-9.00661
반	-9.00764
▁대규모	-9.008
p	-9.00894
st	-9.00936
▁눈	-9.00957
▁사회	-9.00967
▁교육	-9.01011
▁생각한다	-9.0122
▁현	-9.01309
▁수준	-9.01414
▁친구	-9.01573
▁스	-9.01678
▁훈련	-9.0174
공	-9.01774
▁통신	-9.01873
그	-9.02047
▁언급	-9.02117
▁부인	-9.02143
▁사업	-9.02216
▁타임즈	-9.02393
▁아니	-9.02477
▁비디오	-9.02786
▁저장	-9.02974
▁만원	-9.03008
l	-9.0306
민	-9.03122
▁의견	-9.03127
▁어린이	-9.03212
▁개인	-9.03245
하려는	-9.03352
▁재판	-9.03436
▁동물	-9.03506
▁화재	-9.03537
▁나타났다	-9.03634
▁약어	-9.03653
▁결혼	-9.03675
▁재개	-9.03709
▁전투	-9.03896
▁목표	-9.03966
▁앞두고	-9.03999
▁말한	-9.04057
▁포함한	-9.04141
▁정상	-9.04162
성명에서	-9.04223
▁못	-9.0425
▁성공	-9.04262
▁힘	-9.04355
▁납치	-9.0439
▁비롯	-9.04409
▁대사관	-9.04442
청	-9.04615
너	-9.04702
▁발견	-9.04955
▁우	-9.05023
▁심각한	-9.05027
▁성장	-9.05051
▁레바논	-9.05227
▁로버트	-9.05236
▁애	-9.05265
▁관할	-9.05366
▁G	-9.05387
병	-9.05407
▁전체	-9.05504
▁억달러	-9.05647
▁구조	-9.05666
▁인간	-9.05721
량	-9.05764
▁체포	-9.05777
▁온	-9.0584
▁인구	-9.05861
▁딸	-9.059
로서	-9.05912
▁아닌	-9.06061
▁민간인	-9.06168
▁태국	-9.06309
▁확인	-9.06381
▁이동	-9.06382
▁위원회	-9.06445
▁여전	-9.06523
하자	-9.06597
▁해외	-9.06726
▁것이라	-9.06811
으로써	-9.06916
▁안에	-9.07006
증	-9.07051
▁경선	-9.07138
지는	-9.07167
▁판사	-9.07266
심	-9.07291
영	-9.07305
▁출전	-9.07327
▁방안	-9.07385
판	-9.07387
▁않았	-9.07747
▁멕시코	-9.07829
▁경기에서	-9.07836
▁여객기	-9.0784
속	-9.08164
역	-9.0819
▁제안	-9.08381
▁부부	-9.0841
▁LA	-9.08428
▁때문	-9.08644
▁드	-9.08698
▁임무	-9.0884
수지	-9.08885
▁방	-9.08951
▁대신	-9.08996
▁명과	-9.09013
▁수치	-9.09014
▁인도네시아	-9.09042
▁스타	-9.09074
▁길	-9.09127
하던	-9.09187
▁촉구했다	-9.0919
▁난	-9.09226
▁받아	-9.09376
▁수입	-9.09377
▁사망하	-9.09426
졌다	-9.09551
▁작은	-9.09568
▁국민	-9.09663
▁작전	-9.09843
▁퍼센트	-9.09869
▁밝혀졌다	-9.09888
▁이상이	-9.09923
▁예	-9.10001
▁가지고	-9.10091
▁그들의	-9.10572
▁입은	-9.10678
▁마이클	-9.10738
▁헬기	-9.10785
▁지도자들	-9.10828
▁산업	-9.10974
▁항	-9.11127
▁푸틴	-9.11174
▁최종	-9.11179
학	-9.11199
▁국민들	-9.11325
▁규정	-9.11351
▁열차	-9.11447
▁경고	-9.11484
▁온라인	-9.11549
▁마을	-9.11627
▁제재	-9.11655
▁공개	-9.11786
▁대회	-9.11825
▁전망	-9.11848
▁입었다	-9.11918
▁경쟁	-9.12035
▁심	-9.12067
▁본	-9.12107
▁선택	-9.12279
▁아기	-9.12405
▁안보	-9.12438
▁폭력	-9.12494
▁바로	-9.12659
▁이라크에서	-9.12729
▁했다고	-9.12879
▁예상	-9.13104
금	-9.1322
건	-9.13241
▁알리	-9.13327
▁당신	-9.13338
▁증시	-9.13389
▁환경	-9.13518
행	-9.1357
▁팔	-9.13898
▁행정부	-9.14109
▁시설	-9.14116
▁얼마	-9.1423
▁치	-9.1426
▁메시지	-9.14301
▁인권	-9.14473
▁라디오	-9.14496
▁부대	-9.14662
▁무장	-9.14804
▁살고	-9.14879
▁시도	-9.1505
▁네	-9.15171
▁밝힌	-9.15192
▁배우	-9.15234
후	-9.15303
▁연합	-9.15308
▁대의원	-9.15314
▁그들이	-9.15349
▁이것	-9.15373
r	-9.15486
▁경고했다	-9.15542
▁여자	-9.15544
▁관리들	-9.15547
▁아프리카	-9.1556
▁대만	-9.15601
▁친	-9.15617
▁만약	-9.15721
▁필요하다	-9.15815
▁돌	-9.15907
▁보내	-9.15946
▁막	-9.16092
▁그런	-9.16098
▁인정	-9.16142
▁경	-9.16145
▁도움	-9.163
▁외국	-9.16535
▁서로	-9.16549
▁미국인	-9.16671
▁개선	-9.16827
h	-9.16866
▁발표한	-9.16936
▁즉	-9.16956
류	-9.16985
▁화요일	-9.17186
▁남편	-9.1725
▁출연	-9.17323
▁힐	-9.17365
▁비해	-9.1747
▁책임	-9.17546
▁중인	-9.17658
▁계약	-9.17688
있는	-9.17776
▁의장	-9.17819
o	-9.17919
▁벌였다	-9.18132
교	-9.18214
▁주식	-9.18226
▁시스템	-9.1826
▁속	-9.1838
했을	-9.18386
▁외국인	-9.18402
▁항공	-9.18414
▁관계자가	-9.18507
▁세금	-9.18511
었다고	-9.18554
강	-9.18562
▁홍콩	-9.18569
▁연료	-9.18583
▁지수	-9.18616
▁가치	-9.18835
▁운영	-9.19114
▁광고	-9.19228
▁스미스	-9.19378
▁지방	-9.19387
▁담	-9.19409
▁없을	-9.1946
▁소송	-9.1963
▁미국에서	-9.19782
▁짐바브웨	-9.19854
▁기록했다	-9.19915
▁과거	-9.19927
▁여명	-9.19937
▁시즌	-9.1998
론	-9.20193
▁중동	-9.20459
엔	-9.20667
▁공연	-9.20669
▁같이	-9.20681
▁상당	-9.2077
▁사무총장	-9.20814
▁걸	-9.20903
▁내렸다	-9.20987
▁건	-9.21018
▁브라질	-9.21033
▁시아파	-9.21297
출	-9.21382
▁밖에	-9.21717
석	-9.21963
▁일본의	-9.22349
▁만나	-9.22448
▁사임	-9.22524
▁상황이	-9.2253
워	-9.22582
▁총선	-9.22653
▁빈	-9.22732
▁각각	-9.22771
▁권리	-9.22813
▁원인	-9.22824
es	-9.23011
▁평균	-9.23016
▁일정	-9.23051
▁년부터	-9.23131
▁거리	-9.23171
▁부통령	-9.23279
▁앤	-9.23299
무	-9.23323
▁측	-9.23383
▁해군	-9.23423
▁정권	-9.23549
▁가스	-9.23589
▁웹사이트	-9.23605
팀	-9.23672
▁합의했다	-9.23801
▁작품	-9.2396
c	-9.24055
▁있지	-9.24064
▁on	-9.24139
▁파업	-9.24157
▁확보	-9.24225
▁비용	-9.24254
▁기대	-9.24256
▁시험	-9.24261
▁나오	-9.24263
▁않아	-9.24273
▁사건이	-9.24299
▁US	-9.24331
음	-9.24489
▁국내	-9.24519
▁다양	-9.24576
▁수단	-9.24592
▁제작	-9.24842
래	-9.24914
▁사이에	-9.24987
▁받았	-9.25163
▁처리	-9.25268
▁베	-9.25271
u	-9.25271
▁텍사스	-9.25311
▁구성	-9.2538
▁소식통	-9.25426
▁개최	-9.25427
▁약속	-9.25488
▁환자	-9.25565
▁주말	-9.25742
▁케냐	-9.25831
▁국영	-9.25851
▁발견됐다	-9.26097
▁과정에서	-9.26113
de	-9.26117
▁위원장	-9.26184
기도	-9.26237
▁내무부	-9.26261
▁여름	-9.2627
▁걸쳐	-9.26276
앞서	-9.26383
▁인상	-9.26416
▁대가	-9.26435
▁L	-9.26517
▁암	-9.2655
▁예정이라	-9.26652
하겠다	-9.26692
▁들	-9.26696
▁반응	-9.26749
저	-9.26995
품	-9.27047
▁학생	-9.27166
▁지명	-9.27212
▁완전	-9.27232
▁부상했다	-9.27356
▁항공사	-9.27481
▁결정했다	-9.2754
시켜	-9.27666
캐스터	-9.27802
통	-9.28014
▁강제	-9.2802
분	-9.2812
▁선고	-9.28214
작	-9.2824
▁동부	-9.28263
▁통	-9.28405
▁유일	-9.28408
▁이곳	-9.2855
▁M	-9.28581
▁메	-9.28734
▁주민	-9.28863
▁단	-9.28928
▁그룹	-9.28979
▁대상으로	-9.29044
▁R	-9.29266
▁E	-9.29337
▁온몸	-9.29362
▁후세인	-9.29363
en	-9.29428
▁주재	-9.29703
▁캐나다	-9.29708
▁회	-9.29937
▁무장세력	-9.30007
줄	-9.30016
▁감시	-9.30143
▁하락	-9.30173
▁갈	-9.30387
▁바이러스	-9.30418
해왔다	-9.3042
▁바란다	-9.30424
▁어머니	-9.30561
▁별	-9.30652
색	-9.30818
▁그러	-9.30827
케	-9.30882
▁것과	-9.30923
▁베네수엘라	-9.30949
▁익명	-9.30949
▁야후	-9.30959
▁알려진	-9.30966
▁곳에서	-9.31368
▁서부	-9.31417
▁발견된	-9.31434
▁해안	-9.31468
▁직원	-9.31518
▁페	-9.31561
b	-9.31708
테	-9.31718
기구	-9.31798
▁상대로	-9.31941
▁U	-9.32137
an	-9.32464
▁받는	-9.32485
▁다리	-9.3251
▁마치	-9.32545
▁파병	-9.32563
▁차베스	-9.32569
▁인기	-9.32663
▁로마	-9.32691
▁일까지	-9.32787
▁계획이	-9.32821
▁남한	-9.32822
▁경찰에	-9.32827
되었	-9.32853
▁통제	-9.32914
▁여론	-9.32949
▁집단	-9.32989
▁북핵	-9.33093
▁이래	-9.33142
▁대변인이	-9.33216
▁요청했다	-9.3324
▁여론조사	-9.3325
▁민주주의	-9.3326
▁찾아	-9.33291
▁플로리다	-9.3336
▁누	-9.33366
▁왕자	-9.33399
▁담당	-9.33608
▁백	-9.33922
두	-9.34041
▁유권자들	-9.34116
▁논쟁	-9.34194
▁join	-9.34201
▁크게	-9.34297
중인	-9.34301
▁패	-9.34424
▁진압	-9.34431
▁사실이	-9.34602
in	-9.34676
▁받지	-9.34681
▁회복	-9.34693
▁되었다	-9.34731
▁디	-9.34737
▁유지	-9.34773
▁예상된다	-9.34819
▁하원	-9.34909
▁총격	-9.34947
▁소녀	-9.34976
▁사과	-9.35004
▁접근	-9.35242
갈	-9.35285
▁위성	-9.35289
E	-9.35311
▁변호사는	-9.35343
▁co	-9.35421
▁자료	-9.35509
▁때까지	-9.35511
▁책	-9.35567
▁추	-9.35721
록	-9.35769
른	-9.35838
▁버스	-9.35919
약	-9.35921
▁키	-9.35944
▁수상	-9.35977
▁사는	-9.35995
▁희망	-9.36002
▁수출	-9.36205
▁제품	-9.36375
▁탑승	-9.36428
▁인터뷰	-9.36436
▁쿠바	-9.36468
한다는	-9.36648
▁발전	-9.36708
▁사퇴	-9.36758
▁무역	-9.36796
▁밝히	-9.36808
락	-9.36826
▁강한	-9.36832
▁들어	-9.36868
▁거대	-9.36886
▁있었으	-9.36906
▁나온	-9.36924
▁최악	-9.36996
▁무장단체	-9.37012
개	-9.37083
장을	-9.37084
처	-9.37124
▁토	-9.37255
본	-9.37331
▁전국	-9.37338
▁암살	-9.37404
▁의료	-9.37467
▁To	-9.37521
▁동	-9.37544
▁마크	-9.37548
힌	-9.37562
▁따른	-9.37569
▁실험	-9.3778
▁벌	-9.37792
▁국회	-9.37796
▁일부터	-9.3782
▁도움이	-9.37925
▁음식	-9.38018
▁아니라고	-9.38023
▁적이	-9.38145
▁머리	-9.38306
▁촬영	-9.38398
▁루	-9.38468
대로	-9.38468
▁평가	-9.3848
▁수색	-9.38493
▁성폭행	-9.38703
▁지나	-9.3872
▁받게	-9.38764
▁임기	-9.38861
▁의미	-9.39062
▁상원의원이	-9.39099
▁세력	-9.39117
▁필리핀	-9.39287
▁주간	-9.39314
기로	-9.39383
▁되고	-9.3939
▁적어	-9.39491
▁질문	-9.39747
▁시간이	-9.39776
▁차이	-9.39826
쳐	-9.39858
▁명령	-9.39861
▁NASA	-9.39868
▁매년	-9.39881
▁확인했다	-9.40161
▁파리	-9.40187
▁월요일	-9.40267
▁북한에	-9.40339
▁비밀	-9.40376
▁선수들	-9.40406
▁동료	-9.40462
▁달리	-9.40469
▁파견	-9.40502
▁못한	-9.40523
탄	-9.40533
▁있음	-9.40563
▁압력	-9.40587
▁편	-9.40614
▁정부와	-9.40679
▁기사	-9.40682
▁가능한	-9.40685
▁중국은	-9.40793
▁학생들	-9.40805
▁한다는	-9.40816
▁이집트	-9.40851
업체	-9.40939
▁가자지구	-9.40997
▁인질들	-9.41025
▁사우디	-9.41045
동안	-9.4105
근	-9.41135
▁커	-9.41214
▁시리아	-9.41288
▁가졌다	-9.41295
하라	-9.41426
▁항공기	-9.41523
▁불만	-9.41544
▁언급했다	-9.41548
▁어느	-9.4164
▁통과	-9.41666
▁자세	-9.41753
▁마련	-9.41772
▁인수	-9.41781
하였다	-9.41807
▁나왔다	-9.41824
▁O	-9.41855
▁제한	-9.41862
▁칸	-9.42059
▁공격으로	-9.42074
▁연	-9.42096
다면	-9.42171
▁두고	-9.42212
▁주도	-9.42238
▁뇌	-9.42342
▁맥	-9.42363
▁후에	-9.42417
▁밝히지	-9.42503
등	-9.42591
▁개혁	-9.42849
▁국가들	-9.42862
▁보냈다	-9.42999
▁합니	-9.43072
▁명으로	-9.43203
▁외교	-9.43318
▁나머지	-9.4343
▁이끄는	-9.43431
▁영어	-9.43504
료	-9.43543
▁만들어	-9.43631
▁실시	-9.43673
▁사랑	-9.43728
지역	-9.4378
층	-9.43841
▁신고	-9.43855
▁구체적	-9.44041
▁권력	-9.4406
▁사형	-9.44096
▁향해	-9.44128
▁긴장	-9.44174
▁되어	-9.44229
▁개국	-9.44331
▁사람들에게	-9.44384
▁제공	-9.44555
▁관해	-9.44592
▁부상자	-9.44619
▁식량	-9.44638
▁지진	-9.44658
▁I	-9.44676
▁인물	-9.44685
업	-9.44733
▁전시	-9.44772
▁살인	-9.44824
▁올랐다	-9.44825
▁하기	-9.4492
았다	-9.44931
▁아내	-9.44952
▁병사	-9.44953
커	-9.44964
sp	-9.45038
▁일이	-9.4504
▁안정	-9.45082
▁군대	-9.45114
튼	-9.45213
▁제임스	-9.45257
▁공습	-9.45271
▁정말	-9.45273
양	-9.45348
센터	-9.45359
▁일자리	-9.45391
인들	-9.45416
쉬	-9.45522
▁국무장관	-9.45538
N	-9.45578
▁희생자	-9.45636
▁싶다	-9.45876
▁잘못	-9.45878
▁소재	-9.45904
▁파괴	-9.46131
으나	-9.46203
▁장면	-9.46211
▁의원들	-9.46231
▁붕괴	-9.46256
▁미군이	-9.4651
▁다음달	-9.4651
f	-9.46551
▁허가	-9.46567
▁참석	-9.46623
▁흑인	-9.46626
▁막기	-9.46675
▁전기	-9.4697
▁기소	-9.47017
시키는	-9.47053
or	-9.47093
▁목숨	-9.47122
▁위반	-9.47152
▁자회담	-9.47221
▁사령관	-9.47339
▁e	-9.47598
▁팬들	-9.47693
▁예측	-9.47725
▁오른	-9.4777
O	-9.47843
▁숨지고	-9.47876
▁UN	-9.48007
▁업체	-9.48062
▁만큼	-9.48065
▁부모	-9.48106
▁병	-9.48223
▁주장하고	-9.48228
▁설치	-9.4835
▁허리케인	-9.48384
▁국방장관	-9.48387
▁자체	-9.48421
▁수천명	-9.48426
으로서	-9.48477
▁질문에	-9.48502
▁나이	-9.48525
망	-9.48546
▁고용	-9.48618
C	-9.48757
▁기관	-9.4877
▁센터	-9.48818
▁되	-9.4884
▁죽음	-9.48973
▁소말리아	-9.49021
▁어떠한	-9.49021
▁임시	-9.49093
각	-9.49217
▁비판	-9.49253
▁달러에	-9.49413
▁위로	-9.4962
▁소리	-9.49664
▁마음	-9.497
▁J	-9.49724
▁왜	-9.49727
되기	-9.49755
▁끝에	-9.49759
메	-9.49932
거리	-9.50058
▁일반	-9.50062
▁북	-9.50106
▁여성이	-9.50174
▁확대	-9.50307
▁헌법	-9.50333
▁마약	-9.50335
▁물론	-9.50335
▁곳에	-9.50408
▁넘	-9.50519
▁정부에	-9.50526
▁시기	-9.50651
▁기지	-9.50657
▁당선인	-9.50726
▁따라	-9.50847
▁유로	-9.50874
▁쇼	-9.50875
▁시카고	-9.50925
베	-9.50938
▁외무부	-9.50982
되	-9.50999
▁내려	-9.51038
▁중앙	-9.51038
▁사장	-9.51044
▁수요일	-9.51103
▁자리	-9.51136
주의	-9.51147
▁사원	-9.51192
회사	-9.5127
▁갖	-9.51288
▁고통	-9.51292
▁넘는	-9.51357
▁혼란	-9.51362
▁직원들	-9.51475
▁문화	-9.51571
▁강화	-9.51637
립	-9.51686
▁칼	-9.51985
▁움직임	-9.52164
▁증언	-9.52269
▁이라크에	-9.5228
▁되지	-9.52384
▁교황	-9.52413
▁시민	-9.5244
▁접촉	-9.52447
▁입고	-9.5253
▁섬	-9.52624
▁해리	-9.52705
▁이란이	-9.52724
▁유명한	-9.52799
▁베컴	-9.52933
▁찰스	-9.52969
▁양측	-9.53087
▁경제적	-9.53153
▁이달	-9.53304
리자	-9.53326
▁전달	-9.5334
▁추진	-9.53371
▁시행	-9.53373
▁뿐	-9.53397
생	-9.53458
▁선정	-9.53487
▁놓	-9.53502
▁종교	-9.53534
▁FBI	-9.53597
▁모른다	-9.53597
▁선언	-9.53597
▁be	-9.5367
▁목적	-9.53685
▁심장	-9.53757
▁교전	-9.53767
▁발생해	-9.53837
▁존스	-9.53845
▁질	-9.54088
▁제조	-9.54112
하기도	-9.54139
만이	-9.54145
▁석	-9.54186
▁어려움	-9.54271
▁배치	-9.54293
▁아베	-9.54344
들에	-9.54366
▁전력	-9.54397
▁대중	-9.54539
▁사상	-9.54647
on	-9.54681
▁수익	-9.54775
퍼	-9.54888
▁구매	-9.54899
▁휴대폰	-9.54945
▁긴급	-9.54947
▁교통	-9.54954
▁미래	-9.55008
▁일요일	-9.55133
▁듯	-9.55145
▁아주	-9.55158
▁전문가	-9.55177
▁쉬	-9.55206
▁관련해	-9.55369
▁나가	-9.55389
▁자녀	-9.55617
림	-9.55639
▁지도자인	-9.5566
▁상대	-9.5567
▁병원에	-9.55685
▁진출	-9.55805
▁Korean	-9.55845
▁자국	-9.55913
▁감염	-9.55956
▁피해자	-9.5596
▁않았으	-9.56005
마다	-9.56098
▁최고의	-9.56111
▁비슷	-9.56115
▁잠	-9.56211
▁감	-9.56226
▁시상식	-9.56309
▁귀	-9.56315
▁국제사회	-9.5632
▁참가	-9.56499
▁경험	-9.56521
▁거주하	-9.56542
tal	-9.56568
투	-9.5657
▁결의안	-9.56705
▁누구	-9.56708
▁신원	-9.5681
달하는	-9.5689
▁고문	-9.56932
▁주민들이	-9.56949
▁여명이	-9.56957
▁선두	-9.57016
▁사항	-9.57017
▁유권자	-9.57045
▁총재	-9.5705
▁샤	-9.57093
▁복귀	-9.57229
▁충격	-9.57229
▁착륙	-9.57439
▁주가	-9.57565
▁금	-9.57607
▁cnn	-9.57693
▁게이츠	-9.57696
▁로켓	-9.57702
▁절차	-9.57706
▁작년	-9.57751
▁공군	-9.57792
▁현장	-9.57796
▁가질	-9.57877
▁집중	-9.5791
▁교회	-9.57939
▁것인지	-9.57946
▁부분	-9.58058
▁체포됐다	-9.58255
▁승객	-9.58311
▁선거에서	-9.58328
re	-9.58354
▁젊은	-9.58364
렸다	-9.58472
▁정당	-9.58478
▁그리스	-9.58513
단체	-9.58647
▁폭력사태	-9.58706
it	-9.58722
▁이전에	-9.58823
▁거부	-9.58846
▁순간	-9.58855
었으	-9.5894
▁인사	-9.5901
▁목표로	-9.59061
▁월부터	-9.59199
▁목요일	-9.59326
▁해제	-9.59348
▁정상회담	-9.59354
준	-9.59361
▁여사	-9.59394
▁빨	-9.59441
▁카운티	-9.59451
▁선출	-9.59457
▁유명	-9.59666
▁구속	-9.59734
▁방문한	-9.59821
▁숨진	-9.59838
▁현대	-9.59896
▁관광	-9.59912
협회	-9.60051
▁엘	-9.60069
▁노조	-9.60211
▁반대하는	-9.60245
▁수석	-9.60297
T	-9.6035
▁해야	-9.60413
ion	-9.60508
싼	-9.6052
▁검토	-9.60541
있다	-9.6064
▁대응	-9.60703
초	-9.60837
아니라	-9.60875
시키고	-9.61015
▁군인	-9.61048
렌	-9.61061
▁노동	-9.61063
▁위에	-9.6123
▁코소보	-9.6124
▁국립	-9.61245
▁동결	-9.61248
▁총기	-9.61251
▁여성들	-9.61272
▁남북	-9.61286
▁이라크전	-9.61311
▁가까	-9.61371
▁보여주	-9.61443
▁단지	-9.61459
액	-9.61541
▁모델	-9.61586
▁연장	-9.6164
▁임명	-9.61746
▁실패	-9.61803
▁전략	-9.61822
▁추정	-9.6184
▁나타나	-9.61965
▁스위스	-9.61993
지도	-9.62086
▁가량	-9.62266
▁패배	-9.62331
센	-9.62336
남	-9.62383
매	-9.62447
장관	-9.62467
▁약간	-9.6253
배	-9.62603
S	-9.62644
만한	-9.62665
▁잉글랜드	-9.62694
▁몇몇	-9.62695
▁신화통신	-9.62696
▁올라	-9.62732
▁유세	-9.62746
▁추락	-9.62803
▁매일	-9.62822
▁지지자들	-9.62829
▁있는지	-9.62895
▁잡	-9.63052
ment	-9.63081
쿠	-9.63127
▁들고	-9.63189
▁불리	-9.63212
▁당했다	-9.63237
▁쿠	-9.63272
▁판단	-9.63453
▁도중	-9.6347
▁차기	-9.63494
▁회담에서	-9.63531
▁도전	-9.63557
▁보이는	-9.63559
▁피트	-9.63614
했는데	-9.6367
까	-9.63768
▁윌리엄	-9.64026
▁사이트	-9.6403
턴	-9.64032
▁버지니아	-9.6406
▁연속	-9.6412
▁변	-9.64135
▁BBC	-9.64176
▁유죄	-9.64177
▁고양이	-9.64177
▁감사	-9.6421
▁밝혀지지	-9.64212
자들이	-9.64274
▁지적	-9.64284
▁대형	-9.64299
▁연합군	-9.64322
놓고	-9.64353
▁카메라	-9.64365
▁체포했다	-9.64402
▁조건	-9.64431
▁압박	-9.64478
▁판	-9.64494
집	-9.64499
▁약물	-9.64588
정부	-9.64684
▁작성	-9.64704
▁퍼	-9.64812
회의	-9.64825
▁다이애나	-9.64876
▁블레어	-9.64917
▁출마	-9.64918
▁도쿄	-9.64939
▁나토	-9.65014
▁스포츠	-9.65087
▁자주	-9.65164
▁소비자	-9.65269
▁여당	-9.65354
▁세기	-9.6552
▁전까지	-9.65628
태	-9.65659
▁야	-9.65664
▁올메르트	-9.65668
▁스스로	-9.6567
▁노래	-9.65709
로써	-9.65779
▁군부	-9.65916
▁연구소	-9.65974
▁효과	-9.66069
▁마일	-9.6617
▁오래	-9.66282
▁영국의	-9.66336
▁연설에서	-9.66408
▁오랫동안	-9.66426
▁할리우드	-9.66426
▁탁신	-9.66426
▁만든	-9.66461
▁홍보	-9.6647
▁분기	-9.66471
▁결	-9.66479
▁핵심	-9.66486
▁실수	-9.66567
▁허용	-9.66569
▁관광객	-9.66834
▁병원에서	-9.66854
▁한반도	-9.66869
▁아마	-9.67062
됩니다	-9.67178
▁빠른	-9.67189
▁비상사태	-9.67192
▁확실히	-9.67288
▁옷	-9.67491
▁대비	-9.67494
▁장기	-9.67554
▁외무장관	-9.67555
▁이와같	-9.67607
시키기	-9.67632
▁항의	-9.67777
▁공장	-9.67813
▁내부	-9.67839
은행	-9.6785
▁참여	-9.67875
▁겪고	-9.67959
▁그렇게	-9.67959
▁직후	-9.67967
▁주의	-9.67968
▁보이	-9.67983
겠다	-9.68012
▁과학	-9.68021
▁전통	-9.68085
▁높이	-9.6814
절	-9.68164
▁주에서	-9.68171
▁성적	-9.68175
▁집회	-9.68248
리아	-9.68263
하다고	-9.68584
▁보건	-9.68651
뉴스	-9.68671
k	-9.68672
▁사기	-9.68692
인지	-9.68698
▁탄	-9.68741
▁없어	-9.68744
▁담배	-9.68745
▁마무리	-9.68771
▁일에	-9.68773
▁수백명	-9.68789
▁구호	-9.68797
▁동시	-9.68826
▁굴	-9.68841
▁문서	-9.68853
▁급	-9.6888
▁실제	-9.6901
▁뉴	-9.69108
ch	-9.6915
▁프로젝트	-9.6917
▁운행	-9.69173
▁ID	-9.69334
년	-9.69481
▁기억	-9.69482
▁맞아	-9.69515
▁크리스토퍼	-9.69516
▁감축	-9.6952
▁산불	-9.69529
▁오랜	-9.69533
▁조작	-9.69562
▁re	-9.69618
▁대법원	-9.69794
▁어려	-9.69922
▁증가했다	-9.69941
▁진	-9.70027
▁집행	-9.70033
자인	-9.70172
페	-9.70255
했는지	-9.70282
▁이밖에	-9.70302
▁처벌	-9.70305
▁샤리프	-9.70306
▁원자로	-9.70324
▁조금	-9.70358
▁대책	-9.70397
▁크	-9.70553
▁알게	-9.70563
▁글	-9.70615
▁차지했다	-9.70645
▁북한과	-9.70722
▁실시된	-9.70793
▁완화	-9.708
▁가족들	-9.70811
▁사무실	-9.70844
왔다	-9.70902
▁애플	-9.70921
▁여왕	-9.70933
▁분쟁	-9.70936
링	-9.70944
▁능력	-9.70988
▁투입	-9.70995
▁중심	-9.71007
▁단계	-9.71023
▁크리스마스	-9.71093
▁민병대	-9.71096
▁우크라이나	-9.71096
▁빠르	-9.71101
▁스피어스	-9.71108
ri	-9.71156
▁알려지	-9.71165
▁내각	-9.71188
ation	-9.71201
▁수천	-9.71225
▁윌리엄스	-9.71251
at	-9.71303
▁집에서	-9.71363
▁만명이	-9.71476
▁망명	-9.71525
▁의원이	-9.7181
▁청와대	-9.71831
▁후보에	-9.71836
▁폭풍	-9.71872
▁IAEA	-9.71896
▁나타냈다	-9.71981
▁주년	-9.71987
▁수정	-9.72031
▁단어	-9.72042
▁위기에	-9.72043
▁보이고	-9.72093
▁목사	-9.72095
번	-9.72137
I	-9.72149
▁소장	-9.722
었고	-9.72306
▁한국은	-9.72328
▁넘어	-9.72337
▁받기	-9.72395
D	-9.72408
▁부인했다	-9.72451
▁난민	-9.7247
▁생	-9.72535
▁제거	-9.72601
▁보좌관	-9.72691
▁시작된	-9.727
▁높다	-9.72703
▁무가베	-9.72703
▁일어난	-9.72703
▁말레이시아	-9.72705
▁CIA	-9.72705
▁배럴	-9.72709
▁수백	-9.72742
▁표현	-9.72751
▁영상	-9.72755
▁날씨	-9.72757
▁따	-9.72855
▁발생할	-9.72866
름	-9.72897
▁조정	-9.72919
▁사망했으	-9.72937
▁상황에서	-9.72957
▁블로그에	-9.72987
자가	-9.73041
▁보안관	-9.73068
ly	-9.73203
▁속에	-9.73241
족	-9.73244
▁둔	-9.73303
▁가수	-9.73306
다른	-9.73339
▁법적	-9.7337
▁법률	-9.7338
▁이미지	-9.73415
승	-9.73504
▁네덜란드	-9.73516
▁찾기	-9.73516
▁MS	-9.73526
▁치안	-9.73587
▁그중	-9.73694
ht	-9.73832
▁맺	-9.73905
▁월까지	-9.74007
▁약속했다	-9.74142
▁프리	-9.74172
랑	-9.74211
▁세르비아	-9.74319
▁먼저	-9.7434
▁스티브	-9.7434
▁찬성	-9.74354
▁테	-9.74354
▁않겠다	-9.74389
▁중국이	-9.74397
▁평	-9.74401
▁보장	-9.74496
▁부정	-9.74533
tp	-9.74543
▁목소리	-9.746
기간	-9.74701
▁구성된	-9.7473
▁말하고	-9.74774
▁보낸	-9.74806
▁마감	-9.74812
천	-9.7492
▁경찰과	-9.74939
▁개봉	-9.74983
랜드	-9.75062
▁위험한	-9.75064
▁엄마	-9.75162
▁지배	-9.75165
▁cat	-9.75168
▁하워드	-9.75173
▁기후	-9.75212
빌	-9.75243
▁이용해	-9.75295
▁작가	-9.75331
▁장소	-9.75377
▁고든	-9.75381
▁프라이머리	-9.75387
▁남성이	-9.75395
▁등록	-9.75408
▁최신	-9.75426
▁기자회견	-9.75439
▁의혹	-9.75442
▁방해	-9.75444
▁비상	-9.75526
▁떠나	-9.75655
▁버	-9.75711
▁p	-9.75806
지르	-9.75889
▁협의	-9.75894
▁나섰다	-9.75995
▁규제	-9.75998
▁네팔	-9.75999
▁시민들	-9.76001
▁사례	-9.76016
▁대표팀	-9.76055
▁지급	-9.7609
▁설명	-9.76106
▁마드리드	-9.76152
▁밀	-9.7616
▁헤	-9.76196
볼	-9.76221
▁근무	-9.7626
▁만들	-9.7628
▁전자	-9.76301
▁그에게	-9.76309
▁보이지	-9.76337
▁나무	-9.76407
▁않기	-9.76411
▁수니파	-9.76441
시간	-9.76451
▁사상자	-9.76486
▁허	-9.76584
씩	-9.76647
헌	-9.76698
▁사용하는	-9.76757
▁머물	-9.76827
▁찾는	-9.76835
▁노대통령	-9.7684
▁확산	-9.76857
▁후보로	-9.76873
▁다쳤다	-9.76934
▁떨어져	-9.76962
▁폐	-9.77
샤	-9.77007
▁대단	-9.77019
▁대표단	-9.77027
입	-9.7706
겠다고	-9.77103
▁b	-9.7711
▁보기	-9.77161
▁크기	-9.77206
▁미국인들	-9.77237
레이	-9.77252
▁왕	-9.77315
▁실시한	-9.77399
▁못할	-9.77441
▁술	-9.77497
광	-9.77567
ic	-9.7758
▁한미	-9.77617
▁현장에	-9.77621
시킨	-9.77627
▁쿠르드	-9.77677
▁North	-9.77683
▁캠프	-9.77683
▁침체	-9.77686
▁알려져	-9.77687
▁진입	-9.77691
목	-9.77729
▁명에	-9.77765
▁최소한	-9.77772
책	-9.77781
▁영향력	-9.7785
M	-9.77885
▁연구진	-9.7789
방송	-9.77971
▁전망이	-9.77972
▁홍수	-9.7814
▁대통령에게	-9.78142
▁시작됐다	-9.78344
▁소지	-9.78422
▁집계	-9.7845
▁모하메드	-9.78538
▁아바스	-9.78571
▁수가	-9.78725
▁분노	-9.78729
▁축구	-9.78747
▁있는데	-9.78815
▁태도	-9.78915
▁의심	-9.79024
▁고래	-9.79037
▁제출	-9.79158
이라	-9.79245
▁테러로	-9.79279
▁인정했다	-9.79304
▁웹사이트에	-9.79321
▁하락했다	-9.79335
흐	-9.7936
▁수행	-9.79376
▁장난감	-9.79403
▁분위기	-9.79409
▁구글	-9.79412
▁원조	-9.79479
▁비자	-9.79505
▁만드는	-9.79604
▁극	-9.79609
▁집권	-9.79724
▁진행되	-9.79769
▁니콜라	-9.79848
▁얼굴	-9.79953
▁시리즈	-9.80029
▁과정	-9.80115
▁경계	-9.80241
us	-9.80245
▁정확한	-9.80269
▁태풍	-9.80272
▁태	-9.80346
▁역사적	-9.8035
▁주로	-9.80354
담	-9.80364
▁나와	-9.80378
▁얻었다	-9.80388
▁추정되	-9.80402
당국	-9.80488
▁등이	-9.8051
▁is	-9.80632
▁넣	-9.80647
▁의한	-9.80744
g	-9.8081
ur	-9.80859
▁실제로	-9.80894
▁들었다	-9.80974
▁당선자	-9.80993
언	-9.81007
▁분석	-9.81088
▁저녁	-9.81146
▁FARC	-9.81146
▁특사	-9.8116
▁확신	-9.81163
▁걱정	-9.81165
▁피터	-9.81189
▁경찰관	-9.81215
▁출발	-9.81271
▁요	-9.81297
▁민간	-9.81372
스러운	-9.81392
▁확실	-9.81406
▁도착했다	-9.81466
▁성인	-9.81476
▁박물관	-9.81477
▁긴	-9.81501
▁해당	-9.81523
▁쉽게	-9.81566
▁가격이	-9.81892
▁전문	-9.81893
▁남북한	-9.81927
▁부동산	-9.81987
편	-9.81992
▁김정일	-9.82031
▁아르헨티나	-9.82031
▁테이프	-9.82032
▁자신들이	-9.82093
▁했으	-9.82096
외	-9.82176
▁당한	-9.82189
▁놀라	-9.82199
▁대체	-9.82199
▁소년	-9.82221
▁아부	-9.82225
▁보여	-9.8231
▁슈	-9.82407
▁세대	-9.82549
국가	-9.82653
냐	-9.82741
▁유사	-9.82803
ational	-9.82845
술	-9.82892
▁강도	-9.82899
!	-9.82924
▁토요일	-9.82924
▁말리키	-9.82924
▁콘돌	-9.82926
한영	-9.82959
▁끝	-9.83055
말	-9.83063
▁문제로	-9.83072
▁중요하다	-9.83075
▁상황에	-9.831
▁후반	-9.83107
▁사용할	-9.83167
하려고	-9.83184
▁한국과	-9.83245
▁떨어졌다	-9.83283
리스	-9.83347
▁미국에	-9.83441
▁살해한	-9.83486
추	-9.835
▁소비	-9.83644
▁운전	-9.8366
▁연루	-9.8371
▁화성	-9.83783
현	-9.83807
▁개입	-9.83817
씬	-9.83825
▁활용	-9.83831
▁뛰어	-9.83838
▁타격	-9.83844
▁침해	-9.83856
▁신속	-9.83862
▁휴가	-9.83897
▁백만	-9.83936
▁시대	-9.83945
▁송	-9.83951
격	-9.83953
▁영국에서	-9.83994
▁무사	-9.84039
▁내린	-9.84047
열	-9.84063
범	-9.84134
▁만들었다	-9.84168
▁c	-9.84236
▁위치	-9.84301
활동	-9.8434
것	-9.84499
▁총장	-9.84548
▁오하이오	-9.84607
▁수십	-9.84617
▁깊	-9.84695
▁징역	-9.8472
▁연락	-9.84748
▁향	-9.84813
▁지출	-9.84813
▁기타	-9.84873
▁시위자들	-9.8489
▁우주선	-9.84925
▁웹	-9.85012
ce	-9.85047
▁힐튼	-9.85118
▁이곳에서	-9.8515
살	-9.85161
▁경기에	-9.85198
▁초기	-9.85255
▁형	-9.8526
▁장치	-9.85294
▁불안	-9.85319
▁숨	-9.85363
▁투	-9.85376
결	-9.85466
시설	-9.855
▁참석한	-9.85582
수가	-9.85635
▁South	-9.85652
▁엘리자베스	-9.85652
▁드라마	-9.85653
▁영국군	-9.85683
▁검색어	-9.857
▁요구한	-9.8574
▁복제	-9.85742
▁결혼식	-9.85747
ra	-9.85774
영한	-9.85939
예	-9.86014
▁아파트	-9.86018
▁교체	-9.86092
▁적용	-9.86111
▁울	-9.8612
율	-9.86193
빈	-9.86205
▁없으	-9.8621
▁어린	-9.86215
▁권	-9.86217
▁입국	-9.86324
스타	-9.86341
해졌다	-9.86366
▁대처	-9.86469
▁월드컵	-9.86524
▁외교부	-9.86541
블	-9.86547
▁토론	-9.86547
▁긍정적	-9.86577
▁페일린	-9.86578
▁협조	-9.86578
▁FTA	-9.8658
▁페르베	-9.86588
▁유럽연합	-9.86598
▁승무원	-9.86608
▁설립	-9.86742
▁당선	-9.86747
▁들어가	-9.86816
▁없다는	-9.86839
▁취소	-9.86915
▁속에서	-9.86936
▁해고	-9.87062
플	-9.87129
▁제외	-9.87162
▁임	-9.872
▁죽	-9.87213
▁제기	-9.8723
▁않으면	-9.87259
▁수용	-9.87289
▁체	-9.87303
▁창	-9.87327
▁자산	-9.87375
▁인식	-9.87474
▁물질	-9.87481
▁국장	-9.87501
▁소프트웨어	-9.87512
▁열린우리당	-9.87512
▁결론	-9.87524
▁끝난	-9.87531
▁통화	-9.87573
▁원유	-9.87584
한다면	-9.87588
▁대출	-9.87622
▁연결	-9.87686
▁재정	-9.87729
▁일반적	-9.87771
▁일환	-9.87829
맨	-9.87831
▁방식	-9.87843
ro	-9.87858
▁클럽	-9.87889
▁수반	-9.87904
시장	-9.88231
▁공화당의	-9.88273
▁협정	-9.88315
▁현장에서	-9.88408
▁도착	-9.88414
▁언제	-9.88447
▁개정	-9.88448
▁싱가포르	-9.88455
▁잭슨	-9.88455
▁Iraq	-9.88456
▁매들린	-9.88456
▁리버풀	-9.88456
▁벌금	-9.88459
▁토니	-9.88476
▁신용	-9.88486
▁갖추	-9.8849
▁귀국	-9.885
▁캐	-9.88557
되면서	-9.88598
▁방어	-9.88608
▁요구하는	-9.88632
▁영	-9.88645
▁절반	-9.88656
▁조종사	-9.88723
▁소유	-9.88772
▁동맹	-9.88802
th	-9.88812
▁체포된	-9.88818
m	-9.88839
▁임신	-9.88847
▁오픈	-9.8886
령	-9.88916
▁예방	-9.88918
▁기구	-9.88938
대한	-9.89005
▁포함되어	-9.89314
▁핵실험	-9.89411
▁사이클론	-9.89412
▁변경	-9.89425
▁신경	-9.89452
▁걸어	-9.89551
▁총선에서	-9.89641
▁신뢰	-9.89684
▁범인	-9.8969
▁이틀	-9.89747
▁조사하고	-9.89807
▁고속도로	-9.89854
▁용의자들	-9.89863
▁선포	-9.89869
L	-9.8988
▁자격	-9.89969
달	-9.90134
라도	-9.90171
채	-9.90189
규	-9.90271
▁자살폭탄테러	-9.90366
▁뉴질랜드	-9.90369
▁CBS	-9.90369
▁이것이	-9.9037
▁CEO	-9.90372
▁론스타	-9.90372
▁케네디	-9.90373
▁축제	-9.90396
▁루이스	-9.90402
▁나달	-9.90412
▁의료진	-9.90439
▁공식적으로	-9.90478
▁금리	-9.90484
였으	-9.90491
▁성화	-9.90539
▁자연	-9.90553
▁충분	-9.90588
▁이들이	-9.90613
▁심리	-9.90701
▁취임	-9.90788
▁트럭	-9.90896
▁회사들	-9.90918
▁부패	-9.9096
▁환영	-9.91115
▁내용이	-9.91187
▁길이	-9.91229
▁지지하는	-9.91252
▁투자자들	-9.91273
▁빠져	-9.9133
▁캠페인	-9.9134
▁에이즈	-9.91357
▁되면	-9.91365
▁실행	-9.91368
▁압둘라	-9.9141
▁고려	-9.91474
▁헤럴드	-9.91482
▁이해	-9.91575
▁세트	-9.91635
▁터키군	-9.91651
▁기자들	-9.91703
▁이르는	-9.91745
▁예산	-9.91772
▁일어나	-9.91836
▁민	-9.91899
▁이혼	-9.9195
변	-9.91968
▁지지율	-9.91996
▁재산	-9.92117
▁동원	-9.92132
▁진정	-9.92257
춘	-9.92286
▁비난하	-9.92308
▁with	-9.92321
▁우라늄	-9.92321
▁포르투갈	-9.92321
▁힘든	-9.92359
▁한번	-9.92376
▁중이라고	-9.92399
▁성공했다	-9.92517
▁안보리	-9.92607
▁곳으로	-9.92617
▁통합	-9.92625
▁억류	-9.92814
▁행진	-9.92949
먼	-9.92961
▁지진으로	-9.92981
▁지지자	-9.93083
▁펜실베이니아	-9.93204
▁일본은	-9.93266
▁중국과	-9.93306
▁휘발유	-9.93311
▁반기문	-9.93313
▁육군	-9.93333
▁민주화	-9.93335
▁드러났다	-9.93349
▁올렸다	-9.9342
▁삼	-9.93462
▁중국에서	-9.93544
▁평화적	-9.93569
▁조사에서	-9.9359
▁진술	-9.9367
▁포드	-9.93706
▁점령	-9.93747
▁대피	-9.93761
▁총리와	-9.93807
▁향하	-9.93809
▁테러가	-9.93848
▁돼	-9.93872
▁회담에	-9.93872
▁쥐	-9.93944
머	-9.93992
▁오르	-9.94055
만에	-9.94087
▁주고	-9.94113
▁워싱턴에서	-9.94168
▁당선인은	-9.94201
▁한국군	-9.94227
▁PPP	-9.94311
▁믿고	-9.94311
▁좋지	-9.94311
▁kg	-9.94311
▁시드	-9.94312
▁첼시	-9.94314
▁학살	-9.94314
▁로봇	-9.94318
▁나쁜	-9.94322
▁향후	-9.94322
▁리비아	-9.9434
▁가입	-9.94372
▁그린	-9.9439
▁학대	-9.94414
▁엔	-9.94479
▁경선에서	-9.94747
습	-9.94858
항	-9.94918
통신	-9.94923
▁역	-9.94944
▁차관보	-9.94981
et	-9.95026
▁아랍	-9.95074
▁집에	-9.95084
창	-9.95147
▁동의	-9.95162
▁주일	-9.95187
둔	-9.95213
▁얘기	-9.95321
▁휴전	-9.95322
▁답변	-9.95325
▁합	-9.95336
▁입양	-9.95342
▁센트	-9.95348
▁해결하기	-9.95377
▁통치	-9.95432
▁학생들이	-9.95506
▁개월간	-9.95518
▁목격자들	-9.95572
클	-9.95615
▁축하	-9.95697
▁본부	-9.957
▁외부	-9.95774
▁대의	-9.95819
▁가정	-9.95824
사건	-9.95833
▁지도부	-9.96026
▁포함해	-9.96107
▁수감	-9.9615
▁생명	-9.96185
▁밝혀	-9.96301
골	-9.96334
훨	-9.96341
▁국제유가	-9.96342
▁해리포터	-9.96346
▁불참	-9.96352
▁벌어진	-9.96354
▁음모	-9.96354
▁반발	-9.96362
▁반정부	-9.96387
▁잔해	-9.96454
▁아카데미	-9.96474
졌	-9.965
▁목	-9.9652
▁공개했다	-9.96575
▁편지	-9.96637
▁상품	-9.967
▁유리	-9.96779
▁선거운동	-9.96802
▁회담이	-9.97034
▁참	-9.97077
▁하다	-9.9719
▁벨	-9.97284
▁필	-9.973
▁장식	-9.97323
불	-9.97332
▁콘서트	-9.97372
▁앨범	-9.97376
▁DNA	-9.97376
앙	-9.97378
▁가득	-9.97387
▁잡지	-9.97407
서는	-9.97416
▁체니	-9.97436
▁소개	-9.97447
▁선물	-9.97461
때	-9.97469
H	-9.97533
쇼	-9.97562
▁정부군	-9.9764
▁손실	-9.97651
▁신청	-9.97668
▁폐지	-9.97685
▁내에	-9.97775
▁질환	-9.97872
▁관	-9.97935
▁스테	-9.97963
▁장비	-9.97975
▁진행된	-9.9798
▁충분한	-9.97985
▁근	-9.9803
▁랭킹	-9.98083
▁벌인	-9.98088
v	-9.98233
im	-9.9826
▁응	-9.98355
▁여기	-9.98412
▁맨체스터	-9.98412
▁화산	-9.98423
▁영토	-9.9844
▁며칠	-9.98498
▁계획에	-9.98523
▁레이스	-9.98584
정책	-9.98659
▁수집	-9.9889
▁방법으로	-9.98901
탈	-9.98909
▁성향	-9.98926
▁관광객들	-9.98934
▁요구하고	-9.98973
시키	-9.98979
▁협회	-9.99009
▁바람	-9.99065
ers	-9.99083
▁받았으	-9.99119
▁기업들	-9.99227
▁부활	-9.99464
▁무릎	-9.99466
▁페더러	-9.99466
▁맨유	-9.99474
▁기능	-9.99482
▁웨스트	-9.99491
▁언급하지	-9.99534
▁특정	-9.99549
▁의도	-9.99558
▁바그다드에서	-9.99558
▁대북	-9.99593
▁격	-9.99638
▁매장	-9.99696
힐	-9.99747
▁대통령에	-9.99827
▁접	-9.99845
▁보상	-9.99875
▁이익	-9.99899
▁밀란	-9.99945
조치	-9.99985
▁다니	-10.0005
▁모습이	-10.0006
▁킹	-10.0012
▁방지	-10.0014
▁방문할	-10.0014
▁시절	-10.0027
톤	-10.0029
▁짐	-10.0031
▁승	-10.0038
▁정신	-10.0039
▁것보다	-10.0042
▁바다	-10.0044
▁이메일	-10.0053
▁다르푸르	-10.0053
▁대다수	-10.0054
▁접속	-10.0054
▁콜	-10.0059
▁강경	-10.006
▁국	-10.0069
▁돌아가	-10.007
낼	-10.0074
▁회원국	-10.0081
▁평양	-10.0085
▁이스라엘과	-10.0101
레스	-10.0104
▁파타	-10.0107
▁폭	-10.0107
▁주장하는	-10.0115
▁장군	-10.0119
▁대결	-10.012
▁유가	-10.012
션	-10.0135
▁고객	-10.0139
킬	-10.0141
▁방문했다	-10.0145
▁크리스	-10.0156
▁이웃	-10.0157
▁소니	-10.0159
▁사드르	-10.016
▁원하는	-10.016
▁헤즈볼라	-10.0161
▁밖으로	-10.0161
▁세계대전	-10.0161
▁협상이	-10.0161
▁영변	-10.0161
▁폭행	-10.0161
▁성과	-10.0161
▁리콜	-10.0161
▁야생	-10.0162
▁폭우	-10.0163
▁존슨	-10.0172
▁기념	-10.0178
찬	-10.0183
▁준	-10.0185
▁장관이	-10.0185
▁노동자	-10.0189
▁생각하고	-10.0189
▁다이아몬드	-10.019
▁적절한	-10.0195
▁생존	-10.0197
▁잃었다	-10.0197
▁아이들이	-10.0199
염	-10.0209
▁척	-10.021
▁서명	-10.0211
▁마이크	-10.0215
▁지하	-10.0241
▁발표된	-10.0256
▁스티븐	-10.0257
▁이번주	-10.0263
▁지키	-10.0264
▁멸종	-10.0269
젠	-10.0269
▁온난화	-10.0269
므로	-10.027
▁마틴	-10.0271
▁진실	-10.0272
지에	-10.0272
▁출시	-10.0272
▁풀	-10.0273
▁잠시	-10.0279
▁힘들	-10.0283
▁밖에서	-10.0284
▁취할	-10.0288
▁층	-10.0288
▁직	-10.0303
▁상어	-10.0305
▁아일랜드	-10.0308
성이	-10.0309
▁주는	-10.0313
장이	-10.0319
▁빅	-10.0324
쯤	-10.0327
▁생존자	-10.0329
B	-10.033
축	-10.0335
el	-10.0335
▁이스라엘군	-10.0336
▁속도	-10.0338
▁나서	-10.0345
▁말하	-10.0347
▁곳이	-10.0352
▁촉구	-10.0352
▁모양	-10.0366
▁지도	-10.0366
리는	-10.0368
▁머	-10.0372
스터	-10.0373
▁내전	-10.0378
▁태평양	-10.0379
▁현지시각	-10.0379
▁NBC	-10.038
▁레이	-10.0381
▁심문	-10.0383
▁버마	-10.0383
▁경찰서장	-10.0389
▁목격자	-10.0392
▁자기	-10.0397
▁의무	-10.04
▁심각	-10.0405
▁가자	-10.0408
합	-10.0408
▁바라고	-10.041
필드	-10.0412
▁존재	-10.0413
▁분야	-10.0416
ol	-10.0418
겐	-10.042
il	-10.0438
▁혹	-10.0445
웠다	-10.0449
▁예상했다	-10.0454
▁차드	-10.0454
원들	-10.0456
▁논란	-10.0461
장에서	-10.0479
관리	-10.0487
▁기준	-10.049
해지	-10.049
▁쿠데타	-10.049
▁갑자	-10.0491
▁체결	-10.0492
▁우선	-10.0494
▁서방	-10.0496
▁밑	-10.0511
▁사건과	-10.0515
취	-10.0528
▁대부분이	-10.0538
▁보면	-10.054
F	-10.0573
▁가는	-10.0576
슈	-10.0582
▁음반	-10.0583
▁경보	-10.0588
▁기도	-10.0591
▁찾고	-10.0603
▁일주일	-10.0604
▁f	-10.0604
▁w	-10.0606
▁수백만	-10.0607
▁핵시설	-10.0607
▁보통	-10.0607
▁행	-10.0611
들어	-10.0614
▁사건으로	-10.0615
▁구제	-10.0615
▁제도	-10.0626
▁사용되	-10.0627
▁보수	-10.0629
▁프로	-10.0632
▁공격이	-10.0634
▁담당자	-10.0636
자로	-10.0639
▁인하	-10.0641
연합	-10.065
만큼	-10.0656
손	-10.0657
▁보고했다	-10.0664
▁사실상	-10.0666
▁가까이	-10.0669
▁아래	-10.0672
▁원한다	-10.0675
▁둘	-10.0678
했기	-10.0681
려는	-10.0689
▁현재까지	-10.0707
▁묻	-10.0709
▁선박	-10.0712
▁질병	-10.0712
죠	-10.0715
▁달라이라마	-10.0716
▁이렇게	-10.0716
▁훌륭	-10.0716
▁파운드	-10.0716
▁복구	-10.0717
▁격차	-10.0719
▁커피	-10.072
▁의식	-10.0722
▁일리노이주	-10.0723
로운	-10.0724
▁베트남	-10.0727
드는	-10.0731
▁일본에서	-10.0734
▁달성	-10.0736
▁조사에	-10.0742
▁만날	-10.0747
겠	-10.0749
봉	-10.0765
▁터	-10.0767
▁수요	-10.0769
▁지불	-10.077
섬	-10.0777
불어	-10.0783
▁수상자	-10.0786
▁받으	-10.0787
▁외교적	-10.0789
▁환자들	-10.0804
▁줄어들	-10.0809
▁나이지리아	-10.0831
▁흡연	-10.0831
▁카르자이	-10.0831
▁교환	-10.0832
▁심슨	-10.0833
▁최선	-10.0833
▁동반	-10.0834
▁부문	-10.0834
▁걸릴	-10.0836
▁치러진	-10.0837
▁신임	-10.0838
▁말라	-10.0849
원제	-10.0851
is	-10.0854
▁말합	-10.0855
려고	-10.0856
▁가구	-10.0862
▁실시되	-10.0871
▁독	-10.0872
▁제안했다	-10.0879
심한	-10.0879
▁일본이	-10.088
▁남아	-10.0887
▁못했	-10.089
돌	-10.0893
▁신호	-10.0895
la	-10.0897
▁시작한	-10.0902
▁수감자	-10.0908
▁차전	-10.0914
▁교도소	-10.0922
▁중이	-10.0929
▁광산	-10.0929
▁업계	-10.0934
▁노출	-10.0936
독	-10.0941
▁영화제	-10.0942
▁빛	-10.0945
희	-10.0945
▁에드워즈	-10.0947
▁다우존스	-10.0947
▁라운드	-10.0948
▁설득	-10.0948
▁재무장관	-10.0948
▁폭동	-10.0949
▁느끼	-10.0952
▁요원	-10.0954
▁공중	-10.0954
▁전면	-10.0968
▁각국	-10.0968
▁벤	-10.0974
▁다우	-10.0981
▁투어	-10.0985
▁전반	-10.0991
▁철회	-10.0994
▁있어서	-10.0997
▁검색	-10.0997
▁국제적	-10.0999
▁본사	-10.1007
엘	-10.1015
▁톤	-10.1033
▁근거	-10.1035
▁동물원	-10.1036
▁소환	-10.1038
▁시위에	-10.1045
있	-10.1059
개발	-10.1059
▁노력하고	-10.1059
▁된다고	-10.106
웰	-10.1063
▁AC	-10.1063
▁덴마크	-10.1065
▁오스트리아	-10.1065
▁복잡	-10.1065
▁단순	-10.1066
▁공공	-10.1068
▁국왕	-10.1068
▁명백	-10.1078
▁소수	-10.1087
▁그것이	-10.1087
관계	-10.1099
칠	-10.1105
▁감정	-10.1126
대에	-10.1141
▁주장하	-10.1141
▁지진이	-10.1144
▁되기	-10.1145
▁목적으로	-10.1146
▁대상	-10.1147
▁받	-10.116
▁시장에서	-10.1162
▁모인	-10.1165
▁맞서	-10.1168
▁저지	-10.1168
했음	-10.117
▁군인들	-10.1172
▁지휘	-10.1172
▁철도	-10.1177
스키	-10.1177
▁형성	-10.1178
▁누군가	-10.1184
▁cm	-10.1185
▁기존	-10.1186
▁성관계	-10.1187
▁봄	-10.1187
▁매각	-10.1187
▁부담	-10.1188
▁소설	-10.1189
▁삼성	-10.1193
▁북측	-10.1195
ver	-10.1196
▁차관	-10.1201
▁사인	-10.1201
사를	-10.1204
▁성공적	-10.1205
ate	-10.1214
▁주인공	-10.1215
▁복용	-10.1216
▁제시	-10.1218
▁상승했다	-10.1219
▁발생했으	-10.1232
듯	-10.1234
▁대기	-10.1241
순	-10.1248
▁잇	-10.1251
▁책임자	-10.1251
후드	-10.1255
되었으	-10.1258
▁전투기	-10.1266
빠진	-10.1271
▁상점	-10.1273
기관	-10.1273
▁합동	-10.1276
▁카드	-10.1284
▁당신이	-10.1286
▁서울에서	-10.1286
▁어린이들	-10.1287
시아	-10.1288
▁계속되고	-10.1289
▁혁명	-10.1291
▁교	-10.1294
셔	-10.1301
덴	-10.1301
▁Japan	-10.1305
▁방글라데시	-10.1305
▁주한미군	-10.1305
▁고등학교	-10.1305
▁농축	-10.1305
▁마카오	-10.1305
▁칠레	-10.1306
▁새끼	-10.1306
▁도입	-10.1307
▁공산당	-10.1313
▁처	-10.1317
▁케	-10.1325
▁포기	-10.1328
▁내릴	-10.134
▁운영하	-10.1343
▁없었	-10.1347
▁주기	-10.1349
▁부근에서	-10.1351
▁팬	-10.1353
▁청소년	-10.1358
▁지연	-10.1361
▁절	-10.1365
▁즉각적	-10.1365
▁부르	-10.138
▁수용소	-10.1389
계획	-10.1394
▁늘	-10.1397
▁그림	-10.1408
적이	-10.1411
사는	-10.1416
▁휴	-10.1417
age	-10.1417
랄	-10.142
▁건의	-10.1421
꺼	-10.1425
▁스웨덴	-10.1427
▁네트워크	-10.1427
▁will	-10.1427
▁치명적	-10.1428
▁순방	-10.1428
▁남아공	-10.1428
▁검거	-10.1428
▁기본	-10.1429
▁해병대	-10.1431
▁사담	-10.1431
▁발병	-10.1432
▁상처	-10.1432
▁경기장	-10.1437
▁예비	-10.1438
▁따라서	-10.1439
▁점차	-10.144
▁지시	-10.1445
백	-10.1448
렸	-10.1449
문제	-10.1455
북	-10.1455
▁조성	-10.1465
▁국회의원	-10.1466
▁마르	-10.1468
▁세우	-10.1476
▁승리했다	-10.1482
▁장애	-10.1498
들도	-10.1499
▁전날	-10.1499
영화	-10.1509
▁기반	-10.1514
▁둘러	-10.1527
▁밝혔으	-10.1528
▁내놓	-10.1531
▁공항에서	-10.1532
▁공격에	-10.1534
자와	-10.1539
▁자리에서	-10.154
▁왕세자	-10.1546
▁회원	-10.1549
▁혜택	-10.155
▁습격	-10.155
▁카스트로	-10.155
▁다니엘	-10.1551
쳤다	-10.1551
▁덮	-10.1553
▁탐사	-10.1553
▁차지	-10.1556
▁무력	-10.1556
▁증가하고	-10.1558
▁분명히	-10.1561
▁이뤄지	-10.1564
▁개방	-10.1576
▁시내	-10.1582
▁테러리스트	-10.1584
▁체제	-10.1585
▁행성	-10.1587
인들이	-10.1593
▁지켜	-10.1594
▁반군이	-10.1597
▁의지	-10.1598
선수	-10.1601
자는	-10.1607
▁의회에	-10.1607
▁희생자들	-10.1609
▁기다리고	-10.1619
▁말까지	-10.1622
▁보관	-10.1626
▁구입	-10.1628
▁소식이	-10.164
▁전반적	-10.1641
▁수감자들	-10.1648
▁오브	-10.1652
송	-10.1653
▁무대	-10.166
▁주석	-10.166
텔	-10.166
▁악화	-10.166
▁많다	-10.167
▁IOC	-10.1675
▁UEFA	-10.1675
▁얻기	-10.1675
▁챔피언스리그	-10.1675
▁겨울	-10.1676
▁가옥	-10.1678
▁무료	-10.1679
▁페루	-10.1679
▁h	-10.1681
▁구출	-10.1681
▁파산	-10.1686
▁올린	-10.1693
▁손상	-10.1696
▁이중	-10.1701
▁고발	-10.1708
▁명단	-10.1713
▁이하	-10.1716
▁나갈	-10.1723
드시	-10.1727
▁허락	-10.175
un	-10.1751
▁바이	-10.1756
▁유치	-10.1771
▁사살	-10.1778
숙	-10.1783
▁의회에서	-10.1786
래서	-10.179
렛	-10.1795
▁공원	-10.1799
▁그동안	-10.1799
▁붉은	-10.1801
▁정확히	-10.1802
▁파예드	-10.1802
▁완벽	-10.1802
▁운송	-10.1802
▁북동부	-10.1802
▁알래스카	-10.1802
▁권한	-10.1803
ies	-10.1805
▁노예	-10.1805
항공	-10.1808
▁펜	-10.1814
▁사라	-10.1815
▁초점	-10.1815
▁저항	-10.1817
▁열대	-10.1817
▁브	-10.1821
ia	-10.1843
▁고대	-10.1852
▁조원	-10.1853
▁주지	-10.1856
행위	-10.1865
▁기독교	-10.1869
▁모여	-10.1872
▁베이징에서	-10.1873
▁추적	-10.1876
▁경매	-10.1885
▁선언했다	-10.1887
▁잔	-10.1899
애	-10.1909
느	-10.1912
▁만일	-10.1918
▁블랙	-10.1929
▁활주로	-10.193
▁심지어	-10.193
▁숫자	-10.193
▁철저	-10.1931
▁크루즈	-10.1931
▁민감	-10.1932
▁자극	-10.1933
▁거부했다	-10.1941
▁거뒀다	-10.1941
▁아동	-10.1942
▁진화	-10.1946
▁Ro	-10.195
▁고향	-10.1955
▁못하는	-10.1957
▁유전자	-10.1959
▁의사들	-10.1962
▁실종	-10.1965
▁형태	-10.1965
▁이사	-10.197
se	-10.1971
▁연구원	-10.1973
▁샌프란시스코	-10.1979
▁의회의	-10.198
x	-10.1984
▁운항	-10.1987
▁있다면	-10.1988
▁식품	-10.2002
▁분명	-10.2009
▁공화국	-10.2013
▁제공하는	-10.2016
ry	-10.2019
▁결정에	-10.2019
▁방침	-10.2023
▁체계	-10.2042
▁스리랑카	-10.2054
▁중부	-10.2057
▁보고서에서	-10.2059
▁FRB	-10.206
▁NATO	-10.206
▁마찬가지	-10.206
▁폴란드	-10.206
▁레알	-10.2061
▁커플	-10.2061
▁철군	-10.2062
▁입증	-10.2064
▁분열	-10.2066
▁현금	-10.2068
▁실패했다	-10.2069
사가	-10.2084
▁대선에서	-10.2094
▁한국에서	-10.2095
▁찬	-10.2097
▁부정적	-10.2099
▁타이	-10.2103
▁군정	-10.2107
▁빙하	-10.2109
▁탈출	-10.2113
▁계속되	-10.2124
▁경영	-10.2125
ity	-10.2133
▁수영	-10.2133
▁PC	-10.2137
▁중독	-10.2139
▁사전	-10.2143
슬	-10.2154
당한	-10.2158
▁이양	-10.2175
▁가했다	-10.2176
▁야기	-10.2178
되면	-10.2182
벌	-10.2184
올	-10.2185
▁깨	-10.2188
딘	-10.2189
▁사우디아라비아	-10.2191
▁안에서	-10.2194
▁보여줬다	-10.2196
▁유감	-10.2198
▁낸	-10.2198
▁공포	-10.2198
▁서신	-10.2198
▁소요	-10.2201
▁호세	-10.2205
▁방향	-10.2208
▁늘어	-10.2211
▁이곳에	-10.2217
▁절대	-10.2219
익	-10.2219
▁색	-10.2221
해줄	-10.2222
▁달라	-10.2224
▁폭탄이	-10.2226
▁이주	-10.2229
▁선거에	-10.2232
▁뼈	-10.2233
▁만난	-10.2235
▁보안군	-10.2239
▁생각하는	-10.2244
틀	-10.2247
▁뉴욕에서	-10.2249
▁싸움	-10.2255
▁보인다고	-10.2256
▁납치된	-10.2256
겨	-10.2257
▁신체	-10.2259
상태	-10.2269
▁현상	-10.2269
▁강요	-10.2282
▁유나이티드	-10.2285
어야	-10.229
▁외교관	-10.2293
▁살아	-10.2298
▁폭격	-10.2304
도시	-10.231
▁챔피언	-10.2311
▁전개	-10.2315
수록	-10.2317
▁노벨	-10.2319
뿐	-10.2319
▁답	-10.2319
▁년이	-10.2321
▁곡	-10.2322
▁태양	-10.2324
▁잃은	-10.2325
▁크라이슬러	-10.2325
▁토마스	-10.2325
▁아이디어	-10.2326
R	-10.2331
▁신발	-10.2332
▁실종된	-10.2341
▁발간	-10.2345
ter	-10.2346
▁캘리포니아주	-10.2348
▁런던에서	-10.2352
▁니	-10.2354
▁달간	-10.2363
▁문제들	-10.2372
해주	-10.2375
▁대회에서	-10.2381
▁기대하고	-10.2386
▁시장에	-10.2393
▁수업	-10.2399
ot	-10.2402
▁고립	-10.2404
▁방송국	-10.2407
▁폐기	-10.2411
들로	-10.2412
▁때문이	-10.242
▁여자친구	-10.242
낸	-10.2422
▁그와	-10.2425
▁법정	-10.2427
▁t	-10.2442
▁증권	-10.245
▁발생하지	-10.2458
▁동티모르	-10.246
▁라스베이거스	-10.246
▁맞춰	-10.246
▁쓰나미	-10.246
▁리조트	-10.246
▁라이트	-10.2462
▁생긴	-10.2462
▁인생	-10.2464
컵	-10.2465
▁형제	-10.2465
▁세계은행	-10.2471
▁중순	-10.2476
▁대량	-10.2479
▁무선	-10.2479
▁안전한	-10.2483
▁받아야	-10.2491
▁콩고	-10.2496
▁경제에	-10.2497
▁피해가	-10.2497
▁이사회	-10.2505
▁분간	-10.2511
▁베이	-10.2519
▁근처	-10.2519
▁수상했다	-10.2525
▁화	-10.254
ac	-10.254
▁만화	-10.2543
례	-10.2545
▁해변	-10.2557
▁오염	-10.256
▁사회적	-10.2561
▁값	-10.2564
▁감독이	-10.2578
▁앞에	-10.2583
시키려	-10.2585
▁GM	-10.2585
▁중요	-10.2585
▁거두	-10.2586
▁일리노이	-10.2589
엄	-10.259
더라	-10.2592
▁성화봉송	-10.2592
▁불러	-10.2592
▁요구하	-10.2594
▁김대중	-10.2597
▁엄격	-10.2597
▁논평	-10.2597
▁첫번째	-10.2597
▁하면	-10.2598
▁하원의원	-10.2599
cle	-10.26
▁재단	-10.26
▁회동	-10.2601
▁은퇴	-10.2601
▁증명	-10.2601
▁돌아오	-10.2602
▁두바이	-10.2602
▁모기지	-10.2603
▁죄	-10.2604
▁구금	-10.2604
기가	-10.2605
lo	-10.2605
▁예전	-10.2607
▁입원	-10.2609
▁높아지	-10.2609
▁기계	-10.261
▁바르셀로나	-10.2611
▁총격전	-10.2612
▁됐	-10.2613
▁금요일	-10.2615
▁케리	-10.2616
▁클린턴이	-10.2616
▁난사	-10.2619
▁갖게	-10.262
▁한때	-10.2622
▁승리한	-10.2622
▁책임이	-10.2622
▁누리	-10.2627
j	-10.2627
▁표했다	-10.2632
▁광	-10.2634
▁신부	-10.2636
▁명에게	-10.2637
▁지시했다	-10.2641
▁데이	-10.2648
▁붙	-10.2648
▁시청	-10.2649
▁보낼	-10.2671
자들에게	-10.2673
▁이스라엘이	-10.2674
▁중국에	-10.2677
조차	-10.2685
▁교사	-10.2686
▁출석	-10.269
▁세상	-10.2692
▁측근	-10.2694
킨	-10.2696
안에	-10.2696
▁진전	-10.2706
▁사용한	-10.2707
우스	-10.2711
▁주제	-10.2712
▁과학자	-10.2717
A	-10.2717
▁얻어	-10.2718
▁넓	-10.2727
▁나누	-10.273
랜	-10.2733
▁WHO	-10.2736
▁태어난	-10.2736
▁헨리	-10.2736
▁외환은행	-10.2736
▁우리나라	-10.2737
▁데이터	-10.2737
▁디자인	-10.2738
▁채택	-10.2738
▁불편	-10.2738
▁단속	-10.2743
▁유력	-10.2743
▁봤다	-10.2744
▁본선	-10.2748
▁항소	-10.275
▁전역	-10.2752
▁만들어진	-10.2754
▁보유하고	-10.2758
전에	-10.2759
▁면	-10.2761
▁케이블	-10.2762
▁위조	-10.2763
▁불길	-10.2764
뿐만	-10.277
▁하와이	-10.2771
▁보트	-10.2775
달라고	-10.2788
▁주장에	-10.2795
▁보유	-10.2798
▁것이고	-10.2802
▁니콜	-10.2802
▁티	-10.2804
▁주한	-10.2806
▁지역으로	-10.2806
▁도시에서	-10.2815
▁의미한다	-10.2826
▁식	-10.2827
스와	-10.2827
▁호텔에서	-10.2827
▁다수	-10.2828
▁대학교	-10.2832
▁리그	-10.2843
▁이라크와	-10.2843
▁훼손	-10.2844
▁프로그램에	-10.2846
이어	-10.2855
▁인류	-10.2863
▁아이오와	-10.2869
▁거쳐	-10.2872
닝	-10.2872
▁요르단	-10.2875
▁중대	-10.2876
▁외교통상부	-10.2876
▁앓고	-10.2876
▁휴대전화	-10.2877
극	-10.2877
▁섹스	-10.2877
▁면담	-10.2877
▁ABC	-10.2878
▁회의에서	-10.2878
▁강타	-10.2879
▁달러로	-10.2879
▁해결책	-10.2879
▁마쳤다	-10.288
지수	-10.2881
▁여성의	-10.2882
▁추방	-10.2882
▁방화	-10.2884
▁떠	-10.2885
▁신중	-10.2886
▁오늘날	-10.2888
▁여권	-10.289
▁바라	-10.289
▁간단	-10.289
▁상태에	-10.2898
으면	-10.2899
완	-10.29
▁의석	-10.2903
이었으	-10.2905
▁아메리칸	-10.2909
▁예수	-10.2909
▁천만	-10.2913
▁개표	-10.2914
▁전쟁에	-10.2917
▁응답자	-10.2925
드라	-10.294
운동	-10.2943
릭	-10.2944
▁경쟁자	-10.2946
▁명예	-10.2952
학자	-10.2955
▁발생하는	-10.2957
세력	-10.2959
스톤	-10.296
▁강조	-10.2962
▁민주	-10.2968
▁돌아	-10.2976
▁공간	-10.298
견	-10.2981
▁대답	-10.2983
▁비교	-10.2986
▁부여	-10.2991
▁가능	-10.3
▁주목	-10.3004
▁고어	-10.3005
켓	-10.301
▁지속	-10.3011
▁한국에	-10.3012
혜	-10.3013
▁플레이	-10.3013
▁죽은	-10.3014
▁참석했다	-10.3016
▁뿐만	-10.3018
▁협박	-10.3019
▁가슴	-10.3019
▁불능화	-10.3019
▁찾을	-10.3019
▁격렬	-10.3019
▁무죄	-10.3021
▁급등	-10.3021
▁분리	-10.3023
▁종류	-10.3023
▁물건	-10.303
▁크리스티	-10.3031
▁발전소	-10.3034
▁추정된다	-10.3041
▁획득	-10.3045
▁지속적	-10.3049
기에	-10.3049
▁제대	-10.3051
공격	-10.3056
이기	-10.3056
▁못한다	-10.3056
▁방법이	-10.3057
▁논란이	-10.3059
상황	-10.3061
산업	-10.3062
▁국민들에게	-10.3069
▁부과	-10.3073
▁당수	-10.3074
▁혐의에	-10.3074
▁비용이	-10.3077
▁백인	-10.3084
▁몰	-10.3094
▁우리당	-10.3097
▁시에	-10.3102
▁것이었다	-10.3103
하고자	-10.311
▁표시	-10.3127
▁표명	-10.3129
▁이후로	-10.3143
▁미국측	-10.3146
▁홀	-10.3148
▁동성애자	-10.315
▁벗어나	-10.3153
▁중재	-10.3153
▁법원에	-10.316
▁타이틀	-10.316
▁후보들	-10.3161
▁코미디	-10.3164
짝	-10.3164
▁스코틀랜드	-10.3164
▁일으킨	-10.3164
▁President	-10.3164
▁와인하우스	-10.3164
▁plan	-10.3164
▁송환	-10.3165
▁저지른	-10.3165
▁나올	-10.3169
대학	-10.317
스코	-10.3171
▁낸시	-10.3172
▁요소	-10.3176
▁펼쳤다	-10.3177
▁폭스	-10.3182
▁하던	-10.3189
폭	-10.3192
작업	-10.3197
▁단체들	-10.3204
아야	-10.3205
▁순위	-10.3211
▁이내	-10.3216
▁녹	-10.3218
▁자원	-10.3218
ial	-10.322
▁순찰	-10.3222
경제	-10.3228
없이	-10.3237
▁보지	-10.3242
▁물가	-10.3243
▁nu	-10.3245
U	-10.3247
▁제기했다	-10.3252
▁식당	-10.3254
▁업무	-10.3256
▁행복	-10.3257
밀	-10.3258
환	-10.3259
▁국방	-10.3269
▁만개	-10.3269
▁끌어	-10.3278
▁지목	-10.3281
▁끼	-10.3282
▁사망자수	-10.3282
▁못해	-10.3284
▁불가능	-10.3285
▁폭발물	-10.3289
▁엄청	-10.3291
▁사용자	-10.3296
▁언급하	-10.3296
▁주인	-10.3298
▁리처드	-10.331
넬	-10.3311
▁곤잘레스	-10.3311
▁블라고예비치	-10.3311
▁블라디미	-10.3311
▁얻을	-10.3311
▁오사마빈라덴	-10.3311
▁합병	-10.3312
▁시기에	-10.3312
▁임금	-10.3313
▁고위관리	-10.3313
▁테스트	-10.3314
▁견해	-10.332
왔	-10.3322
▁an	-10.3323
▁이루어졌다	-10.3324
▁메일	-10.3326
총	-10.3328
▁얼음	-10.3331
▁적극적	-10.3337
월	-10.3338
▁쓴	-10.3339
▁답했다	-10.3342
막	-10.3347
▁이끌어	-10.335
▁홈	-10.335
암	-10.3361
주의자	-10.3362
▁이라크군	-10.3372
▁방영	-10.3375
▁봉쇄	-10.3375
▁기금	-10.3377
▁전해	-10.3382
▁주문	-10.3384
▁수퍼	-10.3386
▁마감했다	-10.3386
에만	-10.3388
▁at	-10.3396
▁의문	-10.3401
▁상징	-10.3406
움	-10.3419
▁초대	-10.3419
▁병사들	-10.3422
람	-10.3428
▁해양	-10.3428
▁경찰서	-10.3428
▁몰아	-10.343
▁분석가	-10.3432
▁나타내	-10.3433
▁에어버스	-10.3438
롭	-10.3448
▁명확	-10.3453
▁취재	-10.3457
▁선거캠프	-10.3461
▁시점	-10.3461
▁북서부	-10.3461
▁부총리	-10.3463
▁화장실	-10.3463
▁숀	-10.3464
▁사막	-10.3464
누	-10.3465
▁개장	-10.3467
▁노동당	-10.3468
▁대상이	-10.347
▁상공	-10.347
▁악	-10.347
트라	-10.3476
▁전환	-10.3481
▁화해	-10.3481
▁만났다	-10.3493
▁독도	-10.351
▁황	-10.351
▁재건	-10.3511
▁작동	-10.3511
▁푸	-10.3526
▁세포	-10.3536
▁발언에	-10.3538
▁아프가니스탄에서	-10.354
▁비판했다	-10.3541
▁하늘	-10.3542
▁이르	-10.3544
▁델	-10.3545
▁거절	-10.355
est	-10.3555
악	-10.3566
▁전원	-10.3568
▁파악	-10.3575
▁자유롭	-10.3576
▁인종	-10.3577
▁백악관에서	-10.3579
▁자사	-10.3585
▁생각했다	-10.3588
▁우주비행사	-10.3597
▁조기	-10.3599
um	-10.36
▁압둘	-10.3601
펠	-10.3602
▁건축	-10.3609
▁법안이	-10.3611
▁복무	-10.3612
▁나스닥	-10.3612
▁샤라포바	-10.3612
▁리차드	-10.3612
▁리히터	-10.3612
▁패트릭	-10.3613
▁핵프로그램	-10.3613
▁다윈	-10.3613
▁직업	-10.3613
▁강풍	-10.3615
▁진영	-10.3615
▁왕실	-10.3615
▁아니었다	-10.3619
▁언어	-10.3619
▁시민들이	-10.362
▁라이	-10.3621
▁배경	-10.3621
▁전세계적으로	-10.3624
드리	-10.3625
▁직전	-10.3627
▁정신적	-10.3627
▁스타일	-10.363
▁해임	-10.3634
▁들어갔다	-10.3636
▁목격	-10.364
▁공개된	-10.3658
▁자제	-10.3668
ir	-10.3671
W	-10.3676
▁중간	-10.368
히려	-10.3687
▁합류	-10.3695
P	-10.3703
▁뒤에	-10.3704
베나	-10.3713
▁짓	-10.3717
▁세인	-10.3717
▁시티	-10.3731
트리	-10.3736
▁윌	-10.374
▁그리	-10.3742
▁전역에	-10.3742
▁맡은	-10.3743
▁골프	-10.3744
▁여러분	-10.3748
▁이행	-10.3755
▁그렇지	-10.3758
▁열어	-10.376
▁불과	-10.3764
▁디즈니	-10.3765
▁캄보디아	-10.3766
▁남서부	-10.3766
▁둘러싸	-10.3766
▁받아들일	-10.3766
▁영웅	-10.3766
▁케빈	-10.3767
▁원칙	-10.3767
▁축소	-10.3769
▁유럽의	-10.3772
▁법무부	-10.3774
▁이루	-10.3775
▁보복	-10.3775
▁공모	-10.3776
▁공개적으로	-10.3777
▁리드	-10.3778
▁린	-10.3779
▁수십명	-10.3781
▁계획은	-10.3782
▁완전한	-10.3784
▁천명	-10.3784
철	-10.3793
▁논의하기	-10.3796
▁보호하기	-10.38
▁시장이	-10.3809
▁스키	-10.381
패	-10.3823
▁공항에	-10.3823
▁증가한	-10.3829
▁이른	-10.3832
▁장례식	-10.3833
▁거리에	-10.3834
▁예상되	-10.3836
▁자신에게	-10.3838
▁파손	-10.3839
조사	-10.384
▁연주	-10.3844
▁인근에	-10.3844
▁즉각	-10.3847
▁대치	-10.3849
마자	-10.3853
▁시드니	-10.3854
▁진술했다	-10.3857
▁비치	-10.3863
▁가능하다	-10.3867
됐을	-10.3874
▁공유	-10.3879
▁탐	-10.3889
▁의학	-10.3891
▁보는	-10.3891
▁해적	-10.3892
▁감염된	-10.3896
▁한국이	-10.3906
부대	-10.3917
▁출동	-10.3919
▁옮겨	-10.3921
▁패션	-10.3921
▁마이애미	-10.3922
▁비타민	-10.3922
▁알코올	-10.3922
됨	-10.3922
▁중앙일보	-10.3922
▁디지털	-10.3922
▁가택연금	-10.3922
▁호랑이	-10.3922
▁거듭	-10.3922
▁활약	-10.3923
▁라이벌	-10.3923
▁자치정부	-10.3923
▁다우지수	-10.3923
▁산사태	-10.3924
▁새벽	-10.3924
▁트리	-10.3925
▁오바마와	-10.3926
▁취임식	-10.3928
▁환	-10.3929
▁천재	-10.3929
▁들여	-10.393
률	-10.393
▁조류	-10.3933
짜리	-10.3934
▁우리에게	-10.394
▁맥주	-10.394
▁만들고	-10.3941
▁해산	-10.3942
▁타임스	-10.3942
▁이론	-10.3943
▁다이	-10.3945
▁떠났다	-10.3946
▁달려	-10.3949
▁회사가	-10.3953
▁무엇	-10.3953
▁빚	-10.3956
▁쌀	-10.3958
▁영장	-10.3962
▁소문	-10.3963
▁잡고	-10.3963
▁채널	-10.3966
▁측정	-10.3969
▁전부터	-10.3971
▁직장	-10.3972
▁지내	-10.3975
▁한국인들	-10.3982
▁유대인	-10.3986
왕	-10.3991
ist	-10.3993
▁평가했다	-10.3997
▁동쪽	-10.3998
원이	-10.4
▁주었다	-10.4
카운티	-10.4001
조직	-10.4005
경찰	-10.4008
▁세계적	-10.4012
녀	-10.4013
▁모스크바	-10.4017
허	-10.4028
▁St	-10.4031
같은	-10.4032
▁데에	-10.4042
었	-10.4047
▁말해	-10.4052
▁극복	-10.407
▁눈에	-10.4076
▁발굴	-10.4078
▁토네이도	-10.4081
▁쌍둥이	-10.4081
▁천연가스	-10.4081
▁겨냥	-10.4081
▁법무장관	-10.4081
▁로이터	-10.4081
▁근육	-10.4081
▁수석대표	-10.4081
▁마무	-10.4082
▁사생활	-10.4083
▁근로자	-10.4083
▁위안부	-10.4084
ant	-10.4084
▁폭파	-10.4085
▁벨기에	-10.4085
▁산림	-10.4085
▁무엇보다	-10.4085
▁선발	-10.4092
▁초반	-10.4094
경기	-10.4096
웨이	-10.4096
▁치열한	-10.41
▁상태로	-10.4101
▁선전	-10.4102
▁형사	-10.4102
▁북쪽	-10.4102
제를	-10.4105
▁나에게	-10.4107
▁연구팀	-10.4115
▁걸린	-10.4119
됐었다	-10.4126
▁것인가	-10.4127
▁부서	-10.4135
▁움직이	-10.4137
▁않으	-10.414
▁페이지	-10.4141
▁호수	-10.4141
스타인	-10.4142
▁보였	-10.4145
주는	-10.4146
▁탈	-10.4156
▁이송	-10.4157
풍	-10.4157
▁가족과	-10.4158
▁투표에서	-10.4159
▁로비	-10.4159
▁영국인	-10.416
젤	-10.4164
▁작	-10.4164
▁국민들이	-10.4165
걸	-10.4168
▁조합	-10.417
▁예루살렘	-10.4172
▁연금	-10.4177
▁올리	-10.4188
▁분석가들	-10.4192
받	-10.4193
▁노인	-10.4199
▁연관	-10.4205
▁키스	-10.4218
▁딕	-10.4218
▁인디애나	-10.4219
▁감행	-10.422
▁배가	-10.423
▁부근	-10.4234
욕	-10.4237
▁쇼핑	-10.4238
멸	-10.424
▁보내는	-10.4242
▁뿌리	-10.4242
▁쓰촨성	-10.4242
▁아메리카	-10.4242
▁결선투표	-10.4242
▁침몰	-10.4242
▁다섯	-10.4242
▁보스턴	-10.4242
▁파트너	-10.4242
▁은신처	-10.4242
▁차량에	-10.4242
▁황금	-10.4243
▁사찰단	-10.4244
▁중지	-10.4247
▁엔진	-10.4249
▁악어	-10.4251
▁하락세	-10.4251
▁재난	-10.4253
▁생일	-10.4253
▁피해자들	-10.4253
▁수위	-10.4254
▁카터	-10.4255
되어야	-10.4257
▁상승세	-10.4258
▁아프간에서	-10.4258
▁g	-10.4259
▁경력	-10.426
▁들어오	-10.426
▁록	-10.426
▁미칠	-10.4262
▁살이	-10.4275
▁구조대	-10.4276
▁재무부	-10.4278
▁조명	-10.4279
겼다	-10.4281
▁회견	-10.4283
니스	-10.4287
속도로	-10.4291
▁알카에다와	-10.43
잔	-10.4301
▁수리	-10.4305
▁노스캐롤라이나	-10.4305
▁as	-10.4309
▁연구에	-10.431
▁사람에게	-10.4313
▁불구	-10.4318
▁코트	-10.4319
았	-10.432
▁파티	-10.4328
▁현실	-10.434
▁조약	-10.4342
거래	-10.435
▁경험이	-10.4356
돼야	-10.4357
▁이재민	-10.4365
▁정지	-10.4374
▁프레스	-10.4378
한번	-10.4382
내내	-10.4384
▁에드	-10.4384
▁관찰	-10.4385
▁시한	-10.4389
all	-10.439
▁참여한	-10.4393
▁밴드	-10.4393
▁장면이	-10.4394
▁계	-10.4395
▁최저	-10.4395
갑	-10.4396
측이	-10.4402
▁근로자들	-10.4404
▁싶어	-10.4405
▁PKK	-10.4406
▁늦게	-10.4406
▁마이크로소프트	-10.4406
▁비핵화	-10.4406
▁알렉산더	-10.4406
▁왼쪽	-10.4406
▁이산화탄소	-10.4406
▁좋다	-10.4406
▁키바키	-10.4406
▁득점	-10.4406
▁오딩가	-10.4406
▁from	-10.4406
닷컴	-10.4406
▁거짓말	-10.4407
▁급격	-10.4407
▁영업	-10.4408
▁포경	-10.4408
▁아이폰	-10.4408
▁인사들	-10.4408
스가	-10.4408
▁할머니	-10.4408
▁체중	-10.441
▁체코	-10.4411
해질	-10.4413
▁초청	-10.4419
▁차량이	-10.4419
▁분류	-10.4421
▁대립	-10.4421
다시	-10.4426
▁킬로미터	-10.443
▁철	-10.443
▁가동	-10.4433
▁내리	-10.4434
▁원화	-10.4435
▁경영진	-10.4441
자금	-10.4444
▁미국인들이	-10.4449
▁날짜	-10.4451
▁지점	-10.4455
▁밥	-10.4465
▁보고서에	-10.4466
▁총상	-10.4468
▁언론에	-10.4471
▁정의	-10.4473
냈다	-10.4475
▁기다리	-10.4481
델	-10.4483
▁제조업체	-10.4486
▁일제	-10.4489
▁이란과	-10.4489
착	-10.4491
▁농	-10.4492
▁동기	-10.4496
▁쓰	-10.4497
▁떨어지	-10.4501
새	-10.4508
글	-10.4508
▁치러	-10.4509
▁로한	-10.4511
▁자본	-10.4516
작전	-10.453
▁앨	-10.4531
받았다	-10.4533
▁보석	-10.4535
▁테러와	-10.454
▁노선	-10.4544
▁이식	-10.4545
베이	-10.4547
▁북미	-10.4556
G	-10.4557
▁기록한	-10.4558
▁다가	-10.4565
좌	-10.4569
딩	-10.4571
▁천주교	-10.4571
▁몸에	-10.4573
▁필라델피아	-10.4573
▁인플레이션	-10.4573
▁택시	-10.4573
▁탄압	-10.4573
▁사냥	-10.4575
▁기밀	-10.4576
▁소집	-10.4576
▁성격	-10.4577
▁그대로	-10.4578
▁세워	-10.4578
▁소위	-10.4581
▁이뤄졌다	-10.4582
▁다음날	-10.4583
된다고	-10.4583
▁호소	-10.4584
▁만남	-10.4593
▁화재로	-10.4597
▁양국간	-10.4601
▁구조대원들	-10.4603
▁공기	-10.4607
버그	-10.4611
▁통일부	-10.4614
▁등장	-10.4615
▁리치	-10.4615
▁공사	-10.4619
▁급속	-10.4623
▁월요일에	-10.4626
▁물이	-10.4633
▁군사적	-10.4633
치를	-10.4639
▁나오지	-10.4643
▁만들기	-10.4644
▁여론조사에서	-10.4644
▁왔	-10.4646
▁정치인	-10.4651
▁방식으로	-10.4652
몬	-10.4658
▁분만	-10.4659
▁홍수로	-10.4661
놓	-10.4661
▁수상한	-10.4662
▁화학	-10.4666
▁막대	-10.4673
연맹	-10.4675
참	-10.4679
▁남동부	-10.4685
▁관계에	-10.4687
▁기록하	-10.4689
사항	-10.4692
w	-10.4692
지역에서	-10.4694
▁카페	-10.4696
▁것임	-10.4703
▁가족들이	-10.4706
▁청	-10.4713
▁출판	-10.4713
▁흔들	-10.4715
ive	-10.4715
▁시각	-10.4716
▁가상	-10.4716
▁투쟁	-10.4717
▁기대한다	-10.4728
▁진행자	-10.4732
▁이루어지	-10.4737
▁유지하	-10.4738
롱	-10.4739
멘	-10.4741
▁탄핵	-10.4741
▁골키퍼	-10.4742
▁남자친구	-10.4742
▁포럼	-10.4743
▁China	-10.4743
▁de	-10.4743
▁일간지	-10.4744
▁숙	-10.4744
▁폭설	-10.4744
▁주최측	-10.4746
▁브랜드	-10.4746
▁진단	-10.4747
▁음주	-10.4748
▁날개	-10.4749
▁일본과	-10.4765
▁공대	-10.4767
▁특수	-10.477
틴	-10.4778
▁미군과	-10.4778
▁구간	-10.4779
▁수사관들	-10.478
▁주장한	-10.4781
▁예술	-10.4783
▁예를들	-10.4785
▁V	-10.4785
▁사법	-10.4791
▁표명했다	-10.4796
▁사태에	-10.48
▁세력이	-10.4805
학교	-10.4814
▁신사	-10.4819
▁제작한	-10.482
기술	-10.4838
▁바꾸	-10.4839
▁봉사	-10.4842
▁출연한	-10.4845
▁기소됐다	-10.4849
▁친구들	-10.4854
얼	-10.4859
▁최근에	-10.486
▁모르	-10.4861
싱	-10.4861
▁희생	-10.4861
▁마비	-10.4869
om	-10.487
▁토지	-10.4871
▁내일	-10.4874
▁블	-10.4875
▁항의하	-10.488
장치	-10.4883
▁제공할	-10.4886
▁부상으로	-10.4888
▁위협이	-10.4893
니아	-10.4896
▁실망	-10.4906
균	-10.4906
▁확인됐다	-10.4911
▁대륙	-10.4911
▁전통적	-10.4913
▁맞는	-10.4915
▁사우스캐롤라이나	-10.4915
▁코끼리	-10.4915
▁후진타오	-10.4915
▁균형	-10.4915
어스	-10.4915
▁his	-10.4915
▁종결	-10.4917
▁징역형	-10.4918
▁비율	-10.4918
▁사람들과	-10.4919
▁라덴	-10.492
▁배후	-10.4923
▁용기	-10.4923
비치	-10.4932
▁기온	-10.4933
▁비교적	-10.4933
▁정식	-10.4933
▁꼭	-10.4933
▁아난	-10.4935
▁성장률	-10.4935
▁순	-10.494
▁보여준다	-10.4942
택	-10.4946
▁마리아	-10.4948
▁가게	-10.4948
▁좋아	-10.4969
▁고객들	-10.4971
▁자신과	-10.4972
▁돼지	-10.4973
▁당국자	-10.4979
▁포기하	-10.4983
▁맡고	-10.4988
라스	-10.4991
▁생기	-10.4996
▁이에따라	-10.4998
▁결과에	-10.5003
▁여행객	-10.5007
▁초안	-10.5009
z	-10.5013
그룹	-10.5022
침	-10.5023
압	-10.5027
▁청문회	-10.5033
▁하나로	-10.5039
▁폭발이	-10.5041
알	-10.5042
▁문제의	-10.5045
▁이란에	-10.5045
연구소	-10.5048
▁받는다	-10.505
해야만	-10.5051
사의	-10.5052
사태	-10.5054
력이	-10.5055
▁올라가	-10.5055
찰	-10.5056
▁치르	-10.506
사인	-10.506
▁방송사	-10.5063
▁보잉	-10.5071
▁마시	-10.5076
탕	-10.5078
▁토론회	-10.5084
▁중이었다	-10.5085
▁HIV	-10.509
▁뭄바이	-10.509
▁선관위	-10.509
▁쿠웨이트	-10.509
▁테일러	-10.509
▁스트레스	-10.509
▁계좌	-10.5091
▁남극	-10.5092
▁줄리아니	-10.5093
▁케이트	-10.5093
▁스턴	-10.5094
▁정상들	-10.5096
▁미디어	-10.5097
▁여학생	-10.5097
▁가족이	-10.5098
▁제목	-10.5098
▁화상	-10.5109
▁도착한	-10.5111
▁일으켰다	-10.5115
▁이름이	-10.5118
▁정전	-10.5123
▁조각	-10.5125
▁피부	-10.5126
리에	-10.5131
드로	-10.5135
▁벽	-10.5136
▁에도	-10.5137
▁보험	-10.514
위원장	-10.5144
▁올랐	-10.5145
▁갔다	-10.5151
갔	-10.5151
▁지불하	-10.5152
▁필요성	-10.5152
▁Le	-10.5152
ese	-10.5153
▁일어났다	-10.5153
▁파도	-10.5165
▁날아	-10.5166
▁촉구하	-10.5167
▁가해	-10.5168
▁근처에서	-10.5169
▁실적	-10.5183
쳤	-10.5189
▁대피했다	-10.5198
▁사용했다	-10.52
▁사용해	-10.5204
▁올려	-10.5208
▁끝나	-10.5211
적이고	-10.5211
▁적절	-10.5215
▁자택	-10.5216
▁남부에서	-10.5218
▁취	-10.5219
▁월드	-10.5221
햄	-10.5228
▁스톤	-10.5233
ve	-10.5236
▁특파원	-10.5241
▁선포했다	-10.5241
▁먼	-10.5242
▁승려들	-10.5247
▁애도	-10.525
▁중단했다	-10.525
▁발생하고	-10.5255
▁유출	-10.5258
제도	-10.5261
▁NBA	-10.5269
▁다큐멘터리	-10.5269
▁식료품	-10.5269
▁에콰도르	-10.5269
▁재검토	-10.5269
▁탱크	-10.5269
▁펠로시	-10.5269
▁돌고래	-10.5269
▁광범위	-10.5269
▁전당대회	-10.5269
▁데일리	-10.5269
▁가벼	-10.5269
▁교통사고	-10.5269
▁슈퍼	-10.527
▁지붕	-10.527
▁예멘	-10.527
▁소규모	-10.527
▁구축	-10.527
▁회원국들	-10.527
▁관영	-10.5271
▁보존	-10.5271
▁화려	-10.5273
▁관계당국	-10.5275
▁감바리	-10.5276
▁범행	-10.5276
▁동생	-10.5277
▁기쁘다	-10.5279
▁삭제	-10.528
▁워	-10.5282
▁입을	-10.5285
▁하나인	-10.5286
▁기차	-10.5289
▁부산	-10.529
▁물에	-10.5291
▁분에	-10.5294
am	-10.5295
▁시체	-10.5304
▁조용	-10.5305
▁과도	-10.5307
▁재판관	-10.5312
▁거주	-10.5315
▁북쪽으로	-10.5319
▁손에	-10.5321
▁서장	-10.5322
▁가졌	-10.5327
벨	-10.5327
▁맞추	-10.5328
▁보일	-10.5332
▁인원	-10.5334
▁음	-10.5345
▁진행되는	-10.535
▁무게	-10.5353
통한	-10.5354
▁참석할	-10.5355
▁노동자들	-10.5357
▁충돌이	-10.5358
▁팀이	-10.5358
▁콘	-10.5361
▁수립	-10.5363
▁국적	-10.5364
▁제출했다	-10.537
▁쓰고	-10.5372
▁New	-10.5375
험	-10.5381
▁총회	-10.5387
검	-10.5388
업자	-10.5391
▁세계적으로	-10.5393
▁낼	-10.5399
간에	-10.5401
IC	-10.5404
man	-10.5406
법원	-10.5409
▁여성들이	-10.5412
▁유럽에서	-10.5416
▁정책에	-10.5418
▁경호원	-10.543
▁했었다	-10.5432
▁북극	-10.5437
국인	-10.5442
않게	-10.5443
▁무슬림	-10.5445
▁마라톤	-10.5448
켈	-10.545
▁착수	-10.545
▁화이트	-10.5451
▁DVD	-10.5451
▁과반수	-10.5451
▁국제원자력기구	-10.5451
▁돕기	-10.5451
▁듣고	-10.5451
▁샌디에이고	-10.5451
▁캐릭터	-10.5451
▁협약	-10.5451
▁횡령	-10.5451
▁롬니	-10.5451
▁펀드	-10.5451
▁봉송	-10.5451
▁일어날	-10.5451
▁감금	-10.5451
▁침공	-10.5451
▁소련	-10.5452
▁레이건	-10.5453
▁신규	-10.5454
▁지상	-10.5455
▁운명	-10.5455
▁판정	-10.5455
▁거부권	-10.5456
▁뇌물	-10.5457
▁경관	-10.5459
▁침입	-10.546
▁이륙	-10.5461
시켰	-10.5462
ut	-10.5463
▁개정안	-10.5463
▁자문	-10.5464
▁마친	-10.5465
장에	-10.5468
▁배출	-10.5475
▁숲	-10.5477
▁늘어나	-10.5478
▁일련	-10.5488
▁해안에서	-10.5492
▁생각이	-10.5494
들로부터	-10.5496
▁기부	-10.55
▁보여주고	-10.5502
▁이용하는	-10.5503
▁부모들	-10.5512
▁차지하고	-10.5521
▁지점에서	-10.5524
▁통신이	-10.5527
▁지정	-10.553
▁직원이	-10.553
▁수배	-10.5536
▁근거로	-10.5537
비아	-10.5538
▁실시할	-10.5541
기업	-10.5546
▁고소	-10.5549
▁연구원들	-10.5551
▁와인	-10.5556
삼	-10.5558
▁신조	-10.5561
미드	-10.5562
죄	-10.5563
▁주장한다	-10.5566
▁요리	-10.5572
▁미스	-10.5574
▁생물	-10.5575
▁위인	-10.5582
놀	-10.5583
▁학	-10.5585
▁개시	-10.5594
▁공약	-10.5596
귀	-10.5607
정보	-10.5617
▁행사에	-10.5619
▁적십자	-10.562
▁성직자	-10.5626
▁처해	-10.5627
▁승무원들	-10.563
얀	-10.5632
▁안전보장이사회	-10.5636
▁연쇄	-10.5636
▁확장	-10.5636
▁메르켈	-10.5636
▁new	-10.5636
▁지하철	-10.5636
▁녹음	-10.5637
▁특징	-10.5637
▁영화배우	-10.5638
▁부채	-10.5638
▁저희	-10.5639
▁당초	-10.564
▁예정인	-10.5643
▁래리	-10.5644
▁벌였	-10.5645
▁조지아주	-10.5645
▁항구	-10.5645
op	-10.5649
▁붙잡	-10.5649
▁지분	-10.5651
▁모임	-10.5653
▁비난하는	-10.5654
▁지원할	-10.5656
▁서울시	-10.5657
▁진보	-10.5657
▁여지	-10.5661
▁오하이오주	-10.5662
▁발견한	-10.5669
▁생산량	-10.5672
▁아들이	-10.5672
▁운전사	-10.5673
▁폭락	-10.5679
갔다	-10.568
▁운영하고	-10.5683
▁영화에	-10.5684
▁달린	-10.5689
▁일본에	-10.569
▁not	-10.5693
▁건물이	-10.5693
▁않았던	-10.5699
▁달러화	-10.5708
▁최	-10.5708
▁검은	-10.5709
▁MD	-10.571
▁상태에서	-10.5713
포드	-10.5713
▁누르	-10.5715
▁Co	-10.5717
▁흥분	-10.572
▁든	-10.5723
▁over	-10.5727
▁원숭이	-10.5729
▁펼치	-10.5731
▁보게	-10.5732
▁선원	-10.5734
▁딸이	-10.5734
▁있어야	-10.5738
▁국가에서	-10.5746
▁계속될	-10.5747
▁합의한	-10.5749
▁확신한다	-10.575
▁레스토랑	-10.5751
▁차단	-10.5752
▁나이트	-10.576
▁사용하지	-10.5762
▁주식시장	-10.5765
te	-10.5767
▁투르	-10.5775
존	-10.5777
▁최고치	-10.578
▁미치는	-10.578
▁주전	-10.5792
국이	-10.5795
▁요금	-10.5799
▁중단할	-10.5801
마리	-10.5801
▁확정	-10.5804
▁소매	-10.5804
▁동의했다	-10.581
▁알아	-10.581
▁포로	-10.5812
▁사망했	-10.5823
▁미시시피	-10.5823
릿	-10.5824
픽	-10.5824
▁동료들	-10.5824
▁낮추	-10.5824
▁먹이	-10.5824
▁Obama	-10.5824
▁마흐디	-10.5824
▁매니저	-10.5824
▁프랭크	-10.5824
▁항공우주국	-10.5824
▁퇴임	-10.5824
▁애완견	-10.5824
▁줄기세포	-10.5824
▁government	-10.5825
▁난민촌	-10.5825
▁앤드류	-10.5825
▁귀환	-10.5825
▁빌딩	-10.5826
▁리처드슨	-10.5826
▁탄생	-10.5826
▁쿠퍼	-10.5826
▁레드	-10.5827
▁침대	-10.5832
ush	-10.5833
▁소형	-10.5834
▁밝혀진	-10.5834
▁원래	-10.5835
▁매체	-10.5835
▁추세	-10.5836
▁후보자	-10.5836
▁공산주의	-10.5839
▁인민	-10.584
▁쉽지	-10.5841
이션	-10.5843
▁수송	-10.585
▁하락한	-10.5852
▁실종자	-10.5854
▁수사관	-10.5855
혔다	-10.5857
▁후보와	-10.5858
째	-10.5858
▁텍사스주	-10.5864
텐	-10.5866
▁등급	-10.5868
▁얼	-10.587
▁무어	-10.5874
▁깊이	-10.5875
▁스타디움에서	-10.5878
▁정원	-10.5878
별	-10.5886
▁다르다	-10.5889
▁메이	-10.5891
▁냈다	-10.5897
▁무리	-10.5899
▁없게	-10.5902
▁어렵다	-10.5903
▁협상에	-10.5909
량이	-10.5911
▁심의	-10.5913
day	-10.592
▁증세	-10.5924
치는	-10.593
▁전달했다	-10.5931
세이	-10.5938
▁일어났	-10.5947
ent	-10.5948
▁테니스	-10.5948
▁화요일에	-10.5952
▁셀	-10.5959
혈	-10.5967
소를	-10.5967
▁소식통이	-10.597
능	-10.5975
대표	-10.5976
졌으	-10.5977
ore	-10.5978
▁구역	-10.5985
▁동맹국	-10.5988
▁하루에	-10.5991
곤	-10.5997
께	-10.5997
군이	-10.5997
▁그래	-10.6
▁윤	-10.6004
향	-10.6006
해진	-10.6007
▁경호	-10.6008
▁애리조나	-10.6009
▁교도소에	-10.6013
▁통계	-10.6013
ee	-10.6014
▁응급	-10.6015
▁옆	-10.6016
▁얻고	-10.6017
▁플라스틱	-10.6017
▁옐친	-10.6017
▁침략	-10.6017
▁경기부양책	-10.6017
▁복역	-10.6017
▁샘플	-10.6017
▁예비선거	-10.6017
▁어깨	-10.6017
▁헌법재판소	-10.6017
▁롤링	-10.6017
▁득표율	-10.6017
▁솔직	-10.6018
▁영양	-10.6018
▁창출	-10.6019
▁끝날	-10.602
▁창문	-10.602
▁제정	-10.602
▁다국적군	-10.6021
▁브리	-10.6021
▁졸리	-10.6021
▁방출	-10.6022
▁결과로	-10.6024
보호	-10.6024
▁키우	-10.6026
▁웃	-10.6027
▁발포	-10.6027
▁옆에	-10.6029
▁물품	-10.603
▁최저치	-10.603
▁운전자	-10.6042
▁베르	-10.6043
▁인력	-10.6047
▁승객들	-10.6056
▁식사	-10.6056
비용	-10.6056
▁행정	-10.6057
▁신문사	-10.6059
타르	-10.606
▁공개됐다	-10.6065
▁촬영한	-10.6066
▁발견되었다	-10.6068
물이	-10.6068
▁늘리	-10.6077
금지	-10.6085
하였으	-10.6086
▁인근에서	-10.6086
▁대로	-10.6088
▁경비	-10.609
▁추측	-10.609
▁학교에	-10.6091
▁치러지	-10.6092
▁청사	-10.6095
네스	-10.6101
▁테러범	-10.6106
▁아르	-10.6106
▁해상	-10.6108
이었	-10.611
▁조건으로	-10.6131
▁전부	-10.6133
▁바라는	-10.6135
mo	-10.6135
▁모색	-10.6141
으면서	-10.6142
▁거절했다	-10.6144
▁던지	-10.6149
▁대항	-10.6152
▁카불	-10.6155
육	-10.6155
▁일으키	-10.6156
▁전복	-10.6157
▁육	-10.6159
▁년만	-10.6162
▁후보인	-10.6166
었는지	-10.6172
▁놀	-10.6174
▁명인	-10.6176
▁자리에	-10.6178
▁문제와	-10.6178
▁즐	-10.6179
▁받아들이	-10.6183
대가	-10.6185
▁무고	-10.6188
▁방문하는	-10.6188
▁화물	-10.6191
▁게재	-10.6195
▁권고	-10.6196
▁빈곤	-10.6201
▁up	-10.6206
넷	-10.6208
곡	-10.6209
차량	-10.621
▁뮤지컬	-10.6213
▁윔블던	-10.6213
▁퍼거슨	-10.6213
▁배터리	-10.6213
▁여겨지	-10.6213
▁일으킬	-10.6213
▁빠질	-10.6213
▁프리미어리그	-10.6213
▁노르웨이	-10.6213
▁유혈사태	-10.6213
▁브리핑	-10.6213
▁데이빗	-10.6213
▁낙태	-10.6213
▁검증	-10.6213
▁상륙	-10.6213
▁외무성	-10.6214
▁생방송	-10.6214
▁오마르	-10.6215
▁몰려	-10.6215
▁로딕	-10.6215
▁실업률	-10.6216
▁서양	-10.6218
▁테러에	-10.6218
▁이뤄진	-10.6218
▁알렉스	-10.6218
▁조항	-10.6219
▁백신	-10.6219
▁접전	-10.6221
▁음성	-10.6221
▁상호	-10.6221
입어	-10.6222
▁드러냈다	-10.6223
▁본토	-10.6223
▁발행	-10.6225
▁번역	-10.6226
▁알렸다	-10.6229
ap	-10.6232
▁분량	-10.6232
총리	-10.6233
시킨다	-10.6233
▁제리	-10.6234
▁동물들	-10.6234
▁잡아	-10.6234
▁정상화	-10.6244
▁동일한	-10.6245
오는	-10.6246
쪽으로	-10.625
▁잡스	-10.6252
▁즐기	-10.6255
▁클	-10.6255
▁맨	-10.6258
▁혼	-10.6262
▁예정이었다	-10.6262
▁취해	-10.6268
▁알지	-10.6269
▁유도	-10.6272
▁포장	-10.6272
▁론	-10.6272
▁자택에서	-10.6275
데이	-10.6281
▁지지한다	-10.6281
▁정권이	-10.6285
▁In	-10.6286
▁따르	-10.6288
▁감소했다	-10.6289
▁매달	-10.6293
▁나왔	-10.6301
▁싸	-10.6301
▁견	-10.6306
▁일본인	-10.6306
▁국기	-10.632
해왔	-10.6321
▁소득	-10.6322
▁X	-10.6324
▁투표에	-10.6328
측에	-10.6332
▁비행사	-10.6335
기록	-10.6346
▁작업에	-10.6346
▁품	-10.6347
에게서	-10.6348
▁하이	-10.6349
▁발표됐다	-10.6351
▁이민	-10.6353
▁지지자들이	-10.6358
▁연안	-10.6359
▁의존	-10.6361
바이	-10.6366
상의	-10.6368
▁학생이	-10.6369
▁실질적	-10.637
브라	-10.6373
▁지원하는	-10.6384
▁지대	-10.6385
니는	-10.6397
▁법원에서	-10.6401
잉	-10.6409
웅	-10.6409
▁겨	-10.6411
▁느낄	-10.6413
▁멤버	-10.6413
▁얻는	-10.6413
▁오토바이	-10.6413
▁파바로티	-10.6413
▁피라미드	-10.6413
▁게릴라	-10.6413
▁카트리나	-10.6413
▁징계	-10.6413
▁정거장	-10.6413
▁보이콧	-10.6413
▁라파엘	-10.6413
▁여섯	-10.6413
▁암컷	-10.6413
▁빠지	-10.6413
▁MBC	-10.6414
▁상원의원과	-10.6414
▁라이언	-10.6414
사회	-10.6414
헤	-10.6415
쓰	-10.6416
▁생각하지	-10.6416
▁오른쪽	-10.6417
벽	-10.6417
▁American	-10.6417
▁통증	-10.6417
way	-10.6417
▁상대방	-10.6418
▁슬	-10.6419
▁모금	-10.6421
▁플레이어	-10.6422
▁돌파	-10.6422
▁멀리	-10.6423
▁유산	-10.6429
K	-10.643
▁부실	-10.6431
▁사설	-10.6431
리스트	-10.6433
▁산타	-10.6433
▁회의에	-10.6434
▁남자들	-10.6434
부분	-10.6436
▁국가로	-10.6437
▁지켜보	-10.6439
▁망	-10.6445
ary	-10.6449
▁당국에	-10.6451
▁플로리다주	-10.6451
▁않는다면	-10.6453
▁살해했다	-10.6454
▁소유하고	-10.6461
▁처한	-10.6462
▁앉아	-10.6468
로스	-10.647
▁레바논군	-10.6471
▁해병	-10.6481
한글	-10.6482
▁외치	-10.6485
▁대표들	-10.6486
▁국민의	-10.6487
▁에어	-10.6488
기지	-10.649
▁참여할	-10.6491
▁전해지	-10.6492
본부	-10.6492
▁실시했다	-10.6494
이란	-10.6494
장으로	-10.6507
▁쓸	-10.6508
▁이용한	-10.651
▁노리	-10.6511
▁취한	-10.6514
▁입수	-10.6525
▁마을에서	-10.6525
▁약세	-10.6525
▁계기	-10.6526
▁pro	-10.653
▁요인	-10.6531
▁제시했다	-10.6532
▁후원	-10.6543
ine	-10.6543
시오	-10.6546
▁몰고	-10.6546
▁코커스	-10.6553
▁두번째	-10.6562
검사	-10.6569
▁불이	-10.6573
▁무장대원	-10.6577
▁범인이	-10.6583
▁주위	-10.6591
▁잠재적	-10.6596
푸	-10.6597
십	-10.6597
▁온도	-10.6605
▁악화되	-10.6606
▁감지	-10.6613
▁대학에서	-10.6615
▁아름다	-10.6617
▁IMF	-10.6617
▁관타나모	-10.6617
▁마돈나	-10.6617
▁앤더슨	-10.6617
▁서식지	-10.6617
▁불가리아	-10.6617
▁객실	-10.6617
▁FDA	-10.6617
▁화합	-10.6618
▁비틀즈	-10.6618
▁테러조직	-10.6622
스럽게	-10.6622
주에서	-10.6624
▁도심	-10.6624
▁차별	-10.6627
▁전국적으로	-10.6628
시대	-10.6629
▁보급	-10.6629
▁재임	-10.663
▁재직	-10.6631
▁개편	-10.6632
▁탄소	-10.6632
▁내려졌다	-10.6633
정도	-10.6643
▁리비	-10.6644
▁버리	-10.665
▁열렸다	-10.6653
▁Re	-10.6653
없는	-10.6656
▁다음주	-10.6658
▁단체인	-10.6665
▁상승한	-10.6666
▁조지아	-10.6668
▁제출한	-10.667
▁환호	-10.6679
ay	-10.668
▁군인들이	-10.6681
me	-10.6684
▁개인적	-10.6684
▁방향으로	-10.6685
어서	-10.6686
▁해소	-10.6689
▁겁	-10.669
평	-10.6691
▁엑스	-10.6691
▁소식에	-10.6696
▁미터	-10.6714
▁out	-10.6716
웨	-10.6716
▁플라	-10.6721
▁최대의	-10.6727
▁커지	-10.6731
▁광장	-10.674
▁모건	-10.6741
▁남편이	-10.6754
▁화면	-10.6757
▁중심가	-10.6759
▁프라이머리에서	-10.6768
겠습니다	-10.6776
사와	-10.6784
▁조사한	-10.6784
▁부당	-10.6796
ty	-10.6805
▁콜로라도	-10.6815
▁뉴욕주	-10.6819
▁부딪	-10.6825
▁경기침체	-10.6825
▁끔찍	-10.6825
▁아테네	-10.6825
룸	-10.6825
▁중남미	-10.6825
▁히틀러	-10.6825
▁자유무역협정	-10.6825
▁공룡	-10.6826
▁관람	-10.6826
▁벽돌	-10.6826
▁에이커	-10.6826
▁탈락	-10.6826
▁탄광	-10.6827
▁자선단체	-10.6827
▁NK	-10.6827
▁거짓	-10.6827
▁금액	-10.6827
▁점검	-10.6828
▁본다	-10.683
▁are	-10.6833
▁청구	-10.6833
▁야구	-10.6833
▁자신감	-10.6834
▁고급	-10.6835
▁이틀간	-10.6836
▁접수	-10.6836
지역에	-10.6836
▁아마디	-10.6838
▁인형	-10.6838
▁실린	-10.6838
몰	-10.6839
▁중요성	-10.684
▁우즈	-10.6844
▁존경	-10.6845
▁한국은행	-10.6848
▁촉진	-10.6849
▁웨	-10.6851
▁남용	-10.6852
▁농장	-10.6857
ow	-10.6858
▁군함	-10.6858
▁강세	-10.686
▁국가들이	-10.686
▁세웠다	-10.6868
장인	-10.6874
기자	-10.6885
▁유튜브	-10.689
▁노력이	-10.689
▁겸	-10.69
업계	-10.6901
▁로스	-10.6903
ish	-10.6907
▁손해	-10.6908
▁소비자들	-10.6917
▁법안에	-10.6917
▁라이브	-10.6918
▁당국자들	-10.6926
▁대학생	-10.6926
버스	-10.6927
▁좋아하는	-10.6931
▁각자	-10.6932
▁원인이	-10.6934
ho	-10.6943
▁추구하	-10.6949
▁기소된	-10.6961
▁잃었	-10.6965
▁때문이라	-10.6973
▁로브	-10.6973
▁상하이	-10.6974
▁미니	-10.6979
▁여기에	-10.6991
▁포함됐다	-10.6994
▁사용하고	-10.6995
▁맛	-10.7009
▁털	-10.7016
▁거부하	-10.7032
징	-10.7033
▁건너	-10.7033
웬	-10.7034
▁매춘	-10.7036
▁OPEC	-10.7038
▁visit	-10.7038
▁루아얄	-10.7038
▁우주왕복선	-10.7038
▁울포위츠	-10.7038
▁지지선언	-10.7038
▁허커비	-10.7038
▁징후	-10.7038
▁시라크	-10.7038
▁벌써	-10.7038
▁본격적	-10.7038
▁농업	-10.7038
▁파나마	-10.7039
▁드러내	-10.7039
▁범위	-10.704
▁술집	-10.704
▁함유	-10.704
▁떠날	-10.704
▁디스크	-10.7041
▁사이클	-10.7041
▁통과시켰다	-10.7043
▁매케인이	-10.7043
▁매매	-10.7043
▁시작했	-10.7043
▁연계	-10.7044
▁서류	-10.7045
▁소행성	-10.7045
▁집권당	-10.7046
▁형식	-10.7047
▁국방성	-10.705
▁로저	-10.705
▁r	-10.7051
▁정계	-10.7053
▁연간	-10.7054
▁포함돼	-10.7058
▁자동	-10.7058
▁경사	-10.7058
충	-10.7059
▁승부	-10.706
▁내정	-10.7064
▁얼마전	-10.7065
팔	-10.7069
회담	-10.707
▁내려진	-10.7074
어로	-10.7076
▁표면	-10.7077
▁호소했다	-10.7077
▁벌어졌다	-10.7077
▁있을지	-10.7078
▁싱	-10.7078
▁불에	-10.7081
▁재미있	-10.7088
▁떨어졌	-10.7089
공사	-10.7093
▁자치	-10.7094
▁되찾	-10.7095
▁이어지	-10.7098
▁나선	-10.7103
co	-10.7104
다란	-10.7107
▁승인했다	-10.7111
▁세로	-10.7112
▁여부에	-10.712
▁보조	-10.7135
니까	-10.7136
▁전역에서	-10.7146
▁부분이	-10.7149
▁민족	-10.7153
▁부족하다	-10.7161
▁곰	-10.7165
▁존중	-10.7166
▁어렵	-10.7166
▁건강이	-10.717
▁포함된	-10.7174
▁제공한	-10.7177
ang	-10.7177
▁기분	-10.7179
▁베를린	-10.7181
▁바스라	-10.7185
▁일이라고	-10.7185
▁운동가들	-10.7187
▁출산	-10.7189
▁래	-10.719
▁도달	-10.719
▁북부에	-10.7197
▁필요로	-10.7199
▁반영	-10.72
▁대전	-10.7201
▁참가자들	-10.7207
▁향상	-10.7212
국장	-10.7214
▁범	-10.7217
팅	-10.7218
대회	-10.7225
▁취했다	-10.7228
▁용의자로	-10.723
분께	-10.7238
국으로	-10.7246
▁소탕	-10.725
▁빼	-10.7253
▁쓰레기	-10.7253
▁벗어	-10.7253
▁해주	-10.7255
▁World	-10.7255
▁고이즈미	-10.7255
▁디자이너	-10.7255
▁베네딕	-10.7255
▁쇠고기	-10.7255
▁싶지	-10.7255
▁조승희	-10.7255
톨	-10.7255
▁again	-10.7255
▁옮기	-10.7255
▁포르노	-10.7255
▁교섭	-10.7256
▁저항세력	-10.7256
▁CDC	-10.7256
▁품목	-10.7256
▁다룬	-10.7257
▁경향	-10.7257
▁우울증	-10.7257
▁정착	-10.7258
베르토	-10.7258
▁도살	-10.7259
▁계산	-10.7259
▁상담	-10.7261
▁신분	-10.7262
▁지역사회	-10.7262
▁핵개발	-10.7262
▁왕세자비	-10.7263
▁장교	-10.7264
▁소동	-10.7267
▁외곽	-10.7267
▁대대적	-10.7267
▁통보	-10.7267
▁많아	-10.727
▁물체	-10.727
▁밴	-10.7271
▁에릭	-10.7271
▁희망한다	-10.7276
▁만년	-10.728
▁사체	-10.7281
▁열고	-10.7283
달러	-10.7284
뉴	-10.7284
▁고장	-10.7285
끼	-10.7288
▁뿐이다	-10.7288
▁강전에서	-10.7289
▁게리	-10.7294
▁회장이	-10.7294
짐	-10.7294
▁서서	-10.7299
▁결승전에서	-10.7302
▁칭	-10.7309
▁나토군	-10.731
▁도시인	-10.7311
▁대법원장	-10.7312
▁점거	-10.7314
▁지휘관	-10.7318
▁합의에	-10.7319
▁지식	-10.7325
▁멀	-10.7334
▁적발	-10.7336
▁극장	-10.7337
▁모르는	-10.7337
▁농민들	-10.734
▁진지	-10.7341
▁갖는	-10.7342
▁챔피언십	-10.7343
▁바위	-10.7343
시위	-10.7344
▁스캔들	-10.7344
자르	-10.7345
▁유전	-10.7346
▁바르	-10.7347
▁타임	-10.7347
▁고려하고	-10.7348
▁맡	-10.7349
▁저자	-10.7355
해달라	-10.7357
▁촉발	-10.7363
▁돌려	-10.7363
▁탈레반측	-10.7365
▁계속된	-10.7366
▁위원	-10.737
▁다르	-10.7379
▁가족들과	-10.7383
▁미국으로	-10.7391
▁완	-10.7391
▁은행들	-10.7399
스티	-10.7401
러스	-10.7406
▁업체들	-10.7409
▁걸리	-10.7411
▁공격했다	-10.7417
▁건강에	-10.742
▁탑승객	-10.7423
가격	-10.7426
▁모자	-10.743
per	-10.744
혼	-10.7441
▁대통령직	-10.7443
▁지위	-10.7443
▁들어간	-10.7446
▁조사할	-10.745
▁흔	-10.7452
▁경매에	-10.7453
▁상영	-10.7453
줬다	-10.7457
▁정보부	-10.7458
▁뉴햄프셔	-10.746
▁사용자들	-10.746
▁직면	-10.7461
▁상자	-10.7461
▁관여	-10.7464
닌	-10.747
▁다루	-10.7471
▁브라이언	-10.7471
▁노트북	-10.7478
▁뉴올리언스	-10.7478
▁두려움	-10.7478
▁맞고	-10.7478
▁심장마비	-10.7478
▁아닙니다	-10.7478
▁압바스	-10.7478
▁최첨단	-10.7478
▁톰슨	-10.7478
▁대서양	-10.7478
▁무너지	-10.7478
▁윈도우	-10.7478
▁온실가스	-10.7478
ING	-10.7478
▁부사장	-10.7478
▁글로벌	-10.7478
▁멈추	-10.7478
▁이자율	-10.7478
▁우간다	-10.7478
▁가짜	-10.7479
▁연례	-10.7479
▁talks	-10.7479
▁붙여	-10.748
▁파월	-10.748
▁풍부	-10.748
▁타밀	-10.748
▁고유가	-10.7481
▁받아왔다	-10.7481
▁갈등	-10.7481
▁비서실장	-10.7482
▁오프라	-10.7482
▁관측	-10.7483
▁개막	-10.7483
▁구름	-10.7484
▁열심	-10.7486
▁미첼	-10.7487
▁파리에서	-10.7487
▁발급	-10.7488
▁휴대	-10.7488
▁경비대	-10.7489
▁테러단체	-10.7489
▁독일인	-10.7489
▁발발	-10.749
▁숨졌으	-10.7491
▁무슨	-10.7491
▁문구	-10.7492
▁기증	-10.7493
▁선임	-10.7493
디아	-10.7495
▁스파이	-10.7497
▁신화	-10.7502
▁참석하지	-10.7504
▁남측	-10.7504
▁보건부	-10.7509
셀	-10.7515
폰	-10.7516
▁요원들	-10.7517
폐	-10.7519
필	-10.752
▁가중	-10.7523
has	-10.7523
▁것들	-10.7524
▁Bo	-10.7527
값	-10.7529
진다	-10.753
▁확산되고	-10.7531
시스템	-10.7531
▁학교에서	-10.7537
럽	-10.7542
로우	-10.755
▁크레	-10.7558
▁점수	-10.756
ke	-10.7561
린다	-10.7568
▁의상	-10.7568
▁당해	-10.7586
▁행위에	-10.7589
▁직접적	-10.7589
▁러드	-10.7591
▁제작사	-10.7591
▁정치인들	-10.7592
▁남성들	-10.7597
ss	-10.7598
▁보도에	-10.7601
end	-10.7602
▁해적들	-10.7602
▁기상청	-10.7602
▁되며	-10.7603
ta	-10.7604
에르	-10.7609
스런	-10.761
▁th	-10.7613
▁완료	-10.7614
▁종이	-10.7617
렉	-10.762
▁윈	-10.7621
▁말했으	-10.7623
▁확인되	-10.7625
원들이	-10.7626
▁국제공항	-10.7631
▁해당하	-10.7632
▁달러가	-10.7639
▁정리	-10.7649
▁증상	-10.765
▁입지	-10.7654
▁향한	-10.7662
▁구멍	-10.7664
▁언론과	-10.7666
ak	-10.7667
▁마이	-10.7668
▁남부에	-10.7668
▁주에	-10.7669
▁테리	-10.7669
▁동성애	-10.767
념	-10.7672
▁파키스탄군	-10.7679
▁반지	-10.7688
되며	-10.7689
▁뿐이라	-10.7695
▁출입	-10.7702
▁에베레스트	-10.7703
컴	-10.7703
▁그렇다	-10.7705
▁도요타	-10.7705
▁로드리게스	-10.7705
▁브래드	-10.7705
▁이브라힘	-10.7705
▁찾지	-10.7705
▁펼친	-10.7705
▁허드슨	-10.7705
▁플루토늄	-10.7705
▁빼앗	-10.7705
▁해수면	-10.7705
▁아마디네자드	-10.7705
▁준비하고	-10.7705
▁인터폴	-10.7705
▁남아프리카	-10.7705
▁빅토리아	-10.7705
▁야생동물	-10.7705
▁터널	-10.7705
▁의약품	-10.7705
▁남학생	-10.7706
▁금융위기	-10.7706
▁무덤	-10.7707
▁평화유지군	-10.7707
▁이루어진	-10.7708
▁들어갈	-10.7709
▁예약	-10.771
▁단행	-10.771
▁완성	-10.7711
▁채취	-10.7711
▁밀려	-10.7712
▁고위급	-10.7714
▁포터	-10.7716
▁양쪽	-10.7717
▁구류	-10.7717
▁유통	-10.7721
▁배제	-10.7723
▁적합한	-10.7724
▁군사력	-10.7724
▁양보	-10.7728
▁임대	-10.7731
▁해체	-10.7731
▁서안	-10.7731
▁빠졌다	-10.7733
▁경쟁력	-10.7736
▁회수	-10.7738
▁입법	-10.7741
▁선거법	-10.7742
▁변호	-10.7744
▁반복	-10.7744
▁나타내는	-10.7747
▁미래에	-10.7747
▁선수로	-10.7749
▁주연	-10.775
▁반전	-10.7752
덕	-10.7761
칸	-10.7765
규모	-10.7766
▁경로	-10.7766
▁코치	-10.7766
▁벌여	-10.7766
리그	-10.7767
▁보인	-10.778
▁해서	-10.7781
VS	-10.7781
▁사면	-10.779
사업	-10.7792
▁정기적	-10.7793
▁공무원	-10.7797
으려	-10.7798
▁법정에서	-10.7804
▁시인했다	-10.7808
▁시인	-10.7813
▁너무나	-10.782
코프	-10.782
▁News	-10.7826
▁제이	-10.7826
▁넘기	-10.7827
▁국가에	-10.7829
▁관객들	-10.783
▁연구에서	-10.784
▁위험성	-10.7845
관련	-10.7846
▁Z	-10.7847
▁궤도	-10.7851
▁회전	-10.7858
버리	-10.7861
▁파키스탄에서	-10.7872
▁변호인	-10.7872
▁턱	-10.7874
ard	-10.7884
▁은행에	-10.7886
▁베리	-10.789
▁새롭	-10.7891
렸으	-10.7896
▁의견이	-10.7897
▁no	-10.7898
able	-10.79
소리	-10.7904
▁제시한	-10.7905
▁십	-10.7906
▁입었	-10.7907
▁달한다	-10.7909
▁목격했다	-10.7911
▁기본적	-10.7913
퇴	-10.7914
▁좌절	-10.7919
리안	-10.7929
▁Ch	-10.7933
뜨	-10.7936
▁뉴욕시	-10.7937
▁스타벅스	-10.7937
▁나눴다	-10.7937
▁낮아	-10.7937
▁망원경	-10.7937
▁성추행	-10.7937
▁아라비아	-10.7937
▁자르다리	-10.7937
▁최우선	-10.7937
▁토크쇼	-10.7937
▁확률	-10.7937
찌	-10.7937
▁무승부	-10.7937
▁수류탄	-10.7937
▁시나리오	-10.7937
▁Center	-10.7937
▁삭감	-10.7937
▁맥캔	-10.7938
▁에드워드	-10.7938
▁활발	-10.7938
▁남자아이	-10.7938
▁긴밀	-10.7938
▁하원의장	-10.7939
▁교외	-10.7939
▁인터넷에	-10.7939
▁머레이	-10.7939
▁외환	-10.794
▁물고기	-10.794
▁추격	-10.794
▁송금	-10.794
▁체류	-10.794
▁실현	-10.7941
▁착수했다	-10.7942
▁제공했다	-10.7945
▁포스트	-10.7947
▁상금	-10.795
▁해저	-10.7953
▁묻는	-10.7954
둘	-10.7955
▁우세	-10.7956
▁당부했다	-10.7957
행사	-10.7959
▁폴리	-10.7962
▁저질렀다	-10.7965
▁사라졌다	-10.7966
널리	-10.7968
▁총통	-10.7968
▁상업	-10.7969
▁이득	-10.7972
▁상세	-10.7973
▁논	-10.7976
▁맡았다	-10.7981
▁생각해	-10.7983
▁차질	-10.7984
▁이후에	-10.7989
▁신도들	-10.7989
▁등에	-10.799
▁사실에	-10.799
▁햄	-10.7991
ell	-10.7992
▁목록	-10.7992
라면	-10.7993
▁개인적으로	-10.8006
▁화가	-10.8008
짓	-10.8009
않	-10.801
콜	-10.8011
폴	-10.8014
▁중심지	-10.8014
▁코스	-10.8017
감독	-10.8018
과정	-10.8018
▁수행할	-10.8018
▁탈레반이	-10.8021
▁무시	-10.8022
▁부검	-10.8026
▁행동에	-10.8034
▁일어나는	-10.8035
▁차례의	-10.8036
치고	-10.804
▁연대	-10.8043
버렸다	-10.8045
▁묘사	-10.8049
▁성공한	-10.8054
▁사진이	-10.8055
▁발생했	-10.8065
▁테러리스트들	-10.8065
▁압수	-10.8067
내용	-10.8068
▁가방	-10.8074
▁분야에서	-10.8077
▁이름으로	-10.8085
▁방문해	-10.8088
▁의심되	-10.8088
▁장관과	-10.8088
▁출연했다	-10.8088
결과	-10.8089
▁하락하	-10.809
▁점이	-10.809
▁강진이	-10.8093
▁브로	-10.8094
▁힘들다	-10.8095
▁출생	-10.8099
▁작업이	-10.8099
▁착용	-10.8104
▁불어	-10.811
▁방콕	-10.8115
ance	-10.8119
▁검문소	-10.8123
객	-10.8128
▁남아있는	-10.8135
▁크다	-10.8145
키로	-10.8149
▁명성	-10.8149
▁진전이	-10.8149
▁패스	-10.815
▁성당	-10.8158
▁블루	-10.8158
닥	-10.8161
▁Mo	-10.8164
▁암시	-10.8164
ain	-10.8169
훈	-10.8174
리고	-10.8175
랭	-10.8175
▁Seoul	-10.8176
▁갤런	-10.8176
▁높게	-10.8176
▁뉴델리	-10.8176
▁똑같	-10.8176
▁메드베데프	-10.8176
▁서브프라임	-10.8176
▁아웅산수치	-10.8176
▁유죄판결	-10.8176
▁세속주의	-10.8176
▁스크린	-10.8176
▁출구조사	-10.8176
▁증강	-10.8176
▁국립공원	-10.8176
▁포셋	-10.8176
▁복원	-10.8176
▁권총	-10.8177
▁연패	-10.8177
▁수색작업	-10.8177
▁Minister	-10.8177
▁단독	-10.8178
▁부지	-10.8178
▁중앙은행	-10.8178
▁카를로스	-10.8178
▁연구결과	-10.8179
▁인권단체	-10.8179
▁연출	-10.818
▁환율	-10.818
▁사용된	-10.8182
▁여러번	-10.8183
▁건물에	-10.8184
▁its	-10.8185
▁부처	-10.8187
▁부품	-10.8188
상으로	-10.819
▁도구	-10.8192
▁고조되	-10.8192
▁매력	-10.8193
▁도디	-10.8193
▁재활용	-10.8194
▁카리	-10.8197
▁판결이	-10.8197
▁종교적	-10.8198
쪽	-10.8202
▁체포되었다	-10.8203
▁루니	-10.8205
▁안내	-10.8207
▁미리	-10.8207
▁기적	-10.8209
▁활성화	-10.8211
▁공정한	-10.8213
▁방송에	-10.8213
▁가난한	-10.8215
▁정기	-10.8221
▁종료	-10.8221
▁선고했다	-10.8223
▁군이	-10.8226
▁대리인	-10.8229
▁설	-10.8229
▁미성년자	-10.823
▁뛰	-10.8231
▁업적	-10.8232
▁남아있다	-10.8233
▁영국과	-10.8233
▁유인	-10.8235
▁웨인	-10.8236
련	-10.8236
화된	-10.8239
ab	-10.824
윈	-10.8245
닉	-10.8248
▁도착할	-10.8252
▁상당수	-10.8254
킹	-10.826
▁물러나	-10.8263
벤	-10.8263
▁압도적	-10.8264
칼	-10.8264
▁맡았	-10.8268
▁수면	-10.8269
원인	-10.827
▁표준	-10.8271
▁기분이	-10.8273
▁주권	-10.8275
▁기아	-10.8275
▁시사	-10.8279
수술	-10.8279
▁위원장이	-10.8285
▁토대	-10.8288
데스	-10.829
▁안으로	-10.8291
▁열었다	-10.8291
▁이슈	-10.8293
con	-10.8297
▁신장	-10.831
교육	-10.8313
▁결심	-10.8315
▁출두	-10.8324
na	-10.8326
▁행동이	-10.8331
▁응답	-10.8336
▁막아	-10.8337
업자들	-10.8338
▁따뜻	-10.8338
▁외국인들	-10.8344
점으로	-10.8345
aid	-10.8346
▁살았	-10.8346
▁활동에	-10.8347
▁석방됐다	-10.8349
▁출신으로	-10.8351
▁재정적	-10.8352
시장에서	-10.8353
▁사무	-10.8355
나무	-10.8359
▁자라	-10.8369
▁소년이	-10.8369
▁un	-10.8383
▁지구에	-10.8385
▁기각	-10.8385
▁거부한	-10.8385
국의	-10.8389
po	-10.8389
▁받아들여	-10.8391
▁제작자	-10.8394
▁가능하	-10.84
되자	-10.8403
켜	-10.8404
▁사과했다	-10.8406
▁했	-10.8411
옥	-10.8411
넨	-10.8416
▁국가비상사태	-10.8419
▁상관	-10.8419
▁FIFA	-10.8419
▁IBM	-10.8419
▁먹고	-10.8419
▁선거관리위원회	-10.8419
▁앞섰다	-10.8419
▁얻게	-10.8419
▁하이브리드	-10.8419
▁주유소	-10.8419
▁자전거	-10.8419
▁좌석	-10.8419
▁섹시	-10.8419
▁윈프리	-10.842
▁티벳	-10.842
▁최루탄	-10.842
▁교착	-10.842
▁부양책	-10.842
▁AIG	-10.842
▁open	-10.842
▁켈리	-10.842
▁바꿀	-10.842
▁BDA	-10.842
▁MDC	-10.842
▁급습	-10.8421
▁이뤄질	-10.8421
▁돌아갈	-10.8421
▁앨런	-10.8422
▁설계	-10.8422
▁윌슨	-10.8422
▁서식하	-10.8422
▁독감	-10.8422
▁추모	-10.8423
▁데리고	-10.8424
▁CD	-10.8424
▁통행	-10.8425
▁재배치	-10.8425
▁심판	-10.8426
▁by	-10.8428
▁줄이기	-10.8428
▁An	-10.8429
▁휴일	-10.843
▁개체수	-10.843
됐는지	-10.8432
▁보증	-10.8433
▁도난	-10.8433
▁서브	-10.8434
▁쪽	-10.8434
▁출장	-10.8434
▁인터	-10.8435
▁피난	-10.8435
▁전형적	-10.8437
▁해석	-10.8437
ga	-10.8438
▁던진	-10.8439
무라	-10.8439
▁흘러	-10.8441
라데	-10.8445
▁여파	-10.8445
▁병력이	-10.8447
▁않았습니다	-10.8451
원으로	-10.8456
▁아미	-10.8458
▁홍	-10.8465
▁국회에서	-10.8468
▁전격	-10.8473
▁아프	-10.8475
▁공개하지	-10.8476
▁권고했다	-10.8477
▁탈북자	-10.8478
분야	-10.8481
▁외상	-10.8489
▁사라지	-10.8491
▁함	-10.8491
황	-10.8492
▁공주	-10.8494
▁꽃	-10.8497
▁수감된	-10.8498
▁피하기	-10.8498
▁메리	-10.85
▁김치	-10.8501
▁분석했다	-10.8508
대사	-10.8509
▁현상이	-10.8509
▁산하	-10.8513
전에서	-10.8514
▁방법에	-10.8514
▁궁	-10.8515
▁아기들	-10.8515
▁거리에서	-10.8516
▁떠난	-10.8517
동맹	-10.8518
▁센	-10.8518
▁간에	-10.8522
▁약화	-10.8524
▁양자	-10.8527
▁드레스	-10.8529
▁관객	-10.8534
▁민간인들	-10.8535
ure	-10.8536
▁판매량	-10.8536
노조	-10.8538
▁이라크내	-10.8539
▁지역인	-10.8544
▁공격한	-10.8547
▁상상	-10.8547
▁사안	-10.8554
▁초에	-10.8557
▁AI	-10.8565
▁BA	-10.8569
▁맞이	-10.8572
▁테러범들	-10.8572
위원	-10.858
▁원장	-10.8588
▁그랜드	-10.8594
▁발견되지	-10.8595
ong	-10.8598
▁모두에게	-10.8599
회견에서	-10.8605
더스	-10.8613
▁동영상에서	-10.8618
▁조언	-10.8623
▁서쪽	-10.8627
▁의원들이	-10.863
▁AS	-10.863
▁고안	-10.8632
▁모아	-10.865
TV	-10.8651
▁셰	-10.8656
▁네바다	-10.866
▁이씨	-10.8662
▁출신인	-10.8664
▁공개한	-10.8666
둥	-10.8667
룰	-10.8667
콤	-10.8668
▁담고	-10.8669
▁데이비스	-10.8669
▁Show	-10.8669
▁troop	-10.8669
▁국제우주정거장	-10.8669
▁맨해튼	-10.8669
▁무렵	-10.8669
▁바티칸	-10.8669
▁유람선	-10.8669
▁호나우두	-10.8669
닛	-10.8669
▁스탈린	-10.8669
▁깨끗	-10.8669
▁국무총리	-10.867
▁언덕	-10.867
▁퇴진	-10.867
▁행렬	-10.867
▁요즘	-10.867
▁시티그룹	-10.867
▁아스날	-10.867
▁왜곡	-10.867
▁유괴	-10.867
▁국민투표	-10.867
▁보조금	-10.8671
▁동참	-10.8671
▁편의	-10.8671
▁자발적	-10.8671
▁Day	-10.8671
▁절약	-10.8671
▁존스턴	-10.8672
▁자동차업계	-10.8672
▁연승	-10.8672
▁가끔	-10.8672
▁창설	-10.8673
▁역임	-10.8674
▁불안정	-10.8674
▁딘	-10.8675
▁모집	-10.8676
▁연방정부	-10.8676
▁도청	-10.8678
▁만능	-10.8681
▁개성	-10.8682
▁혼자	-10.8683
▁My	-10.8683
▁제치	-10.8683
▁시골	-10.8684
▁상병	-10.8684
▁합의문	-10.8685
▁피랍된	-10.8685
▁부속	-10.8685
▁수컷	-10.8686
▁만족	-10.8686
병원	-10.8687
▁지원금	-10.8689
▁위생	-10.8689
▁후임	-10.8694
▁준장	-10.8695
▁눈물	-10.8699
▁차지하는	-10.8699
▁준다	-10.87
▁화장	-10.8701
▁아프간에	-10.8701
id	-10.8705
▁유럽과	-10.8706
▁말했	-10.8707
▁유물	-10.8711
▁발매	-10.8712
▁영화에서	-10.8712
▁출전하지	-10.8714
▁참가한	-10.8723
▁매수	-10.8725
▁조선	-10.8725
▁불가능하다	-10.8725
▁경주	-10.8726
▁변화에	-10.873
▁호주에서	-10.873
▁수여	-10.8732
▁두려워	-10.8736
▁젊은이들	-10.8737
▁돌아와	-10.8738
▁퀸	-10.8749
▁지나가	-10.875
▁전용	-10.8758
빙	-10.8761
▁인정하	-10.8772
▁칼리	-10.8772
쟁	-10.8774
▁학생들에게	-10.8775
용으로	-10.8775
▁내렸	-10.8776
▁단장	-10.8776
▁회사에	-10.8777
맥	-10.8778
홀	-10.878
X	-10.8781
▁본드	-10.8783
▁가리	-10.8785
▁취하고	-10.8786
힘	-10.8789
조약	-10.8791
보드	-10.8791
▁유해	-10.8794
▁열리	-10.8808
돼있다	-10.8821
▁내지	-10.8824
포트	-10.8839
▁군과	-10.884
▁피랍	-10.8842
▁별도	-10.8848
▁지방에서	-10.8855
▁사용하	-10.8865
▁이적	-10.8866
지원	-10.8867
ick	-10.8871
식이	-10.8874
▁방송에서	-10.8876
▁인정하지	-10.8881
▁주최	-10.8881
ne	-10.8884
▁남겨	-10.8886
▁판다	-10.889
▁이스라엘에	-10.889
▁민주당이	-10.8893
▁전쟁이	-10.8897
▁전사	-10.8902
▁옹호	-10.8906
▁아는	-10.8914
▁부상자들	-10.8915
▁뉴저지	-10.8916
▁용납	-10.8918
▁의제	-10.8919
▁진행중	-10.892
촌	-10.8921
▁납치한	-10.8921
렐	-10.8921
덤	-10.8924
촉	-10.8925
▁포트	-10.8926
▁가즈프롬	-10.8926
▁내무장관	-10.8926
▁디트로이트	-10.8926
▁럼스펠드	-10.8926
▁마이스페이스	-10.8926
▁믿는다	-10.8926
▁박격포	-10.8926
▁억만장자	-10.8926
▁음주운전	-10.8926
▁인명피해	-10.8926
▁저렴	-10.8926
▁창기라이	-10.8926
▁라호르	-10.8926
▁러닝메이트	-10.8926
▁후지모리	-10.8926
▁take	-10.8926
▁피츠버그	-10.8926
▁코카인	-10.8926
▁가져올	-10.8926
▁알제리	-10.8926
▁국방위원장	-10.8926
▁덕분	-10.8926
▁돌아올	-10.8926
▁APEC	-10.8927
▁워렌	-10.8927
▁LG	-10.8927
▁아빠	-10.8927
▁참배	-10.8928
▁산맥	-10.8928
▁구조작업	-10.8928
▁클라크	-10.8929
▁치매	-10.893
▁발령	-10.893
▁매입	-10.8931
▁미셸	-10.8931
▁위협하	-10.8932
▁굿	-10.8932
▁로켓포	-10.8932
▁파커	-10.8934
▁회계	-10.8935
▁시민권	-10.8935
흐르	-10.8937
▁던졌다	-10.8946
▁약탈	-10.8948
▁걸렸다	-10.895
▁섭취	-10.8952
▁분경	-10.8954
▁해방	-10.8956
AM	-10.896
▁업무를	-10.896
▁돌아왔다	-10.8964
커스	-10.8965
▁투표율	-10.8965
▁미라	-10.8966
▁호텔에	-10.8966
▁인치	-10.8967
▁실패한	-10.8968
▁광부	-10.8968
▁말이	-10.8969
▁않습니다	-10.897
▁당일	-10.8971
▁진행될	-10.8975
이라면	-10.8976
▁한달	-10.8977
▁클린턴과	-10.898
▁불과하다	-10.898
▁해안에	-10.898
▁Al	-10.8981
▁강간	-10.8986
▁평화상	-10.8988
▁You	-10.8991
자리	-10.8999
▁가르	-10.9005
▁난민들	-10.9009
▁하에	-10.901
▁하비	-10.9011
▁축	-10.9013
▁북부에서	-10.9015
▁나치	-10.9021
▁발휘	-10.9023
▁지역이	-10.9026
궁	-10.9035
▁인공	-10.9036
▁프랑스에서	-10.904
▁재고	-10.9041
ail	-10.9042
제품	-10.9042
▁보냈	-10.9043
▁부리	-10.9044
▁충	-10.9044
▁간부	-10.9047
▁것이기	-10.9047
콘	-10.9049
▁덜	-10.9051
스크	-10.9052
▁유기	-10.9054
어질	-10.9057
부를	-10.9057
▁교도소에서	-10.906
▁계속할	-10.9061
신문	-10.9062
▁세운	-10.9065
▁찾아내	-10.9065
▁보좌관들	-10.9066
▁연말	-10.9074
▁수락	-10.9084
스테	-10.9085
성에	-10.9092
자료	-10.9094
군의	-10.9097
▁수사에	-10.9098
▁시간에	-10.9101
났	-10.9103
▁상사	-10.9108
▁비극	-10.9111
▁이슬라마바드	-10.9115
▁사살했다	-10.9118
겼	-10.9119
▁휘	-10.9121
▁벌어지	-10.9125
▁하자	-10.9128
▁페리	-10.9129
▁군중들	-10.9136
ha	-10.9139
▁재무	-10.914
▁이끌었	-10.914
▁프레	-10.9142
▁일치	-10.9146
▁이들에게	-10.9147
▁차지한	-10.915
▁위치해	-10.9153
▁아시아에서	-10.9154
▁약속한	-10.9157
▁날이	-10.916
소한	-10.9166
▁가즈니	-10.9167
▁에티오피아	-10.9171
▁석방된	-10.9173
▁파크	-10.9173
▁골드	-10.918
라인	-10.9181
핑	-10.9183
▁잇따	-10.9185
냥	-10.9185
▁빌리	-10.9187
▁금메달	-10.9189
▁엘리베이터	-10.9189
▁최고경영자	-10.9189
껏	-10.9189
넌	-10.9189
▁라모스	-10.9189
▁남아프리카공화국	-10.9189
▁넬슨	-10.9189
▁북극곰	-10.9189
▁돌아다니	-10.9189
▁떠오르	-10.9189
▁재배	-10.919
▁포획	-10.919
▁결합	-10.9191
▁가혹	-10.9191
▁설정	-10.9192
▁진료	-10.9192
▁처형	-10.9192
▁배심원단	-10.9192
스카	-10.9193
▁대테러	-10.9193
▁마찰	-10.9194
▁실무	-10.9194
▁중점	-10.9194
▁파편	-10.9195
head	-10.9195
▁갔	-10.9196
▁밀러	-10.9196
▁포경선	-10.9197
▁다가오	-10.9201
▁예선	-10.9201
▁베어	-10.9201
▁환수	-10.9202
▁사이버	-10.9203
▁반등	-10.9204
▁미셀	-10.9206
안토니오	-10.9206
▁펄	-10.9206
▁맞았다	-10.9207
▁넣었다	-10.9208
▁사라진	-10.9208
▁배포	-10.9209
▁소유주	-10.921
▁거친	-10.921
▁사회당	-10.9212
▁선택했다	-10.9217
▁던져	-10.9217
▁찾았다	-10.9224
▁그곳에서	-10.923
▁먼지	-10.9232
▁목적이	-10.9232
▁하면서	-10.9233
학생	-10.9239
▁대비해	-10.9239
▁여단	-10.9244
▁전체가	-10.9245
▁전파	-10.9251
▁대선에	-10.9254
▁롤	-10.9255
▁기원	-10.9256
▁입었으	-10.9256
▁제공하기	-10.9261
인데	-10.9272
der	-10.9279
▁독재자	-10.9282
▁됐으	-10.9283
low	-10.9286
▁확인하기	-10.9286
▁보유한	-10.9288
시티	-10.9291
▁급증	-10.9297
▁표시했다	-10.9299
▁수년	-10.9299
▁Y	-10.9299
▁한명	-10.9299
ts	-10.9301
▁열기	-10.9301
칭	-10.9304
▁정부군과	-10.9306
▁캔	-10.9307
▁활동이	-10.931
▁전하고	-10.9311
버트	-10.9313
연구	-10.9314
▁월스트리트	-10.9316
▁대원들	-10.9316
때까지	-10.9318
멜	-10.9321
Y	-10.9323
척	-10.9327
타운	-10.9329
▁전시회	-10.933
앤	-10.9332
▁폭로	-10.9333
김	-10.9333
▁부위	-10.9333
▁유지할	-10.9334
▁남쪽	-10.9337
out	-10.9342
▁걸려	-10.9345
▁일시적	-10.9348
▁문제점	-10.9353
▁축출	-10.9359
냈	-10.9365
▁성분	-10.9365
▁처음에	-10.9367
▁과격	-10.9369
▁회원들	-10.937
타임	-10.9377
▁틀	-10.9381
▁위협에	-10.9396
▁장소에서	-10.9396
▁즐기는	-10.9397
▁클린턴에	-10.9397
▁바지	-10.9399
률이	-10.9399
룬	-10.9403
▁서한	-10.9407
▁년형	-10.9409
▁써	-10.9409
▁수요일에	-10.941
▁소유한	-10.9414
▁언급한	-10.9417
▁당황	-10.9423
BC	-10.9433
▁일단	-10.9433
▁소비자들이	-10.9434
▁계획이라	-10.9436
스탄	-10.9441
탁	-10.9444
▁설명하	-10.9445
▁중상	-10.9456
▁오스카	-10.9457
▁투명	-10.9458
▁military	-10.9459
▁굉장	-10.9459
▁브루니	-10.9459
▁시애틀	-10.9459
▁엉덩이	-10.9459
▁해수욕장	-10.9459
▁그린피스	-10.9459
▁크레이그	-10.9459
▁애완동물	-10.9459
▁대한민국	-10.9459
▁카지노	-10.9459
▁바하마	-10.9459
▁낭비	-10.9459
▁고등법원	-10.9459
▁Intern	-10.9459
▁좌파	-10.946
▁텐트	-10.946
▁브레이크	-10.946
▁면접	-10.946
▁스콧	-10.946
▁무소속	-10.946
▁동굴	-10.946
▁State	-10.946
▁밝혀냈다	-10.946
▁슈퍼볼	-10.946
▁병사들이	-10.946
▁오늘밤	-10.9461
▁불황	-10.9461
▁장벽	-10.9462
▁추천	-10.9462
▁소총	-10.9462
▁절감	-10.9462
▁돌아온	-10.9463
▁정밀	-10.9463
▁외쳤다	-10.9463
▁생명체	-10.9464
▁승점	-10.9464
▁유골	-10.9464
▁전범	-10.9464
▁교내	-10.9465
▁창조	-10.9465
▁금속	-10.9465
▁치른	-10.9465
▁다행히	-10.9465
▁반환	-10.9466
▁보수당	-10.9467
▁자녀들	-10.9468
▁휴식	-10.9468
▁매출	-10.9468
▁기념식	-10.9469
▁네바다주	-10.9469
▁위축	-10.9472
▁모리	-10.9472
▁인도분	-10.9473
▁단식	-10.9474
▁느낀다	-10.9475
▁풀어	-10.9475
▁김씨	-10.9477
YO	-10.9477
▁웨이	-10.9478
▁제보	-10.9478
▁분야에	-10.9478
▁할지	-10.9479
▁밀어	-10.948
마르	-10.948
▁아민	-10.9481
▁남미	-10.9483
▁무산	-10.9485
▁화제	-10.9486
▁소화	-10.9487
▁벗	-10.9487
▁복장	-10.9491
▁공안	-10.9491
▁구단	-10.9493
▁반대하	-10.9493
▁근처에	-10.9495
▁로드	-10.9495
▁출연해	-10.9496
▁무시하	-10.9496
▁받아들이지	-10.9497
▁나체	-10.9499
▁경찰청	-10.9499
▁신원이	-10.9499
▁헐	-10.9499
▁버지니아주	-10.95
▁좋아한다	-10.95
▁남쪽으로	-10.9506
▁간주	-10.9506
업체들	-10.9509
▁이어졌다	-10.9509
▁장성	-10.9514
▁지지자들에게	-10.9519
▁통해서	-10.952
▁원치	-10.9523
▁그들에게	-10.9525
▁참가하	-10.9526
▁케이시	-10.9527
▁거래됐다	-10.9534
▁내리는	-10.9539
▁기울	-10.9545
▁사진들	-10.9549
▁과제	-10.9553
▁go	-10.9554
▁알라	-10.9555
▁참여했다	-10.9565
▁성명서	-10.9568
▁명단에	-10.9568
▁국경지역	-10.9571
▁입수한	-10.9571
▁강타한	-10.9571
▁제일	-10.9572
장비	-10.9573
▁번지	-10.9575
벨트	-10.9578
베스	-10.9578
▁인정받	-10.9586
▁준수	-10.9588
▁방문에	-10.9591
▁탄도	-10.9597
▁재해	-10.9602
▁러시아와	-10.9604
▁폭력사태로	-10.9614
▁최고위	-10.9616
투표	-10.9617
서비스	-10.9618
▁위안	-10.9619
▁유발	-10.9622
▁시일	-10.9626
월드	-10.9626
세계	-10.9627
구조	-10.9628
▁피어	-10.9629
▁개최된	-10.963
▁살아남	-10.963
▁취소했다	-10.9632
▁법적으로	-10.9635
▁위장	-10.9636
▁대안	-10.9637
▁세트에서	-10.9637
▁목요일에	-10.9646
▁상원에서	-10.9648
▁시청자들	-10.9649
▁근무하	-10.9651
▁조국	-10.9658
▁종식	-10.9659
▁이라크인	-10.9664
바르	-10.9685
▁전쟁에서	-10.9689
▁장기적	-10.9693
▁친환경	-10.9693
사고	-10.9699
▁밝히기	-10.97
▁이민자들	-10.9707
세포	-10.9709
▁관리자	-10.9713
▁계속하고	-10.9715
▁가고	-10.9718
▁편집	-10.972
시에서	-10.9725
▁개발한	-10.9726
▁피고인	-10.9729
▁선원들	-10.9731
▁결정이	-10.9733
▁요청한	-10.9733
▁재선	-10.9733
▁우승자	-10.9734
빗	-10.9736
축구연맹	-10.9737
셨	-10.9737
▁Associat	-10.9737
▁England	-10.9737
▁기준금리	-10.9737
▁듣지	-10.9737
▁머리카락	-10.9737
▁버냉키	-10.9737
▁슬픔	-10.9737
▁원자바오	-10.9737
▁크로아티아	-10.9737
▁텔레비전	-10.9737
▁트라볼타	-10.9737
▁헬리콥터	-10.9737
▁호날두	-10.9737
▁규칙	-10.9737
▁유수프	-10.9737
▁침묵	-10.9737
▁스튜디오	-10.9737
▁바바라	-10.9737
▁휴스턴	-10.9737
▁멸종위기	-10.9737
▁감바	-10.9737
▁신용카드	-10.9738
▁놀랄	-10.9738
▁처방	-10.9738
▁숨겨	-10.9738
▁대선주자	-10.9739
▁도핑	-10.9739
▁논문	-10.9739
▁요르단강	-10.9739
▁남녀	-10.9739
▁레이저	-10.974
▁모험	-10.974
▁반체제	-10.974
▁구호품	-10.974
▁금융시장	-10.9742
▁복지	-10.9744
▁느끼는	-10.9745
▁탐사선	-10.9745
▁가택	-10.9745
▁대기업	-10.9748
▁졸업	-10.9748
▁폴슨	-10.9748
▁역대	-10.9748
▁입력	-10.9749
▁발이	-10.9749
▁시카고에서	-10.9751
▁원주민	-10.9752
▁코피	-10.9753
▁지나치	-10.9755
▁중단됐다	-10.9757
▁프로그램이	-10.9762
▁일어나지	-10.9763
▁첫날	-10.9763
▁라울	-10.9764
▁끝났다	-10.9766
▁조씨	-10.9769
son	-10.977
▁여기서	-10.9777
▁이르기	-10.9778
사이트	-10.9778
▁유명하다	-10.9781
치료	-10.9782
▁개설	-10.9784
▁약품	-10.9786
▁강에	-10.9788
▁탈레반과	-10.9789
카드	-10.9789
부가	-10.9792
같이	-10.9793
▁Ma	-10.9797
▁안나	-10.9797
top	-10.9803
▁가족들에게	-10.9804
ig	-10.9818
▁시작될	-10.9818
▁절도	-10.982
▁카르	-10.982
▁fir	-10.9823
▁선적	-10.9823
▁군중	-10.9828
▁세부	-10.9831
▁투기	-10.9831
RK	-10.9832
▁결함	-10.9833
▁민주적	-10.9838
▁과정에	-10.9839
▁세가	-10.9841
▁중반	-10.9841
▁풍	-10.9847
▁선박이	-10.9847
▁결승전	-10.9848
▁경비원	-10.9848
▁수행하	-10.9848
▁리오	-10.9852
▁못하다	-10.9856
▁치를	-10.9856
▁총리직	-10.9861
▁반박	-10.9863
▁강화할	-10.9865
▁대통령으로	-10.9867
▁있었기	-10.9868
air	-10.9868
▁쓰는	-10.9869
▁선출된	-10.9873
▁움직임이	-10.9876
ma	-10.9877
▁헬	-10.9878
호가	-10.9881
▁집회에	-10.9884
받은	-10.9884
▁탐험	-10.9887
▁이른다	-10.9891
▁배심원	-10.9895
▁입어	-10.9903
▁틸	-10.9905
▁공무원들	-10.9908
캐	-10.9911
자동차	-10.9913
▁농민	-10.9915
디스	-10.9915
베르	-10.9919
▁다수의	-10.992
▁처분	-10.9923
▁돌입	-10.9926
▁For	-10.9927
▁알려	-10.9928
하겠	-10.9929
▁피살	-10.9929
▁들어와	-10.9936
▁남아있	-10.994
▁바닥에	-10.9943
▁취하	-10.9946
▁형태로	-10.9946
▁조치로	-10.9949
▁강조하	-10.9951
▁입원했다	-10.9954
▁자카르타	-10.9959
▁추락한	-10.996
럴	-10.9961
▁오바마에	-10.9964
mi	-10.9969
▁취하지	-10.997
▁급락	-10.9976
▁생각하	-10.998
▁조직원	-10.999
▁지수가	-10.9994
다소	-10.9996
▁변호사들	-10.9997
기금	-11
▁연구가	-11.0002
▁모으	-11.0002
▁컵	-11.0006
베리	-11.0007
▁돈이	-11.0009
▁물어	-11.0009
▁넘겨	-11.0011
▁구제금융	-11.0012
▁주말에	-11.0015
▁음료	-11.0016
▁알바니아	-11.0021
▁House	-11.0023
▁몸값	-11.0023
▁뮌헨	-11.0023
▁산타클로스	-11.0023
▁애니메이션	-11.0023
▁애틀랜타	-11.0023
▁칸다하르	-11.0023
껴	-11.0023
NEW	-11.0023
▁식민지	-11.0023
▁맥케인	-11.0023
▁브루스	-11.0023
▁마사지	-11.0024
▁히드로	-11.0024
▁Part	-11.0024
▁적응	-11.0024
▁기획	-11.0024
▁복수	-11.0025
▁집필	-11.0025
▁가죽	-11.0025
▁군사작전	-11.0025
▁금년	-11.0025
▁출국	-11.0027
▁마침	-11.0028
▁새겨	-11.0028
▁권위	-11.0028
▁소유권	-11.003
▁추문	-11.0031
▁장거리	-11.0031
▁모래	-11.0033
▁불교	-11.0034
▁대폭	-11.0034
▁나와즈	-11.0034
▁편안	-11.0035
▁신병	-11.0035
▁주주들	-11.0037
▁do	-11.0038
▁다이애나비	-11.0038
▁대령	-11.004
▁모았다	-11.0041
▁교육부	-11.0042
▁구경	-11.0042
▁받아들였다	-11.0042
▁예선전	-11.0042
▁파키스탄에	-11.0044
났다	-11.0046
▁알렌	-11.0046
▁경우에	-11.0047
▁효율적	-11.005
▁압	-11.005
▁착용하	-11.0051
▁관점에서	-11.0052
▁상관없	-11.0054
▁생존자들	-11.0059
▁자정	-11.0059
▁장기간	-11.006
▁인명	-11.0061
▁있겠	-11.0063
▁태우고	-11.0065
▁예정되어	-11.0066
▁폭격기	-11.0068
▁참사	-11.0069
▁주소	-11.007
▁여아	-11.0071
▁녹화	-11.0072
▁남성과	-11.0072
os	-11.0073
정인	-11.0073
▁차원에서	-11.0079
▁여야	-11.008
▁시계	-11.0081
▁그곳에	-11.0088
▁인도주의적	-11.0089
▁제외하고	-11.0094
▁상승하	-11.0094
▁연행	-11.0096
▁데비	-11.0099
슬리	-11.0099
▁레이더	-11.01
▁Pa	-11.01
▁멜	-11.0103
da	-11.0107
어진	-11.0111
▁발달	-11.0113
▁대우	-11.0113
의원	-11.0114
▁구호단체	-11.0114
▁칼라	-11.0116
▁have	-11.0116
▁클로	-11.012
▁내고	-11.0125
▁AT	-11.0127
▁프라	-11.0128
▁기울이	-11.013
▁확신했다	-11.0132
▁대회에	-11.0135
▁확인된	-11.0137
▁중심부	-11.0145
▁이송됐다	-11.0147
▁제트	-11.0152
▁판결에	-11.0154
▁발견되	-11.0155
▁개발에	-11.0156
▁En	-11.0158
▁지속되	-11.0158
ft	-11.0163
▁하더라	-11.0166
▁dis	-11.0175
농	-11.0175
▁대답했다	-11.018
▁어린이들이	-11.018
▁분쟁이	-11.0188
▁내용에	-11.0188
▁경제학자들	-11.0196
▁평양에서	-11.0197
▁부결	-11.0197
▁내리고	-11.0199
▁정치적으로	-11.0201
▁투자자	-11.0202
▁명령했다	-11.0206
떼	-11.021
▁선장	-11.021
홍	-11.021
협정	-11.0212
▁원하지	-11.0215
iz	-11.0217
▁제작된	-11.0217
▁강화하고	-11.0219
있었다	-11.0233
▁내게	-11.0234
▁국회의원들	-11.0235
▁예술가	-11.0242
현정	-11.0244
▁줄리	-11.0245
▁소속의	-11.0249
만으로	-11.0252
▁교전이	-11.0257
▁일으키는	-11.0259
▁출	-11.0261
되었는데	-11.0263
장과	-11.0275
일라	-11.0283
▁시작되	-11.0284
▁장악하	-11.029
▁엘리	-11.0292
▁금연	-11.0293
▁필립	-11.0295
▁이슬람교	-11.0297
▁실업	-11.0298
▁활동하	-11.0303
▁강행	-11.0304
선거	-11.0306
▁묵	-11.0306
▁줄이는	-11.0309
▁검토하	-11.031
▁적자	-11.0311
▁주당	-11.0311
한국	-11.0313
▁남기	-11.0314
▁세탁	-11.0315
▁끊임없	-11.0317
▁떨어질	-11.0317
▁마케팅	-11.0317
▁베어스턴스	-11.0317
▁베탕쿠르	-11.0317
▁부적절	-11.0317
▁브리트니	-11.0317
▁비즈니스	-11.0317
▁썼다	-11.0317
▁아칸소	-11.0317
▁에르도간	-11.0317
▁에스토니아	-11.0317
▁오케스트라	-11.0317
▁타협	-11.0317
▁테러지원국	-11.0317
▁펭귄	-11.0317
▁캔자스	-11.0317
▁되돌아	-11.0317
▁오렌지	-11.0317
▁맥도날드	-11.0317
▁소탕작전	-11.0317
▁사회에	-11.0318
▁고릴라	-11.0318
▁영광	-11.0319
▁USA	-11.032
▁버튼	-11.032
▁저택	-11.032
▁수만명	-11.032
▁호송	-11.0321
▁조짐	-11.0321
▁영감	-11.0321
최지	-11.0322
▁만여명	-11.0323
▁타결	-11.0323
▁서약	-11.0325
▁개념	-11.0325
▁기술이	-11.0326
▁들어온	-11.0327
▁평소	-11.0328
▁식수	-11.0331
▁파문	-11.0334
▁풀려났다	-11.0334
▁여유	-11.0334
▁공조	-11.0334
▁입구	-11.0335
▁프	-11.0337
▁갈라	-11.034
▁적십자사	-11.0342
▁가자지구에서	-11.0342
▁저지르	-11.0342
▁가기	-11.0343
▁버전	-11.0343
▁국가인	-11.0345
▁앞선	-11.0348
▁미치지	-11.0349
▁유용	-11.035
▁느꼈다	-11.035
▁가져다	-11.0351
당했다	-11.0352
▁겪었다	-11.0353
▁잡았다	-11.0354
▁연방준비제도이사회	-11.0361
▁방문객들	-11.0361
▁갖기	-11.0365
▁적극	-11.0369
ub	-11.037
▁도주	-11.037
▁하산	-11.0371
▁명에서	-11.0371
▁인도네시아에서	-11.0374
▁Ha	-11.0378
▁해명	-11.0379
▁Gr	-11.0383
받고	-11.0383
▁미만	-11.0385
워드	-11.039
▁괴한	-11.0393
▁전년	-11.0393
▁붕괴된	-11.0394
▁이용하	-11.0394
▁싶어한다	-11.0395
▁행사에서	-11.04
▁주차	-11.0406
▁심사	-11.0406
▁나아가	-11.0407
▁재판이	-11.0408
▁슛	-11.0411
▁재판에	-11.0413
▁Be	-11.0414
▁세관	-11.0415
하러	-11.0416
▁성지	-11.0416
▁중심에	-11.0417
▁보호하고	-11.042
▁없었으	-11.0421
▁국회에	-11.0422
▁초래	-11.0423
▁건수	-11.0427
▁동맹국들	-11.0429
▁논의했다	-11.0434
▁르	-11.0436
▁올랐으	-11.0437
사이	-11.0437
▁펼쳐	-11.0442
▁유지하기	-11.0446
▁청년	-11.0447
후보	-11.0449
▁추락했다	-11.0449
▁지원하기	-11.0461
▁생산하는	-11.0462
▁파손됐다	-11.0462
▁프랑스와	-11.0466
▁말하면서	-11.0467
▁자금이	-11.047
▁해왔다	-11.0474
▁통신사	-11.0475
롤	-11.0476
차이	-11.0485
▁여사와	-11.0485
▁죽었다	-11.0498
▁관광지	-11.0501
▁비만	-11.0502
▁사람과	-11.0506
▁물었다	-11.0508
나갈	-11.051
▁사임했다	-11.0513
사진	-11.0514
▁부르는	-11.0515
생활	-11.0517
▁독재	-11.0518
납	-11.0518
레나	-11.0527
▁제공하고	-11.053
▁되었	-11.0532
사령관	-11.0533
▁왔으	-11.0533
생산	-11.0535
리어	-11.054
▁바닥	-11.054
▁열렸	-11.0541
▁안전에	-11.0545
ah	-11.0546
▁전체에	-11.055
바리	-11.0551
럼	-11.0554
▁공판	-11.0555
▁가족에게	-11.0556
▁쳐	-11.0558
▁요청할	-11.0563
▁오리	-11.0563
▁개최되	-11.0568
▁높아	-11.0569
▁의장이	-11.057
▁고무	-11.0576
▁안된다	-11.058
▁마을에	-11.0584
해준	-11.0585
▁인접	-11.0586
▁줬다	-11.059
담당	-11.0597
우드	-11.06
▁벌어졌	-11.0601
널	-11.0605
연대	-11.0605
▁손자	-11.061
▁없애	-11.0612
▁오클라호마	-11.0612
렘	-11.0613
ian	-11.0614
▁득표	-11.0619
딜	-11.0619
겔	-11.062
눌	-11.062
▁Foreign	-11.062
▁WTO	-11.062
▁골든글로브	-11.062
▁구호물품	-11.062
▁뉴욕타임스	-11.062
▁동유럽	-11.062
▁야스쿠니	-11.062
▁유니세프	-11.062
▁좋게	-11.062
▁침팬지	-11.062
▁티셔츠	-11.062
▁포괄적	-11.062
▁항생제	-11.062
▁황우석	-11.062
▁흰색	-11.062
렁	-11.062
캄	-11.062
▁유조선	-11.062
week	-11.062
▁다운로드	-11.062
▁일으켜	-11.062
▁크로커	-11.062
▁니케이	-11.062
▁유적지	-11.062
▁모로코	-11.062
▁Time	-11.062
▁Secretary	-11.062
▁착취	-11.062
▁혈액	-11.062
▁첩보	-11.062
▁바꿔	-11.0621
▁출범	-11.0621
▁복권	-11.0621
▁트로피	-11.0621
▁양키스	-11.0621
▁요새	-11.0621
▁종합	-11.0621
▁파파라치	-11.0621
▁지연되	-11.0622
▁폭등	-11.0622
▁운반	-11.0623
▁패리스	-11.0623
▁근교	-11.0623
▁대략	-11.0624
▁지도자들과	-11.0624
▁현지경찰	-11.0624
▁스텔	-11.0624
▁어두운	-11.0624
▁역설	-11.0624
▁풍선	-11.0624
▁say	-11.0625
느냐	-11.0626
▁하얀	-11.0626
회의에서	-11.0626
▁당의	-11.0627
▁아이돌	-11.0627
▁거둔	-11.0629
▁볼튼	-11.0629
▁상반기	-11.063
▁엘바	-11.063
▁설문	-11.0631
▁소란	-11.0634
▁영원	-11.0635
▁명칭	-11.0635
▁알려주	-11.0637
▁뒤집	-11.064
▁파손되	-11.064
▁제프리	-11.0641
▁부유	-11.0642
▁휩쓸	-11.0642
▁타이어	-11.0643
▁조속	-11.0643
▁작용	-11.0644
▁모르겠다	-11.0647
▁쏟아	-11.0648
▁묘지	-11.0648
▁줄여	-11.0649
▁예상보다	-11.065
to	-11.065
▁증인	-11.0652
▁기권	-11.0659
▁의자	-11.066
▁쏘	-11.0661
▁제방	-11.0663
져야	-11.0663
▁미시간	-11.0663
▁채권	-11.0663
▁트레	-11.0666
▁분실	-11.0667
▁중령	-11.0667
▁지낸	-11.0669
▁실어	-11.0671
▁양성	-11.0671
▁산소	-11.0672
▁보도한	-11.0672
▁자랑	-11.0673
▁투표할	-11.0673
▁전염	-11.0675
▁지구에서	-11.0677
▁주류	-11.0677
▁사용하기	-11.0679
ie	-11.0682
▁파일	-11.0684
▁차원	-11.0689
잡	-11.0691
IS	-11.0695
▁입학	-11.0696
ner	-11.0697
▁사랑하는	-11.0708
▁기리	-11.0715
학과	-11.0732
▁시위자	-11.0736
이기도	-11.0738
▁기자들이	-11.0739
▁파이	-11.0741
inter	-11.0742
▁설치된	-11.0745
▁아시	-11.0746
▁보내기	-11.0748
▁장악	-11.075
받아	-11.0753
▁보낸다	-11.0759
▁과장	-11.0761
▁승리하	-11.0763
▁흥미	-11.0764
클리	-11.0764
보고	-11.0767
려진	-11.0768
았던	-11.0774
▁우리들	-11.0774
리오	-11.0775
▁부인하	-11.0777
안보	-11.0779
▁추산	-11.0781
스케	-11.0781
▁주장이	-11.0782
▁장착	-11.0794
▁부문에서	-11.0796
▁올리고	-11.0802
▁사용한다	-11.0805
▁서울에	-11.0811
▁친척	-11.0812
▁신도	-11.0814
달라	-11.0815
▁환경에	-11.0819
▁나타난	-11.0832
▁끄	-11.0835
▁프레드	-11.0837
J	-11.0846
버린	-11.0847
시즌	-11.0852
개혁	-11.0853
▁명시	-11.0854
▁이해할	-11.0858
▁편이	-11.0865
▁킨	-11.0871
▁확인하	-11.0874
▁전설	-11.0876
▁자신에	-11.088
머리	-11.0885
▁통일	-11.0886
▁요구에	-11.0886
one	-11.0891
▁국무장관이	-11.0893
▁지방의	-11.0893
▁시까지	-11.0895
▁클레	-11.0896
land	-11.0896
▁광부들	-11.0896
▁사육	-11.0905
▁에스	-11.091
▁클라	-11.0911
호프	-11.0922
왈	-11.0923
▁보호하는	-11.0924
▁뉴욕에	-11.0924
▁년전	-11.0926
▁조절	-11.0927
▁피닉스	-11.0928
▁있거	-11.0929
▁가자지구에	-11.093
▁표결	-11.0931
▁물러	-11.0932
▁아랍에미리트	-11.0932
밍	-11.0932
▁NFL	-11.0932
▁WFP	-11.0932
▁국회의사당	-11.0932
▁로스앤젤레스	-11.0932
▁베이루트	-11.0932
▁불렀다	-11.0932
▁스튜어트	-11.0932
▁클루니	-11.0932
▁평화협상	-11.0932
▁AFP	-11.0932
▁되풀이	-11.0932
▁모바일	-11.0932
▁제니퍼	-11.0932
▁마라도나	-11.0932
TON	-11.0932
▁셰이크	-11.0932
▁교과서	-11.0932
▁린제이	-11.0932
▁흐름	-11.0932
▁election	-11.0933
▁잔혹	-11.0933
▁취득	-11.0933
▁여자아이	-11.0933
▁페이스북	-11.0933
▁LPGA	-11.0933
▁침범	-11.0933
▁칭찬	-11.0933
▁진흙	-11.0933
▁전략적	-11.0933
▁정해지지	-11.0933
▁닉슨	-11.0933
▁학년	-11.0934
▁가속화	-11.0934
▁연극	-11.0934
▁호킹	-11.0935
▁워너	-11.0935
▁불평	-11.0935
▁점프하	-11.0935
▁학위	-11.0935
▁모터	-11.0937
▁같습니다	-11.0937
▁식물	-11.0938
▁스카이	-11.0938
▁AU	-11.0938
▁추출	-11.0938
▁병역	-11.0939
▁죽이	-11.0939
▁아바	-11.094
▁몽	-11.094
▁기습	-11.0941
▁연이	-11.0941
▁현행	-11.0941
▁극단주의자들	-11.0942
▁머리에	-11.0942
▁정교	-11.0943
▁유행	-11.0943
▁전대통령	-11.0946
▁우방	-11.0946
▁참여하는	-11.0946
▁세인트	-11.0947
▁가축	-11.0948
▁연임	-11.0949
▁줄이고	-11.0951
▁Con	-11.0953
▁인체	-11.0953
▁인계	-11.0954
여부	-11.0954
▁회부	-11.0954
▁격리	-11.0956
▁동전	-11.0956
▁뚫	-11.0959
▁정오	-11.0961
투어	-11.0962
▁참여하지	-11.0963
▁호화	-11.0966
▁비유	-11.0966
버릴	-11.0967
▁불화	-11.0967
▁참석해	-11.0971
▁우리베	-11.0971
인들에게	-11.0972
▁아이티	-11.0976
▁이룩	-11.0977
▁거주지	-11.0984
▁위협했다	-11.0985
▁시달리고	-11.0985
▁성공회	-11.0985
▁반미	-11.0986
▁라인	-11.0987
▁Vi	-11.0991
점에서	-11.0992
▁기후변화	-11.0993
▁무장대원들	-11.0995
▁기술자	-11.0997
▁실력	-11.0997
▁비교해	-11.1
▁Mar	-11.1
전쟁	-11.1001
▁그라운드	-11.1006
웠	-11.1006
▁개조	-11.1009
▁자크	-11.1009
▁포위	-11.1014
▁De	-11.1016
문화	-11.1016
▁감시단	-11.1019
▁바다로	-11.102
▁서명했다	-11.1022
▁만여	-11.1022
▁납	-11.1023
었을	-11.1025
PA	-11.1027
▁선정됐다	-11.1028
시켜야	-11.1029
▁한다면	-11.1029
▁사제	-11.1031
▁이어질	-11.1032
▁노스	-11.1034
▁수용할	-11.1036
▁선언한	-11.1037
▁끝나는	-11.1038
▁열정	-11.104
ice	-11.104
▁통과하	-11.1042
▁해외에서	-11.1042
요원	-11.1045
▁연방수사국	-11.1046
▁비난한	-11.1046
▁들어가는	-11.1052
▁국민이	-11.1054
▁부장	-11.1055
▁정신과	-11.1056
스에서	-11.1056
▁전하	-11.1056
▁주교	-11.1056
논	-11.1065
▁동영상에	-11.1066
AR	-11.1068
레이크	-11.1072
▁노력에	-11.1072
▁확보했다	-11.1076
▁디스	-11.1077
▁정보국	-11.1081
▁인기가	-11.1082
▁단기	-11.1083
▁액	-11.1084
▁의원들에게	-11.109
▁적당	-11.1091
▁때로	-11.1097
▁유대	-11.111
▁청소년들	-11.1112
▁특이	-11.1122
▁IT	-11.1123
▁오픈에서	-11.1124
▁힐튼이	-11.1124
▁우주인	-11.1124
데르	-11.1127
▁생성	-11.1128
▁당국과	-11.1133
▁아내와	-11.1136
▁리버	-11.1136
지구	-11.1139
▁제안한	-11.1142
▁기간에	-11.1143
▁중단하고	-11.1149
▁일상적	-11.115
ib	-11.1151
▁참가했다	-11.1155
율이	-11.1156
▁솔	-11.116
▁헤어	-11.1162
▁단계에	-11.1166
▁학생들과	-11.1167
▁어머니와	-11.1167
레오	-11.1169
ti	-11.1171
▁가서	-11.1177
▁앙	-11.1188
▁혼란에	-11.1189
▁출전한	-11.119
▁판사들	-11.1196
▁닐	-11.1196
▁본국	-11.1202
▁가져	-11.1207
▁이뤄	-11.1208
▁참석하기	-11.1209
학회	-11.121
총장	-11.1211
▁승자	-11.1216
▁남편과	-11.1217
▁지니	-11.1223
▁결의안에	-11.123
▁선거전	-11.1234
바로	-11.1236
▁부통령이	-11.1238
미국	-11.1238
▁d	-11.1241
퀴	-11.1244
▁루이지애나	-11.1244
▁안되	-11.1245
꾼	-11.1248
전선	-11.125
▁소방관	-11.125
▁살아가	-11.1253
▁넣어	-11.1254
팩	-11.1254
▁광우병	-11.1255
▁국가주석	-11.1255
▁뉴캐슬	-11.1255
▁맞붙	-11.1255
▁매머드	-11.1255
▁몸무게	-11.1255
▁무너져	-11.1255
▁왕복선	-11.1255
▁이르렀다	-11.1255
▁집무실	-11.1255
▁카자흐스탄	-11.1255
잎	-11.1255
▁당나귀	-11.1255
▁재확인	-11.1255
마누엘	-11.1255
▁김선일	-11.1255
▁대주교	-11.1255
▁무너진	-11.1255
▁중산층	-11.1255
▁글래스고	-11.1255
▁예언자	-11.1255
▁영부인	-11.1255
▁지중해	-11.1255
▁세비야	-11.1255
ASH	-11.1255
▁효력	-11.1255
▁퇴치	-11.1255
▁쇼핑몰	-11.1255
▁수십억	-11.1255
▁연휴	-11.1256
▁둘째	-11.1256
▁아마존	-11.1256
▁농담	-11.1256
▁높아졌다	-11.1256
▁공군기지	-11.1256
▁레논	-11.1257
▁취약	-11.1257
▁예배	-11.1257
▁허블	-11.1257
▁몰래	-11.1257
▁유혈	-11.1258
▁할아버지	-11.1258
▁선데이	-11.1258
▁지지도	-11.1258
▁밤새	-11.1258
▁공백	-11.1259
▁피닉스호	-11.126
▁force	-11.1261
▁mm	-11.1262
▁종양	-11.1262
▁폐기물	-11.1263
▁제패	-11.1263
▁천문학자들	-11.1264
▁CO	-11.1264
▁감량	-11.1265
▁계열사	-11.1265
▁우연	-11.1266
▁책정	-11.1266
▁기름	-11.1266
▁사법부	-11.1267
▁난동	-11.1267
▁이례적	-11.1268
▁코너	-11.1269
RA	-11.1269
▁정체	-11.1269
▁부른	-11.1271
▁지속될	-11.1271
▁버진	-11.1273
▁모스	-11.1273
▁가결	-11.1274
▁패한	-11.1274
▁비행기에	-11.1274
▁재발	-11.1275
▁페르	-11.1275
ncy	-11.1276
▁성경	-11.1276
▁강연	-11.1277
▁상위	-11.1278
▁감원	-11.1278
보라	-11.128
▁있었는지	-11.1281
▁방치	-11.1283
베키	-11.1286
▁공세	-11.1287
▁정상회의	-11.1287
▁고수	-11.1288
▁비가	-11.129
▁시경	-11.1292
▁나란	-11.1295
▁고려해	-11.1303
▁전례	-11.1303
▁한쪽	-11.1304
▁가정에	-11.1304
▁당원	-11.1306
▁전송	-11.1307
▁내정자	-11.1308
▁스토	-11.1308
▁채우	-11.1309
메르	-11.131
▁지키기	-11.1311
▁라이프	-11.1313
▁광대	-11.1318
▁기소했다	-11.132
선에	-11.1322
▁제약	-11.1322
▁말에	-11.1323
워진	-11.1326
▁주가가	-11.1331
▁현안	-11.1337
▁발리	-11.1338
▁시작되었다	-11.1338
국들	-11.1342
▁조사하기	-11.1342
▁확실하지	-11.1348
직에서	-11.1348
▁구상	-11.1352
봐야	-11.1354
▁여자들	-11.1357
법안	-11.1358
▁사업가	-11.1362
▁취임한	-11.1364
▁벌어들	-11.1367
▁떼	-11.1367
▁걸었다	-11.1371
▁원자력	-11.1372
▁공학	-11.1373
▁돌리	-11.1374
▁Me	-11.1379
▁상의	-11.1387
▁모스크바에서	-11.1387
AG	-11.1388
▁조사단	-11.1389
▁총선에	-11.1391
▁시점에서	-11.1398
▁문자	-11.1401
▁포기했다	-11.1402
▁공격수	-11.1405
▁추구	-11.1406
▁증진	-11.1407
▁경영자	-11.1407
▁꾸	-11.141
pp	-11.1411
▁독자	-11.1415
▁연기했다	-11.1415
첨	-11.1418
▁낙	-11.1421
아나	-11.1425
▁청소	-11.1425
▁염려	-11.1428
▁리서치	-11.1428
ag	-11.1432
▁총격으로	-11.1441
▁적대	-11.1446
▁수비	-11.1451
개의	-11.1452
▁탈출했다	-11.1454
▁싸우	-11.1457
▁강사	-11.1458
▁시스템이	-11.1468
▁의혹에	-11.1479
▁금지하고	-11.148
▁만명에	-11.1483
▁중에서	-11.1484
▁주인이	-11.1484
▁부자	-11.1487
▁새해	-11.1489
안전	-11.1498
▁LO	-11.1501
▁구하기	-11.1505
mar	-11.1509
▁인도에서	-11.151
▁측에서	-11.151
▁노동부	-11.1512
▁모술	-11.1512
▁협상단	-11.1513
답	-11.1514
첼	-11.1515
ical	-11.1516
솔	-11.1517
tic	-11.1519
▁관리인	-11.1522
▁발의	-11.1523
컨	-11.1526
▁안드레	-11.1527
▁독일에서	-11.1532
▁제공한다	-11.1533
▁판결했다	-11.1538
▁산책	-11.1539
▁제공해	-11.1546
▁자회담에	-11.1546
▁산악	-11.155
▁취급	-11.1553
▁위치하	-11.1554
▁시설에	-11.1555
▁런던에	-11.1556
▁불가피	-11.1559
▁승객들이	-11.1561
지오	-11.1562
▁나가는	-11.1564
▁off	-11.1565
▁오해	-11.1565
▁봉	-11.1566
▁측면	-11.1567
▁펜실베니아	-11.1568
▁위스콘신	-11.157
▁보수적	-11.1573
▁켄터키	-11.1573
▁시작되는	-11.1574
▁국회의	-11.1574
▁하버드	-11.1578
▁플래	-11.1582
▁수명	-11.1583
▁메릴랜드	-11.1583
덩	-11.1588
▁그루지아	-11.1588
▁도널드	-11.1588
▁마흐무드	-11.1588
▁벤자민	-11.1588
▁상파울루	-11.1588
▁세계보건기구	-11.1588
▁우주정거장	-11.1588
▁잃지	-11.1588
▁촛불	-11.1588
▁커뮤니티	-11.1588
▁부작용	-11.1588
▁안락사	-11.1588
▁불쾌	-11.1588
▁피아노	-11.1588
▁닥터	-11.1588
▁자서전	-11.1588
▁호르몬	-11.1588
▁퇴장	-11.1589
▁침투	-11.1589
▁타이완	-11.1589
▁열렬	-11.1589
▁ex	-11.1589
▁지뢰	-11.159
▁양육권	-11.159
▁두뇌	-11.159
▁여배우	-11.159
▁풍경	-11.159
▁조셉	-11.159
▁녹색	-11.159
▁쿠르드족	-11.1591
▁홈런	-11.1592
▁국가안보	-11.1592
▁연방법원	-11.1592
▁재벌	-11.1593
▁해킹	-11.1593
▁아끼	-11.1593
▁토양	-11.1593
▁인디아나	-11.1594
▁언제든	-11.1594
▁수비수	-11.1594
▁유예	-11.1595
▁지닌	-11.1595
▁임박	-11.1595
▁정보기관	-11.1596
▁토론토	-11.1596
▁조종	-11.1598
▁구단주	-11.16
▁후퇴	-11.16
▁기초	-11.1601
▁약혼	-11.1602
▁필리스	-11.1603
▁교량	-11.1604
▁문신	-11.1604
▁비준	-11.1606
▁차림	-11.1608
▁활기	-11.1608
▁범죄에	-11.1608
▁일축했다	-11.1609
▁선고받	-11.161
▁결장	-11.1612
해져	-11.1613
▁구형	-11.1614
▁지하드	-11.1614
▁요트	-11.1615
▁군복	-11.1617
램	-11.1618
▁감면	-11.1622
▁닷	-11.1624
▁닭	-11.1624
▁시장과	-11.1628
▁군데	-11.1628
두고	-11.1631
▁비방	-11.1631
▁경기도	-11.1632
▁발부	-11.1641
▁에디	-11.1642
▁중계	-11.1645
▁상태이	-11.1646
▁군부대	-11.1648
구역	-11.1648
▁그럼	-11.1653
▁맞이하	-11.1654
▁짜	-11.1655
▁경찰서에	-11.1657
▁모욕	-11.1658
체제	-11.1658
▁비평	-11.1662
▁확실하다	-11.1663
▁자선	-11.1664
▁빙	-11.1667
▁팜	-11.1667
▁만나기	-11.1669
▁시도하	-11.1669
▁상원의원에	-11.1672
▁숨기	-11.1676
종일	-11.1678
▁도시로	-11.1679
▁하트	-11.1682
▁사회주의	-11.1686
▁시작해	-11.1687
sh	-11.1687
일정	-11.1697
▁알았다	-11.1697
▁아이들과	-11.1698
▁인자	-11.17
▁이베이	-11.1703
▁신문에	-11.1704
▁추진하고	-11.1705
▁벌어지고	-11.1709
▁기반으로	-11.171
▁pre	-11.171
tion	-11.172
▁카라	-11.1723
▁밝혀내	-11.1724
▁향했다	-11.1728
▁표현했다	-11.1735
▁극도	-11.1737
ML	-11.1738
돼있	-11.1738
▁내년에	-11.1742
기위해	-11.1744
▁관계자들과	-11.1744
▁듀	-11.175
▁미소	-11.1753
▁과학적	-11.1767
직원	-11.1769
▁부상당	-11.1771
▁물리치	-11.1775
▁포함된다	-11.1778
버렸	-11.1782
▁강진	-11.1782
▁취소됐다	-11.1789
▁관중	-11.1789
▁사이트에	-11.1789
공항	-11.1789
▁엠	-11.1796
▁끈	-11.1798
▁도시에	-11.1805
▁sh	-11.181
▁재활	-11.1813
▁러	-11.1817
조정	-11.1819
▁부장관	-11.182
▁벽에	-11.1827
▁만료	-11.183
▁북부지역	-11.1832
▁확인해	-11.1835
▁시작했으	-11.1839
em	-11.184
스틴	-11.1842
▁정책이	-11.1849
▁war	-11.1854
렌스	-11.1862
▁들리	-11.1862
▁아이들에게	-11.1862
▁감옥	-11.1866
▁기다려	-11.187
빛	-11.1878
굴	-11.1879
arm	-11.1883
▁내장	-11.1886
테러	-11.1888
▁보호할	-11.1891
야만	-11.1894
디는	-11.1897
ill	-11.1902
▁소식통들	-11.1905
be	-11.1906
▁동일	-11.1908
통이	-11.191
▁조치에	-11.1912
▁불확실	-11.1913
▁배급	-11.1915
동물	-11.1917
▁반대한다	-11.1918
▁진행됐다	-11.1918
▁인정한	-11.1919
▁홈페이지에	-11.1919
▁국정원	-11.1922
▁후보들이	-11.1922
▁국왕이	-11.1926
▁지속된	-11.1926
▁매사추세츠	-11.1926
▁도착하	-11.1928
ext	-11.1929
샬	-11.193
▁사원에서	-11.193
튜	-11.1931
▁모니터	-11.1933
▁치솟	-11.1933
즘	-11.1933
냉	-11.1933
▁그루지야	-11.1933
▁냄새	-11.1933
▁매코맥	-11.1933
▁맥코맥	-11.1933
▁메사추세츠	-11.1933
▁몸집	-11.1933
▁미드필더	-11.1933
▁박테리아	-11.1933
▁뱅크	-11.1933
▁블룸버그	-11.1933
▁슈워제네거	-11.1933
▁스피처	-11.1933
▁악영향	-11.1933
▁알자와히리	-11.1933
▁암스트롱	-11.1933
▁오징어	-11.1933
▁오키나와	-11.1933
▁이스탄불	-11.1933
▁친선경기	-11.1933
▁캠벨	-11.1933
▁케르비엘	-11.1933
▁프로듀서	-11.1933
▁바쿠바	-11.1933
▁수하르토	-11.1933
▁재정경제부	-11.1933
▁동계올림픽	-11.1933
▁흥행	-11.1933
▁도덕적	-11.1933
▁아스널	-11.1933
▁중서부	-11.1933
▁방사능	-11.1933
▁침착	-11.1933
▁무하메드	-11.1933
▁속옷	-11.1934
▁종신형	-11.1934
▁계곡	-11.1934
▁도망	-11.1934
▁면밀	-11.1935
▁태양열	-11.1935
▁생겨	-11.1935
▁아담	-11.1935
▁대피령	-11.1935
▁블록	-11.1935
▁환경보호	-11.1935
▁아닐	-11.1935
▁요격	-11.1936
▁탔다	-11.1936
▁맹세	-11.1936
▁화석	-11.1937
▁AK	-11.1938
▁SK	-11.1938
▁품질	-11.1938
▁불안감	-11.1938
▁렌	-11.1938
▁용서	-11.1938
▁총알	-11.1939
▁피셔	-11.1939
▁소령	-11.1939
▁외교관계	-11.194
port	-11.194
▁교토	-11.194
▁성행위	-11.194
▁존드로	-11.1941
▁지침	-11.1942
▁여년	-11.1942
▁곡물	-11.1942
▁대학살	-11.1942
▁베스트	-11.1943
▁참전	-11.1944
▁가난	-11.1944
▁항복	-11.1944
▁원격	-11.1944
▁배제하지	-11.1944
▁얼리	-11.1949
▁같았다	-11.1951
자들과	-11.1951
▁수백만명	-11.1952
▁아카데미상	-11.1953
몬드	-11.1954
▁유입	-11.1956
▁제트기	-11.1956
▁시범	-11.1956
▁산악지역	-11.1956
▁현명	-11.1957
▁느낌	-11.1959
▁가르치	-11.1959
▁필립스	-11.196
비오	-11.1962
▁만찬	-11.1962
▁콩	-11.1965
▁리타	-11.1969
▁남았다	-11.1971
▁통로	-11.1972
▁아프가니스탄에	-11.1973
▁구제안	-11.1974
▁그때	-11.1975
▁지문	-11.1978
▁였다	-11.1981
▁미치	-11.1981
▁크리스티나	-11.1981
▁시위대와	-11.1981
▁장려	-11.1984
▁결의	-11.1984
▁미술	-11.1986
▁단서	-11.1992
하자는	-11.1993
▁지표	-11.1996
▁생겼다	-11.1996
▁장악한	-11.1998
▁감옥에	-11.2001
▁캐리	-11.2002
▁혼다	-11.2002
▁상아	-11.2003
▁일방적	-11.2006
▁성전	-11.2009
아누	-11.201
▁가려	-11.201
▁급진	-11.201
▁댄	-11.2012
▁부진	-11.2012
▁팬들에게	-11.2013
▁빵	-11.2015
▁기한	-11.2016
▁운하	-11.2019
▁윤리	-11.202
▁주장했으	-11.202
▁우드	-11.2023
▁포기하지	-11.2024
▁일째	-11.2026
▁신의	-11.2028
세스	-11.2035
▁칼로	-11.2035
▁No	-11.2037
▁집안	-11.2042
▁따뜻하	-11.2049
▁n	-11.2055
▁반군과	-11.2057
파르	-11.206
리언	-11.2061
▁환영했다	-11.2062
았으	-11.2063
▁같	-11.2064
▁ur	-11.2065
▁임명된	-11.2065
▁착	-11.2067
▁미친	-11.2067
▁났다	-11.2068
▁이브	-11.2072
▁춤	-11.2073
혔	-11.2074
건물	-11.2075
▁모의	-11.2078
제로	-11.2085
부문	-11.2087
▁금지하는	-11.2087
▁제품에	-11.2093
오르	-11.2094
▁걸려있	-11.2101
▁말했지만	-11.2106
자들에	-11.2106
▁공원에서	-11.2106
▁반대했다	-11.2121
▁강조하고	-11.2132
▁목격한	-11.2135
▁후보에게	-11.2136
▁헤이	-11.2142
▁전달한	-11.2143
▁경찰들	-11.2145
▁임원	-11.2154
▁it	-11.2159
디어	-11.2164
▁판매되	-11.2165
▁La	-11.2168
▁장관들	-11.217
▁움직임에	-11.2172
르게	-11.2173
시기	-11.2175
▁광장에	-11.2175
▁장소로	-11.2181
▁실직	-11.2182
▁들었	-11.2184
▁부근에	-11.2188
▁만났	-11.2191
국민	-11.2191
▁미군측	-11.2194
기때문에	-11.2195
▁나라들	-11.2198
▁로라	-11.2206
▁제작자들	-11.2206
▁건물에서	-11.2211
▁지났	-11.2211
▁고고학자들	-11.2212
▁납치범들	-11.2222
▁사무실에서	-11.2225
▁면에서	-11.2229
ast	-11.2232
▁기숙사	-11.2233
부의	-11.2233
▁확인하는	-11.2235
▁중국인	-11.224
▁법정에	-11.2241
섭	-11.2243
▁얼음이	-11.2245
▁주거	-11.2247
핀	-11.2249
line	-11.2249
셰	-11.225
펜	-11.2253
▁경제와	-11.2257
▁박탈	-11.2257
▁쌍	-11.2258
▁가한	-11.2262
주택	-11.2267
흉	-11.2269
▁국무	-11.2272
▁스탠	-11.2279
▁천억	-11.2283
픈	-11.2285
섞	-11.2285
▁연령	-11.2288
ster	-11.2289
흙	-11.229
▁교회에서	-11.229
틱	-11.229
▁BMW	-11.229
▁Court	-11.229
▁구스마오	-11.229
▁김계관	-11.229
▁놀랐다	-11.229
▁뉴멕시코	-11.229
▁만장일치	-11.229
▁모하마드	-11.229
▁브리티시	-11.229
▁사형집행	-11.229
▁세실리아	-11.229
▁승용차	-11.229
▁실업수당	-11.229
▁애틀란타	-11.229
▁자메이카	-11.229
▁캠퍼스	-11.229
▁캥거루	-11.229
▁크누트	-11.229
▁클리블랜드	-11.229
▁탈라바니	-11.229
▁펼칠	-11.229
▁피추시킨	-11.229
긋	-11.229
▁비영리	-11.229
▁깃발	-11.229
▁냉동	-11.229
▁빈민가	-11.229
▁염두	-11.229
▁캐롤	-11.229
▁퍼트레이어스	-11.229
▁벨몬트	-11.229
▁월드시리즈	-11.229
▁제라드	-11.2291
▁뜨거	-11.2291
▁러셀	-11.2291
▁미망인	-11.2291
NDO	-11.2291
▁ETA	-11.2291
▁Chin	-11.2291
▁노왁	-11.2291
▁유효	-11.2291
▁공략	-11.2292
▁구조조정	-11.2292
▁전염병	-11.2292
▁메뉴	-11.2292
▁무엇인지	-11.2292
▁격추	-11.2292
▁완공	-11.2292
▁검찰총장	-11.2292
▁보석금	-11.2293
▁평범	-11.2293
▁간섭	-11.2293
▁사마라	-11.2293
▁외교정책	-11.2293
Space	-11.2293
▁밀림	-11.2293
▁감추	-11.2293
▁페리노	-11.2294
▁펠리	-11.2294
▁악재	-11.2294
▁보상금	-11.2294
▁방북	-11.2294
▁국영방송	-11.2294
▁탄약	-11.2295
▁제이미	-11.2295
▁주치의	-11.2296
▁행방	-11.2296
▁머피	-11.2296
▁건립	-11.2296
▁편집자	-11.2296
▁십대	-11.2296
▁교황청	-11.2297
▁제기하	-11.2297
▁북동쪽	-11.2297
▁발목	-11.2297
▁야심	-11.2298
▁멈	-11.2298
▁라틴	-11.2298
▁피플	-11.2298
▁타입	-11.2299
▁천억원	-11.2299
▁즐거	-11.23
▁저가	-11.23
▁손님	-11.23
▁구타	-11.2301
▁악성	-11.2302
▁중단하라	-11.2302
▁폭풍우	-11.2302
▁왔습니다	-11.2303
▁월마트	-11.2303
▁북서쪽	-11.2304
▁세균	-11.2306
▁자유로	-11.2307
▁대피소	-11.2307
▁순찰대	-11.2308
▁막고	-11.2309
▁종파	-11.2311
▁유포	-11.2311
병력	-11.2312
▁신고했다	-11.2313
▁지질	-11.2314
▁곤	-11.2314
데일	-11.2315
▁안건	-11.2315
▁번영	-11.2315
▁안심	-11.2316
▁가할	-11.2317
▁최상	-11.2319
ight	-11.232
▁요청하	-11.2321
▁대도시	-11.2323
▁속한	-11.2323
▁상원의원직	-11.2324
▁공개되지	-11.2327
▁기내	-11.2335
▁유아	-11.2342
▁범죄자들	-11.2342
▁자리잡고	-11.2343
▁터미널	-11.2344
▁게이	-11.2346
▁제인	-11.2346
▁관료	-11.2348
▁살해하겠다	-11.235
▁연관된	-11.2354
▁당장	-11.2355
▁통상	-11.2356
▁컨	-11.2356
min	-11.2357
▁봤	-11.2361
▁아버지와	-11.2363
▁매트	-11.237
프레	-11.2372
▁확인한	-11.2375
▁갖는다	-11.2375
▁것이냐	-11.2375
▁환영한다	-11.2376
▁정통	-11.2378
▁만든다	-11.238
▁지도자로	-11.2391
▁민주당과	-11.2392
▁일정이	-11.2393
▁감독상	-11.2398
▁카페인	-11.2399
▁맹	-11.2402
공작	-11.2408
▁메달	-11.2409
▁보여주기	-11.2414
▁바퀴	-11.2428
▁전당	-11.2428
▁포착	-11.2429
▁state	-11.2433
▁비극적	-11.2442
▁파괴되	-11.2442
▁떨어지는	-11.2447
▁방한	-11.2447
▁둔화	-11.245
▁든다	-11.2454
▁배로	-11.2456
▁양상	-11.2459
▁시도한	-11.2459
▁그쳤다	-11.2464
▁차가	-11.2467
▁큐	-11.2469
▁피해지역	-11.2469
▁들어있는	-11.2472
▁비서	-11.2476
▁미국에서는	-11.2477
단이	-11.2478
▁언	-11.2481
▁반도	-11.2483
▁기자들과	-11.2485
▁제조사	-11.2485
▁모르고	-11.2489
▁개최지	-11.2489
▁무장괴한	-11.2493
▁어려워	-11.2494
▁중장	-11.2495
▁국민에게	-11.2499
시키지	-11.2504
▁내로	-11.2509
▁거치	-11.2512
▁주지사와	-11.2512
▁칩	-11.2514
관계자	-11.2514
스럽	-11.2517
것이	-11.2524
▁이라크전에	-11.2525
우주	-11.2526
▁다음과	-11.2526
▁소유자	-11.2526
엑	-11.2527
▁미트	-11.2528
▁블로그	-11.2529
▁time	-11.253
▁철수시키	-11.2531
▁자행	-11.2532
▁시리아와	-11.2533
▁정한	-11.2533
▁폰	-11.2537
▁돌보	-11.254
▁목소리로	-11.2541
을때	-11.2544
▁정당이	-11.2546
▁벌였으	-11.2546
▁전설적	-11.2548
▁기어	-11.2552
▁영국으로	-11.2552
▁갑작스	-11.2553
▁대변	-11.2557
▁흔적	-11.2559
▁시판	-11.2563
공장	-11.2569
▁백악관에	-11.257
▁무엇이	-11.2571
▁덧붙	-11.2572
▁세라	-11.2575
▁이루어	-11.2582
득	-11.2586
▁진행할	-11.2586
▁Sc	-11.2587
▁보였으	-11.259
▁오지	-11.2592
▁결정적	-11.2592
▁국가들과	-11.2594
었기	-11.2596
▁페이스	-11.2597
▁열려	-11.26
▁줄기	-11.2603
▁영국에	-11.2604
ide	-11.2607
▁북한에서	-11.2611
▁부탁	-11.2614
▁고속	-11.2618
▁미화	-11.2621
▁최대한	-11.2621
▁공정	-11.2625
접	-11.2626
▁사업에	-11.2627
탑	-11.2633
묘	-11.2634
방법	-11.2634
리지	-11.2635
억	-11.2636
▁케이	-11.2637
▁묘	-11.2642
환경	-11.2643
줘	-11.2648
▁암호	-11.2648
▁도쿄에서	-11.2649
▁못했으	-11.265
티스	-11.2651
▁당연	-11.2652
▁델타	-11.2653
▁올리는	-11.2653
대책	-11.2653
▁자회담에서	-11.2654
하우스	-11.2656
▁콜린	-11.2656
삭	-11.2659
ife	-11.2659
▁전미	-11.266
▁머무	-11.266
▁내셔널	-11.266
▁United	-11.2661
▁넘어섰다	-11.2661
▁따돌리	-11.2661
▁무책임	-11.2661
▁브로드웨이	-11.2661
▁색깔	-11.2661
▁에탄올	-11.2661
▁여동생	-11.2661
▁웨스트버지니아	-11.2661
▁저작권	-11.2661
▁호흡기	-11.2661
▁댈러스	-11.2661
▁초등학교	-11.2661
▁흡수	-11.2661
믹	-11.2661
▁최우수	-11.2661
▁도메인	-11.2661
▁이벤트	-11.2661
▁다뤄	-11.2661
▁하반기	-11.2661
▁폐쇄했다	-11.2661
▁하리리	-11.2661
▁셔츠	-11.2661
▁앙겔	-11.2661
▁ISS	-11.2661
▁습관	-11.2661
트로터	-11.2661
▁화염	-11.2661
▁올바른	-11.2661
▁투데이	-11.2661
▁비평가들	-11.2661
▁압승	-11.2661
▁빨간색	-11.2662
▁유혹	-11.2662
▁어휘	-11.2662
▁파악하	-11.2662
▁수하물	-11.2662
▁후계자	-11.2662
▁디스커버리호	-11.2662
▁홀랜드	-11.2662
▁정부에서	-11.2662
▁열쇠	-11.2662
▁결백	-11.2663
▁유연	-11.2663
▁부회장	-11.2663
▁코스피	-11.2663
▁평결	-11.2663
▁영입	-11.2663
▁삼림	-11.2663
▁글렌	-11.2664
▁초대형	-11.2664
▁제재조치	-11.2665
▁자치구	-11.2665
▁에이미	-11.2666
▁영역	-11.2666
▁스위	-11.2666
▁벌금형	-11.2667
▁오를	-11.2667
▁허위	-11.2668
▁데니스	-11.2668
▁Man	-11.2669
ca	-11.267
▁독점	-11.2672
▁공통	-11.2672
▁경위	-11.2674
▁외출	-11.2674
▁부인과	-11.2675
▁자매	-11.2678
▁소감	-11.2678
▁담겨있다	-11.2679
▁공방	-11.268
▁걸프	-11.2681
▁국정	-11.2682
▁악화될	-11.2682
▁실내	-11.2682
▁오락	-11.2683
연구원	-11.2683
▁리더	-11.2684
▁올릴	-11.2684
▁개헌	-11.2685
▁늘어났다	-11.2685
▁대담	-11.2686
▁시술	-11.2686
▁자회사	-11.2687
▁동성	-11.2688
▁노동력	-11.2688
▁도왔다	-11.2692
▁분출	-11.2692
cent	-11.2693
▁불가피하다	-11.2693
▁투표권	-11.2694
▁자유당	-11.2695
▁상정	-11.2695
▁장착된	-11.2696
▁초래할	-11.2698
▁상태였다	-11.2699
▁에이	-11.2699
▁후보작	-11.2699
▁놓았다	-11.27
회에서	-11.2701
▁입장권	-11.2701
▁입원한	-11.2703
▁핀	-11.2703
▁드는	-11.2704
▁우파	-11.2704
▁퇴직	-11.2705
▁조카	-11.2709
▁용인	-11.2709
▁결정된	-11.271
▁사이즈	-11.2714
▁박수	-11.2714
▁보았다	-11.272
▁물리	-11.272
▁방사	-11.272
▁납치됐다	-11.2722
▁후임자	-11.2722
▁정비	-11.2724
▁win	-11.2725
▁여개	-11.2727
▁딜러	-11.2729
▁될지	-11.2732
▁브라	-11.2733
과정에서	-11.2734
▁Ri	-11.2737
수단	-11.2738
▁위법	-11.2739
▁말로	-11.2739
▁수잔	-11.274
▁지미	-11.2742
▁시도했다	-11.275
과학	-11.275
▁제기되	-11.2754
▁지목했다	-11.2758
▁위기로	-11.2759
▁관해서	-11.276
▁운동가	-11.2763
▁암살된	-11.2767
▁달에	-11.2773
피크	-11.2775
▁주민이	-11.2775
▁그레	-11.2776
▁마련했다	-11.2794
▁여진이	-11.2799
▁웹사이트에서	-11.2805
트릭	-11.2811
▁내리기	-11.2813
▁중유	-11.2816
대사관	-11.2818
▁이겨	-11.2818
▁인적	-11.283
▁맡아	-11.2833
▁납치했다	-11.2838
▁우주에서	-11.2843
rate	-11.2848
▁알리기	-11.2849
▁펼치고	-11.2849
▁여행객들	-11.2856
▁이탈	-11.2858
▁전인	-11.2863
▁복합	-11.2863
해진다	-11.2864
프리	-11.2865
▁적대적	-11.2867
▁내주	-11.2872
ect	-11.2874
▁피신	-11.2876
▁방문이	-11.2884
왔으	-11.289
▁괜찮	-11.2893
▁임신한	-11.2893
▁공격할	-11.2895
▁개발도상국	-11.2896
시스	-11.29
▁일년	-11.2905
▁얻었	-11.2905
위기	-11.2914
▁악의	-11.2916
하르	-11.2918
bu	-11.292
▁공개할	-11.2921
▁tr	-11.2925
ame	-11.2926
▁예상되는	-11.293
▁각료	-11.2932
▁끝내	-11.2934
▁중국인들	-11.2939
▁워터	-11.2943
▁고려할	-11.2945
▁관심사	-11.2946
▁그날	-11.2948
어져	-11.2949
▁다음으로	-11.295
▁없기	-11.2962
▁필수	-11.2963
▁필요하	-11.2965
▁지배하	-11.297
▁릭	-11.2974
▁루스	-11.2979
것을	-11.2979
▁잃어버	-11.298
▁붙이	-11.298
▁직면한	-11.2983
명이	-11.2984
▁녹아	-11.2986
▁상업적	-11.2987
▁서있	-11.2988
▁참가자	-11.2989
룩	-11.299
쉽	-11.2994
▁거래가	-11.2996
▁마련하기	-11.3002
▁많지	-11.3002
▁파키스탄이	-11.3003
흘	-11.3006
▁톱	-11.3007
ai	-11.3008
▁제기한	-11.301
시키는데	-11.3013
응	-11.3023
라니	-11.3023
▁나라에서	-11.3027
▁정찰	-11.3029
전문	-11.3031
▁여러분들	-11.3031
▁여성에게	-11.3032
몽	-11.3032
헤르	-11.3033
▁국세청	-11.3034
휴	-11.3034
▁데뷔	-11.3035
▁후보자들	-11.3035
교회	-11.3035
▁영구	-11.3036
▁상원의	-11.3037
오픈	-11.3039
돈	-11.3041
쁜	-11.3041
떨어진	-11.3041
▁치고	-11.3042
낭	-11.3043
쇠	-11.3044
▁BBK	-11.3045
▁Pakistan	-11.3045
▁UFO	-11.3045
▁high	-11.3045
▁issue	-11.3045
▁과테말라	-11.3045
▁국가보안법	-11.3045
▁높였다	-11.3045
▁닌텐도	-11.3045
▁두개골	-11.3045
▁리얼리티	-11.3045
▁마호메트	-11.3045
▁베테랑	-11.3045
▁엔터테인먼트	-11.3045
▁정동영	-11.3045
▁조선중앙통신	-11.3045
▁조코비치	-11.3045
▁집행유예	-11.3045
▁추수감사절	-11.3045
▁토마토	-11.3045
▁퍼레이드	-11.3045
겹	-11.3045
무장혁명군	-11.3045
▁SUV	-11.3045
▁당분간	-11.3045
▁보건복지부	-11.3045
▁싱가폴	-11.3045
▁제네바	-11.3045
▁의구심	-11.3045
▁콜레라	-11.3045
▁수족관	-11.3045
▁좌익	-11.3045
▁뉴욕증시	-11.3045
▁태어나	-11.3045
▁유태인	-11.3045
▁가볍	-11.3045
▁터뜨	-11.3045
▁원내대표	-11.3045
▁링컨	-11.3045
▁down	-11.3046
▁규명	-11.3046
▁대지진	-11.3046
▁결렬	-11.3046
▁신용위기	-11.3046
▁힌두교	-11.3046
▁검출	-11.3046
▁꾸준	-11.3046
▁혼합	-11.3046
▁참패	-11.3046
▁티켓	-11.3047
▁삼엄	-11.3047
▁코미디언	-11.3047
▁가하고	-11.3047
▁비공개	-11.3047
▁배럭	-11.3047
▁워커	-11.3047
▁설교	-11.3047
▁영예	-11.3048
▁호주오픈	-11.3048
▁사찰	-11.3048
▁신념	-11.3048
▁Star	-11.3048
▁노리에가	-11.3048
▁과잉	-11.3048
▁세번째	-11.3049
▁검진	-11.3049
▁격분	-11.3049
▁응원	-11.3049
▁광경	-11.3049
▁태양계	-11.305
▁관행	-11.305
▁포스터	-11.3051
▁연합뉴스	-11.3051
▁HD	-11.3052
▁계단	-11.3052
▁권유	-11.3052
▁지폐	-11.3053
ll	-11.3053
▁소방관들	-11.3053
▁저격	-11.3053
▁보수파	-11.3054
▁순회	-11.3054
▁깜	-11.3054
▁DC	-11.3055
▁매춘부	-11.3055
▁재생	-11.3056
▁레저	-11.3057
▁발작	-11.3058
▁비율이	-11.3059
▁비자금	-11.3059
▁단호	-11.3061
▁시사회	-11.3062
▁미사	-11.3062
▁더이상	-11.3062
▁풍자	-11.3063
▁통신과	-11.3063
▁기념일	-11.3063
▁물질이	-11.3064
▁사우스	-11.3064
▁남겼다	-11.3064
▁보류	-11.3064
▁맡게	-11.3065
▁연예	-11.3066
▁히트	-11.3067
▁가격에	-11.3067
▁돌아갔다	-11.3068
▁빨간	-11.3068
▁장난	-11.307
▁발견돼	-11.307
▁밀수	-11.3072
▁국면	-11.3073
▁야간	-11.3074
▁정상적으로	-11.3076
▁제프	-11.3081
▁조달	-11.3081
▁호우	-11.3081
▁애쓰고	-11.3084
▁현직	-11.3085
▁체인	-11.3092
▁논의하고	-11.3093
주재	-11.3094
▁작곡가	-11.3096
수준	-11.3096
▁석상	-11.3097
▁심정	-11.3097
▁차량은	-11.3097
▁봐	-11.31
▁년째	-11.3101
▁조사했다	-11.3103
▁인플루엔자	-11.3103
▁잡혀있	-11.3104
▁러시아에서	-11.3104
▁하마스와	-11.3106
▁결승에서	-11.3107
▁증가하	-11.3107
▁취해야	-11.3108
니에	-11.3115
▁이끌었다	-11.3117
▁와서	-11.3119
▁단백질	-11.312
▁페이	-11.3121
수사	-11.3123
▁분기에	-11.3124
▁성사	-11.3125
▁붐	-11.3132
▁찬사	-11.3133
▁시민단체	-11.3135
▁폭발했다	-11.3136
파일	-11.3138
▁하원에서	-11.3141
▁의료보험	-11.3142
▁was	-11.3145
푸르	-11.3145
▁오고	-11.3145
▁어디에	-11.3147
▁범죄자	-11.3148
▁강화했다	-11.3152
▁계획한	-11.3155
▁가두	-11.3156
▁친구들과	-11.3156
코르	-11.3156
아주	-11.3158
▁부수	-11.3158
▁리사	-11.3158
▁기록했으	-11.3159
발전	-11.3162
▁진행하는	-11.3166
▁잡기	-11.3169
▁흔들리	-11.317
▁코커스에서	-11.3171
▁정보가	-11.3176
▁all	-11.3178
▁상징적	-11.3178
▁베를린에서	-11.318
▁나르	-11.318
▁개국이	-11.3181
▁돌입했다	-11.3183
북한	-11.3185
▁팔려	-11.3189
▁감자	-11.3194
▁의견에	-11.3195
ence	-11.3198
▁선택한	-11.32
▁배정	-11.32
▁홀에서	-11.3202
▁계층	-11.3205
▁결승전에	-11.3205
▁식으로	-11.3207
▁수의사	-11.3207
임에	-11.3209
▁보아	-11.3212
▁문화적	-11.3212
▁측에	-11.3215
▁살아있는	-11.3215
▁수반과	-11.322
▁용의	-11.322
V	-11.3223
▁가졌으	-11.3223
▁해변에서	-11.3225
▁기관들	-11.323
▁공격하는	-11.3236
▁언론인	-11.3244
own	-11.3245
로프	-11.3246
▁미수	-11.3256
▁여행사	-11.3263
▁헌신	-11.3268
▁제시하	-11.3269
▁에바	-11.3274
자에게	-11.3277
ther	-11.328
▁선보였	-11.3282
▁파고	-11.3285
모어	-11.3287
▁참모	-11.3293
▁지명자	-11.3295
▁비리	-11.3297
▁동원해	-11.3308
디오	-11.3309
▁가담	-11.331
▁정치범	-11.331
군과	-11.3311
▁어디	-11.3312
▁초과	-11.3313
▁사태로	-11.3318
tor	-11.3324
티드	-11.3326
▁개헌안	-11.3328
wa	-11.3329
라트	-11.333
▁대리	-11.3331
▁요한	-11.3332
▁구입한	-11.3333
전문가	-11.3336
▁나갔다	-11.3342
▁극심	-11.3343
▁갇혀	-11.3347
헤드	-11.335
▁기념하기	-11.3351
▁시작하기	-11.3353
▁제한하	-11.3353
▁주문했다	-11.3354
▁되었습니	-11.3358
ction	-11.336
▁이행하	-11.336
▁위반한	-11.3363
▁윤리적	-11.3364
▁공장에서	-11.3367
▁뒤에서	-11.337
▁첸	-11.3372
▁관광객이	-11.3372
mer	-11.3377
▁덴버	-11.3377
▁양곤	-11.3381
▁사무소	-11.3381
▁개막식	-11.3382
텍	-11.3383
▁재미	-11.3387
줘야	-11.3389
▁쇼에	-11.339
▁방문객	-11.3391
윤	-11.3396
▁정치에	-11.3406
▁무기한	-11.3409
성과	-11.3413
▁길에	-11.3413
▁바탕	-11.3415
하일	-11.3416
준다	-11.3418
파인	-11.3419
▁유지하는	-11.3421
▁도움으로	-11.3428
▁구조대원	-11.3429
롬	-11.343
▁주사	-11.3432
님	-11.3434
▁America	-11.3436
쳤으	-11.3437
lin	-11.3439
▁낙관적	-11.3439
▁중동평화	-11.344
롯	-11.3442
sk	-11.3442
▁싶어하	-11.3442
헨	-11.3442
▁도시들	-11.3443
엽	-11.3445
▁곤돌라	-11.3445
▁농작물	-11.3445
▁라왈핀디	-11.3445
▁로맨틱	-11.3445
▁마닐라	-11.3445
▁무혐의	-11.3445
▁아웅산수지	-11.3445
▁얀코비치	-11.3445
▁엔데버호	-11.3445
▁이데올로기	-11.3445
▁짝짓기	-11.3445
▁카라카스	-11.3445
▁카톨릭	-11.3445
▁타블로이드	-11.3445
▁페널티킥	-11.3445
▁폴라로이드	-11.3445
▁횟수	-11.3445
돋	-11.3445
룽	-11.3445
찔	-11.3445
▁FTSE	-11.3445
▁Human	-11.3445
▁갤럭시	-11.3445
▁내비쳤다	-11.3445
▁동남아시아	-11.3445
▁맞지	-11.3445
▁백화점	-11.3445
▁유망주	-11.3445
▁카리스마	-11.3445
▁페르난도	-11.3445
▁로페즈	-11.3445
▁루마니아	-11.3445
▁자이툰	-11.3445
▁테이블	-11.3445
▁뮤직	-11.3445
▁party	-11.3445
▁살모넬라균	-11.3445
▁보스니아	-11.3445
▁대중교통	-11.3446
▁동점골	-11.3446
▁소수민족	-11.3446
▁대통합민주신당	-11.3446
▁평론가들	-11.3446
▁결승골	-11.3446
▁소아과	-11.3446
▁Brit	-11.3446
▁밀접	-11.3446
▁범람	-11.3446
▁가자시티	-11.3446
▁나중에	-11.3446
▁부정선거	-11.3446
모토	-11.3446
▁Press	-11.3446
▁패널	-11.3446
▁관광산업	-11.3447
▁비싸	-11.3447
▁울머	-11.3448
▁난폭	-11.3449
▁평생	-11.3449
▁오스틴	-11.3449
▁기둥	-11.345
▁표적이	-11.345
▁도착했을	-11.3451
▁결별	-11.3451
▁온천	-11.3451
▁경제성장률	-11.3452
▁심장병	-11.3453
▁연구조사	-11.3453
▁매사추세츠주	-11.3453
▁면허	-11.3453
▁동행	-11.3454
▁바이오	-11.3454
▁억압	-11.3454
▁줄어	-11.3454
즐	-11.3454
▁페퍼	-11.3455
▁발생하기	-11.3455
▁감동	-11.3455
▁연예인	-11.3455
▁숨지게	-11.3455
ious	-11.3455
▁바스크	-11.3455
▁면제	-11.3455
▁세레나	-11.3456
▁외각	-11.3456
▁책임감	-11.3457
▁관세	-11.346
▁사절	-11.346
▁PF	-11.346
▁감안	-11.346
▁천연	-11.3461
▁홈페이지	-11.3462
▁드문	-11.3462
사이드	-11.3462
▁과실	-11.3463
▁대원	-11.3463
어졌다	-11.3464
▁버크	-11.3464
▁있을까	-11.3465
▁재판소	-11.3466
▁조업	-11.3466
▁무너졌다	-11.3467
▁삼았다	-11.3468
보고서	-11.3468
▁크라	-11.3469
사람	-11.3473
▁대승	-11.3474
▁반란	-11.3475
▁경선이	-11.3476
▁여정	-11.3477
▁국민당	-11.3478
▁은행이	-11.3478
▁이끈	-11.3479
노동	-11.348
▁Ge	-11.348
▁프린스	-11.348
느라	-11.348
▁시작하는	-11.3482
▁행운	-11.3485
▁투수	-11.3485
ber	-11.3488
▁위치에	-11.3488
▁누드	-11.3491
▁질서	-11.3492
리노	-11.3494
▁양당	-11.3496
▁넘어서	-11.3497
▁많았다	-11.3499
GB	-11.35
빌리	-11.3501
▁발견했으	-11.3502
▁어선	-11.3503
바니	-11.3507
▁이란에서	-11.3508
▁하는지	-11.3511
라이트	-11.3512
▁후임으로	-11.3517
코스	-11.3518
red	-11.3518
NA	-11.3523
▁번식	-11.3524
▁링	-11.3526
▁도로에	-11.3527
▁이룬	-11.3528
▁감행했다	-11.353
▁살해됐다	-11.3531
▁대처하기	-11.3532
처리	-11.3533
▁의뢰인	-11.3533
노프	-11.3534
게이트	-11.3536
▁걸스	-11.3539
▁야당의	-11.3539
▁지정된	-11.3541
▁제안에	-11.3545
▁포기할	-11.3546
세르	-11.3548
▁과다	-11.355
▁방콕에서	-11.355
OS	-11.3552
▁불과했다	-11.3552
▁부상했으	-11.3553
법에	-11.3553
▁행동으로	-11.3556
▁당원들	-11.3556
▁유명인사	-11.3559
▁파르	-11.3562
▁지사	-11.3565
▁줄어들었다	-11.3566
▁전통적으로	-11.3567
▁감기	-11.3569
▁바스라에서	-11.3578
▁공부	-11.3579
▁동남	-11.3586
▁one	-11.3589
▁덩어리	-11.3592
▁행한	-11.3595
▁신비	-11.3597
▁충고	-11.3598
▁당했	-11.3598
▁맡기	-11.3602
▁샘	-11.3609
▁움직	-11.3613
▁모닝	-11.3615
▁로한이	-11.3619
▁거라고	-11.3619
▁퇴원	-11.362
▁국경지역에	-11.362
▁Q	-11.3626
▁수감됐다	-11.3628
▁분명한	-11.3629
▁태국에서	-11.3633
▁지원한	-11.3637
▁했을	-11.3639
▁퍼지	-11.3643
ors	-11.3648
▁협정에	-11.3649
round	-11.3649
▁석방했다	-11.365
▁발표하지	-11.365
▁심화	-11.3652
▁단체에	-11.3654
▁파괴됐다	-11.366
▁소방	-11.3663
받을	-11.3664
▁결승	-11.3667
▁정직	-11.3669
▁이어진	-11.367
지도자	-11.3673
up	-11.3675
▁선보	-11.3683
▁안다	-11.3684
▁공직	-11.3685
▁지구로	-11.3691
했었	-11.3694
학원	-11.3694
시켰으	-11.3694
시에	-11.3699
론자들	-11.3705
▁억제	-11.3705
▁후안	-11.3707
▁이목	-11.3709
▁남지	-11.371
▁당하	-11.371
▁내기	-11.3711
MA	-11.3719
▁영화들	-11.3719
▁방송과	-11.372
▁사진에	-11.372
▁빚어	-11.3721
▁직면해	-11.3725
SA	-11.3729
▁람	-11.373
▁PA	-11.3733
▁버렸다	-11.374
▁일요일에	-11.3745
웠던	-11.375
▁복용한	-11.3753
스텐	-11.3756
▁괴	-11.3758
▁제어	-11.3758
▁여객기에	-11.3761
▁강전	-11.3765
ER	-11.3765
▁통근	-11.3768
▁민주당원들	-11.3772
▁게임에서	-11.3774
▁의뢰	-11.3774
▁놓여	-11.3783
▁섬에	-11.3783
▁관여하	-11.3783
▁감염자	-11.3784
▁만들었	-11.3785
▁획득했다	-11.3786
▁별로	-11.3788
▁자연적	-11.3791
▁Po	-11.3793
▁죽을	-11.3795
▁이외	-11.3795
▁관료들	-11.3799
▁보여준	-11.3799
잡이	-11.3799
주기	-11.3807
▁한반도에서	-11.3808
▁주장해	-11.3814
▁괴한들	-11.3815
▁정부로부터	-11.3816
▁사정	-11.3821
착륙	-11.3832
▁이동하	-11.3833
▁법무	-11.3845
▁이동했다	-11.3851
▁버몬트	-11.3852
▁개들	-11.3852
▁다국적	-11.3854
▁나눠	-11.3855
▁경제성장	-11.3856
▁루이	-11.3858
쾌	-11.3858
▁공습이	-11.386
윗	-11.3862
▁OECD	-11.3862
▁WWF	-11.3862
▁가톨릭	-11.3862
▁무크타다	-11.3862
▁버시바우	-11.3862
▁부정부패	-11.3862
▁브뤼셀	-11.3862
▁사카쉬빌리	-11.3862
▁쫓겨	-11.3862
▁컨퍼런스	-11.3862
▁콘크리트	-11.3862
▁콜레스테롤	-11.3862
▁프리메라리가	-11.3862
▁합참의장	-11.3862
캘	-11.3862
쿤	-11.3862
▁금융제재	-11.3862
▁로널드	-11.3862
▁몬타나	-11.3862
▁임산부	-11.3862
▁휴양지	-11.3862
▁기번스	-11.3862
▁오마바	-11.3862
▁팔루자	-11.3862
▁횡단	-11.3862
▁힉스	-11.3862
▁쟁점	-11.3862
▁뒤덮	-11.3862
▁president	-11.3862
▁이소연	-11.3862
▁주니어	-11.3862
▁아지즈	-11.3862
▁엄중	-11.3862
▁크리켓	-11.3862
▁페인트	-11.3862
▁Bank	-11.3862
▁농촌	-11.3862
▁와중에	-11.3862
▁근접	-11.3863
▁소요사태	-11.3863
▁번호판	-11.3863
▁호르타	-11.3864
▁여객선	-11.3864
▁불쾌감	-11.3864
▁동북아	-11.3864
▁간첩	-11.3864
▁최후	-11.3864
▁평창	-11.3864
▁통계청	-11.3865
▁싸울	-11.3865
▁연애	-11.3865
▁흉기	-11.3865
스테이트	-11.3865
▁Ex	-11.3865
▁이루어질	-11.3865
▁총격사건	-11.3866
▁연습	-11.3866
▁방문했	-11.3866
▁may	-11.3866
▁평등	-11.3866
▁활력	-11.3866
▁패션계	-11.3866
▁피델	-11.3867
▁정글	-11.3867
▁단절	-11.3868
▁말라위	-11.3868
▁금지령	-11.3868
▁팔렸다	-11.3869
▁포격	-11.3869
▁선박에	-11.387
▁테네시주	-11.387
돌프	-11.387
▁평방	-11.387
▁변동	-11.3871
▁추모식	-11.3871
▁황제	-11.3871
▁본래	-11.3872
▁지나친	-11.3872
▁공개하	-11.3872
▁예금	-11.3872
▁수년간	-11.3872
▁테러공격	-11.3872
▁완수	-11.3873
레즈	-11.3874
▁울프	-11.3875
▁스탠리	-11.3875
▁철거	-11.3876
▁급파	-11.3877
▁테마	-11.3877
▁반격	-11.3878
▁뉴저지주	-11.3878
▁사격	-11.3878
코브	-11.3879
▁건조	-11.3879
▁터진	-11.388
▁질식	-11.3881
▁액수	-11.3881
▁태아	-11.3882
▁구분	-11.3882
▁신종	-11.3883
mon	-11.3884
▁데이트	-11.3884
▁도박	-11.3884
▁leader	-11.3884
재판소	-11.3884
▁피고인들	-11.3885
▁정유	-11.3885
▁앙리	-11.3886
▁스노	-11.3886
▁지도력	-11.3886
장소	-11.3886
▁경찰청장	-11.389
▁인도와	-11.389
▁상실	-11.389
▁분양	-11.389
털	-11.389
▁탑	-11.3891
▁수성	-11.3891
▁안개	-11.3892
▁외모	-11.3892
▁분명하다	-11.3892
▁일본인들	-11.3892
▁문학	-11.3893
▁휩싸였다	-11.3894
NU	-11.3896
▁조그	-11.3896
▁가즈니주	-11.3898
▁만톤	-11.3898
▁두목	-11.3899
▁노동자들이	-11.3901
▁반감	-11.3902
▁한국정부	-11.3902
▁말하지	-11.3902
wo	-11.3903
▁발견됐으	-11.3903
▁작용할	-11.3903
머스	-11.3903
▁박물관에	-11.3905
여행	-11.3905
▁인파	-11.3906
▁조사는	-11.3908
▁발사한	-11.3908
▁핵문제	-11.3909
▁허리	-11.391
▁미쳤다	-11.3911
사실	-11.3912
▁전선	-11.3912
▁발사된	-11.3913
증권	-11.3913
▁아카	-11.3916
▁접근할	-11.3917
▁독일과	-11.3917
▁열리기	-11.3919
더미	-11.3919
▁우주비행사들	-11.392
▁전임	-11.3924
▁작품상	-11.3928
▁억류된	-11.3931
▁과일	-11.3933
해졌	-11.3937
문서	-11.3939
tr	-11.3939
▁배아	-11.3939
▁중년	-11.3941
▁심각하다	-11.3942
▁당선된	-11.3943
▁만족한다	-11.3944
됐기	-11.3946
▁발사했다	-11.3947
▁만행	-11.3948
▁맺었다	-11.3949
into	-11.395
▁이용자들	-11.3951
▁높이고	-11.3952
▁학자들	-11.3955
▁것일	-11.3956
▁전술	-11.3958
▁거물	-11.3958
▁이건	-11.396
▁아랍어	-11.3961
아웃	-11.3961
▁개혁안	-11.3962
▁끝내고	-11.3965
ear	-11.3966
▁동해	-11.3967
▁차지할	-11.3968
▁가사	-11.3971
▁외교관들	-11.3973
중국	-11.3976
▁영화로	-11.3977
퍼스	-11.3979
▁경쟁에서	-11.398
▁통과한	-11.398
마드	-11.3981
▁피로	-11.3981
▁여성으로	-11.3983
▁수직	-11.3993
▁증가시키	-11.3993
▁워싱턴에	-11.3994
▁몬	-11.3994
ew	-11.3996
▁이상으로	-11.3999
▁교도	-11.4
▁전했으	-11.4003
▁수습	-11.4008
▁치료제	-11.4013
▁시대에	-11.4013
▁공격하기	-11.4014
▁앤드	-11.4021
▁열리고	-11.4023
학자인	-11.4023
▁이견	-11.4026
▁칠	-11.4028
센터에서	-11.4031
ern	-11.4032
▁플로	-11.4039
▁차고	-11.4044
▁장소에	-11.4048
▁금지된	-11.4049
▁쉐	-11.4052
our	-11.4052
▁설립한	-11.4056
▁결정될	-11.4057
▁파괴된	-11.4058
▁해치	-11.4061
▁표기	-11.4062
▁고정	-11.4063
▁시스템에	-11.4067
▁승리하는	-11.4074
안이	-11.4074
▁Cas	-11.4075
▁들어가기	-11.4076
▁반군에	-11.4076
▁관대	-11.408
▁켄	-11.4082
▁마르코	-11.4083
▁마이크로	-11.4085
▁고집	-11.4088
▁참가국들	-11.4097
ns	-11.4098
ord	-11.41
▁지지율로	-11.4106
▁장례식에	-11.411
유지	-11.4111
▁대학생들	-11.4113
▁클럽에서	-11.4121
▁중재자	-11.4122
벨리	-11.4123
▁등장하	-11.4124
▁판매하는	-11.4125
▁합의안	-11.4126
▁난자	-11.4127
단계	-11.4129
▁확산되	-11.413
▁충돌했다	-11.4132
게임	-11.4133
물질	-11.4134
▁요인이	-11.4137
되게	-11.4139
▁메가	-11.414
▁특파원이	-11.4142
▁발생한다	-11.4144
▁일반인들	-11.4149
▁살리	-11.4151
▁방위	-11.4154
▁파업이	-11.4156
▁Di	-11.4156
킨스	-11.4161
자에	-11.4169
글리	-11.4171
▁명명	-11.4172
▁지점에	-11.4172
마이어	-11.4178
▁이라크로	-11.4184
▁게임에	-11.4185
▁의원들과	-11.4189
▁실려	-11.4192
▁수퍼대의원	-11.4194
▁압도	-11.4196
▁치르는	-11.4197
▁선호	-11.4199
▁미국내	-11.4201
치기	-11.421
▁제품들	-11.421
▁정상에	-11.4216
▁교착상태	-11.4216
▁병이	-11.422
팀이	-11.4231
▁들어갔	-11.4232
ze	-11.4233
▁최근까지	-11.4233
▁쓰이	-11.4236
▁곳곳	-11.4236
▁나갔	-11.4237
▁인정하고	-11.4241
▁고전	-11.4243
▁겪었	-11.4243
▁도달했다	-11.4244
▁전문의	-11.4247
▁만대	-11.4251
▁년대에	-11.4254
▁막는	-11.4254
▁면적	-11.4255
▁강화하기	-11.4256
▁안겨	-11.4256
▁비전	-11.4257
▁부상당했다	-11.4259
▁미군에	-11.426
▁작년에	-11.4262
▁진정시키	-11.4275
▁업	-11.4276
▁매케인과	-11.4278
▁qu	-11.4284
ite	-11.4285
▁놀이	-11.4286
럭	-11.4287
▁Do	-11.4288
▁테네시	-11.4288
▁검문	-11.4289
▁풀려	-11.4292
탔	-11.4294
▁선거일	-11.4296
▁페트로	-11.4296
▁냉전	-11.4297
셜	-11.4297
▁Australia	-11.4297
▁death	-11.4297
▁그린스펀	-11.4297
▁급상승	-11.4297
▁낙하산	-11.4297
▁농산물	-11.4297
▁대량살상무기	-11.4297
▁디얄라	-11.4297
▁라우터바흐	-11.4297
▁롱고리아	-11.4297
▁선거캠페인	-11.4297
▁슈나이더	-11.4297
▁앨라배마	-11.4297
▁언색호	-11.4297
▁오차범위	-11.4297
▁잃게	-11.4297
▁지구온난화	-11.4297
▁카메론	-11.4297
▁테헤란	-11.4297
쭉	-11.4297
▁올랜도	-11.4297
▁마스터스	-11.4297
▁유시프	-11.4297
▁저녁식사	-11.4297
▁퇴역	-11.4297
▁획기적	-11.4297
▁정부청사	-11.4297
▁졸릭	-11.4297
▁리더십	-11.4297
▁황교수	-11.4297
▁right	-11.4297
▁괴롭	-11.4297
▁사냥꾼	-11.4297
▁검열	-11.4297
▁Franc	-11.4297
▁자살폭탄	-11.4298
▁증산	-11.4298
▁GNP	-11.4298
▁증오	-11.4298
▁검시관	-11.4298
▁아르빌	-11.4298
▁get	-11.4298
▁호킨스	-11.4298
▁안젤리	-11.4298
▁줄어든	-11.4298
매치	-11.4299
▁우편	-11.4299
▁무엇인가	-11.4299
▁토끼	-11.4299
▁동맹관계	-11.4299
▁반도체	-11.4299
▁자본주의	-11.4299
▁그린랜드	-11.4299
▁토로했다	-11.43
▁잔디	-11.43
▁친밀	-11.43
book	-11.43
▁보도자료	-11.43
▁클레이코트	-11.4301
▁아바타	-11.4301
▁기념품	-11.4301
▁재능	-11.4301
▁교역	-11.4301
▁플	-11.4301
▁불경기	-11.4302
▁생활에	-11.4302
▁납부	-11.4302
▁발송	-11.4303
▁늘어난	-11.4303
▁주자	-11.4303
▁내다봤	-11.4303
▁친절	-11.4303
런스	-11.4303
▁샤론	-11.4304
▁피터슨	-11.4304
▁물리적	-11.4304
▁서열	-11.4304
▁살짜리	-11.4304
▁Air	-11.4305
▁회색	-11.4305
▁주머니	-11.4305
▁선거자금	-11.4305
▁교차	-11.4305
▁탈세	-11.4306
▁오만	-11.4306
▁섬유	-11.4306
▁한국전쟁	-11.4307
▁출간	-11.4307
▁누설	-11.4307
▁인천	-11.4308
▁악명	-11.4309
▁미시간주	-11.431
▁총살	-11.431
▁지난밤	-11.431
▁베이비	-11.4311
▁십만	-11.4312
ZA	-11.4312
▁시몬	-11.4312
▁없음	-11.4313
▁파워	-11.4314
▁중태라	-11.4316
재단	-11.4316
▁태어났다	-11.4316
▁신설	-11.4317
▁스파이스	-11.4318
▁프로그램과	-11.432
▁생선	-11.432
▁참수	-11.432
▁들어보	-11.432
놨다	-11.4321
▁제조회사	-11.4322
▁노벨상	-11.4323
▁탈당	-11.4323
▁끌어들이	-11.4323
인당	-11.4325
▁양호	-11.4327
▁총리로	-11.4328
▁유타	-11.4328
▁온실	-11.4329
▁루디	-11.433
▁어미	-11.4332
▁본즈	-11.4332
▁선제	-11.4333
▁종전	-11.4333
▁국토안보부	-11.4335
괴	-11.4336
▁통과할	-11.4337
▁진상	-11.4338
▁허용하는	-11.4338
톱	-11.4338
▁모였다	-11.434
▁단일	-11.4341
▁상표	-11.4343
팬	-11.4345
▁주입	-11.4345
▁울리	-11.4345
▁Gu	-11.4345
▁피우	-11.4345
▁보호소	-11.4346
▁비행선	-11.4346
번호	-11.4347
▁작전에	-11.4348
혁명	-11.4348
▁자루	-11.435
▁경유	-11.435
▁주정부	-11.4351
▁싱글	-11.4352
▁다비	-11.4352
▁호위	-11.4353
▁중국정부	-11.4355
▁줄었다	-11.4355
▁설립자	-11.4355
▁경상	-11.4356
▁의사당	-11.4357
▁끝나지	-11.4359
▁이민법	-11.4361
▁체포됐으	-11.4362
▁못하면	-11.4362
▁나아	-11.4364
▁만들어내	-11.4364
간다	-11.4366
▁침수	-11.4367
▁들어서	-11.4369
▁신성	-11.437
▁들어주	-11.437
▁주둔군	-11.437
▁기대된다	-11.4371
▁되려	-11.4374
▁침	-11.4374
▁서울시장	-11.4374
▁비공식	-11.4374
▁램	-11.4376
▁자란	-11.4377
▁불거	-11.4378
▁서쪽으로	-11.4379
▁죄수	-11.4381
▁적군	-11.4382
▁한가지	-11.4384
▁의미하는	-11.4385
▁요구해	-11.4389
▁밝혀지	-11.4389
▁실종됐다고	-11.439
ck	-11.4392
▁내리지	-11.4395
▁수만	-11.4396
▁효과적인	-11.4396
번에	-11.4398
▁경의	-11.4398
마저	-11.44
▁대신해	-11.44
▁의원과	-11.4401
방안	-11.4405
리트	-11.4406
▁기여	-11.4408
▁무서	-11.4409
▁돌아가는	-11.441
▁서부지역	-11.4413
▁지불할	-11.4413
▁생각할	-11.4414
▁건물들	-11.4415
▁배에	-11.4415
지점	-11.4415
화물	-11.4415
▁팔레스타인과	-11.4421
▁열린다	-11.4422
▁근거지	-11.4422
▁생각된다	-11.4423
▁저널	-11.4423
▁외곽에서	-11.4428
▁외계인	-11.443
▁살상	-11.4441
▁항해	-11.4442
워크	-11.4444
▁다스	-11.4445
범죄	-11.4448
▁말했었다	-11.4448
▁사항이	-11.445
별로	-11.4452
▁So	-11.446
▁순간에	-11.4462
▁성능	-11.4463
▁발표했으	-11.4468
▁위크	-11.4471
▁샤프	-11.4474
▁정국	-11.4477
▁일종	-11.4479
▁KT	-11.448
▁시선	-11.4483
▁로즈	-11.4484
▁식당에서	-11.4485
▁실시됐다	-11.4486
교수	-11.449
▁수행한	-11.4492
▁유럽에	-11.4494
▁예정이었으	-11.4494
▁연인	-11.4494
▁활	-11.4496
▁투자가들	-11.4497
▁수행했다	-11.4497
▁증거로	-11.4498
▁공해	-11.4498
▁발표에	-11.4501
▁시작한다	-11.4503
정권	-11.4505
▁공급받	-11.4512
▁오르는	-11.4513
▁마련된	-11.4514
▁지방에	-11.4519
▁국내에서	-11.4521
▁시작하	-11.4526
▁바비	-11.4529
▁아프리카에서	-11.4539
러운	-11.4542
속에	-11.4549
▁사고에	-11.4554
▁해결하는	-11.4558
▁한글	-11.456
▁행위로	-11.4561
▁설치한	-11.4561
겼으	-11.4563
▁시민이	-11.4567
▁주도하고	-11.4569
▁점에서	-11.457
▁아파트에서	-11.4573
ld	-11.4575
ey	-11.4575
▁해준다	-11.4575
롭게	-11.458
▁겐	-11.4581
ls	-11.4589
▁작고	-11.4592
▁휩싸	-11.4592
▁일이었다	-11.4596
▁위반했다	-11.4603
▁파기	-11.4606
대상	-11.4607
▁선박들	-11.4608
▁적지	-11.4608
▁결함이	-11.461
ease	-11.4617
▁효과적	-11.4623
▁보도된	-11.4623
조건	-11.4624
▁검찰에	-11.4624
▁선포한	-11.4625
▁넣으	-11.4627
이면	-11.4627
▁성공할	-11.4628
▁영화화	-11.4629
▁후송	-11.4633
▁진출에	-11.4636
적이지	-11.4638
▁도착해	-11.464
▁결정한	-11.4642
▁때에	-11.4643
ni	-11.465
▁바그다드에	-11.4652
카트	-11.4656
▁중단된	-11.4656
▁나타났	-11.4658
예프	-11.466
▁여진	-11.4662
▁간부들	-11.4664
▁나비	-11.4667
▁카라치	-11.4673
▁연기됐다	-11.4675
▁감염되	-11.4677
▁떠났	-11.4682
▁내야	-11.469
허가	-11.469
▁모여들	-11.4691
▁Dis	-11.4691
▁우려하는	-11.4692
해왔으	-11.4693
민들	-11.4693
▁타운	-11.4696
▁운전자들	-11.4698
▁구조됐다	-11.4699
▁일자	-11.4702
▁조직원들	-11.4706
▁과정이	-11.4708
▁능력이	-11.4715
dict	-11.4718
▁파견했다	-11.4718
▁일본군	-11.4719
략	-11.472
▁대조	-11.4721
▁배달	-11.473
▁우주비행	-11.4735
▁기념하	-11.4737
▁손님들	-11.474
▁di	-11.4741
▁친구와	-11.4744
▁주식시장이	-11.4746
므	-11.4747
▁def	-11.4749
▁무장세력들	-11.4751
▁총기난사	-11.4751
밭	-11.4751
헴	-11.4751
world	-11.4751
▁GPS	-11.4751
▁HSBC	-11.4751
▁가라앉	-11.4751
▁국제사면위원회	-11.4751
▁김경준	-11.4751
▁낮게	-11.4751
▁돈세탁	-11.4751
▁맞춘	-11.4751
▁몰디브	-11.4751
▁믿음	-11.4751
▁베스트셀러	-11.4751
▁손해배상	-11.4751
▁신천옹	-11.4751
▁아라파트	-11.4751
▁아이슬란드	-11.4751
▁애널리스트	-11.4751
▁우비넨	-11.4751
▁자이언트	-11.4751
▁전화통화	-11.4751
▁찍었다	-11.4751
▁콘텐트	-11.4751
▁페르난데스	-11.4751
▁폭넓	-11.4751
▁푸에르토리코	-11.4751
▁해리왕자	-11.4751
넥	-11.4751
윙	-11.4751
파이낸셜	-11.4751
▁가금류	-11.4751
▁가석방	-11.4751
▁무중력	-11.4751
▁자부심	-11.4751
▁황박사	-11.4751
▁발레리	-11.4751
▁오페라	-11.4751
▁프리킥	-11.4751
▁갱신	-11.4751
▁진원지	-11.4751
▁차세대	-11.4751
▁Thi	-11.4751
ough	-11.4751
▁Wild	-11.4751
▁놀랍	-11.4751
▁라시드	-11.4751
▁플레이오프	-11.4751
▁후쿠다	-11.4751
▁남서쪽	-11.4751
▁브라더스	-11.4752
▁트레킹	-11.4752
▁프레슬리	-11.4752
▁강아지	-11.4752
▁헌터	-11.4752
▁설문조사	-11.4752
▁선제골	-11.4752
▁다툼	-11.4752
▁딜리	-11.4752
▁익사	-11.4752
▁아이팟	-11.4752
▁화폐	-11.4752
▁왕궁	-11.4752
▁푸켓	-11.4752
▁삼성그룹	-11.4752
light	-11.4752
▁포옹	-11.4752
▁이틀째	-11.4753
▁인디언	-11.4753
▁삭스	-11.4753
▁탑재	-11.4753
▁지방선거	-11.4753
▁메이저	-11.4753
▁복부	-11.4754
▁웃음	-11.4754
▁프라임	-11.4754
▁투항	-11.4754
▁물러난	-11.4754
▁다룰	-11.4754
▁기부금	-11.4754
▁미술관	-11.4754
▁기차역	-11.4754
▁지저스	-11.4754
▁보건당국	-11.4755
▁진열	-11.4755
▁동부에	-11.4755
▁단축	-11.4756
▁틀림없	-11.4756
▁우익	-11.4756
▁해산물	-11.4757
▁감각	-11.4757
▁방위군	-11.4757
▁터너	-11.4757
▁빈번	-11.4757
▁석탄	-11.4757
▁무패	-11.4757
▁침실	-11.4757
▁정교회	-11.4758
▁데이브	-11.4758
▁동등	-11.4758
▁선진국	-11.4759
▁직위	-11.4759
▁교정	-11.4759
▁SG	-11.4759
▁왕위	-11.476
▁피의자	-11.476
▁대기권	-11.476
▁북경	-11.4761
▁변형	-11.4761
▁사이먼	-11.4761
▁공범	-11.4761
▁선언문	-11.4761
▁디에고	-11.4762
▁프로디	-11.4762
▁버스에	-11.4762
▁국토	-11.4763
▁나이키	-11.4763
▁연정	-11.4767
▁콜린스	-11.4767
내려	-11.4769
▁판명	-11.4769
▁공항으로	-11.4769
▁서버	-11.4769
▁린치	-11.4772
▁영아	-11.4773
▁보리스	-11.4773
▁조각상	-11.4774
▁콜로라도주	-11.4774
▁비정부	-11.4775
▁선동	-11.4775
▁게시	-11.4776
▁골든	-11.4776
▁시합	-11.4776
▁브레	-11.4778
▁레노	-11.4778
▁우주복	-11.4778
슬러	-11.4779
▁호박	-11.4779
▁리터	-11.4779
▁역전	-11.478
▁예보	-11.478
▁결성	-11.478
▁채무	-11.478
▁실바	-11.4781
▁풀어주	-11.4782
▁폐허	-11.4782
▁공표	-11.4782
▁상임	-11.4788
▁제작진	-11.479
▁근본주의	-11.479
▁다루는	-11.4791
▁장관급	-11.4791
▁린다	-11.4791
대통령	-11.4792
▁돌아간	-11.4792
▁좋았다	-11.4793
▁감독과	-11.4794
▁주차장에서	-11.4796
▁시작됐으	-11.4797
▁저명	-11.4798
▁내려오	-11.4798
▁간다	-11.4799
▁솜	-11.4801
▁펴	-11.4801
▁몰린	-11.4802
블리	-11.4802
▁연어	-11.4803
▁히스	-11.4803
▁포도	-11.4809
특	-11.4809
▁보험사	-11.481
▁하위	-11.481
▁정부기관	-11.4813
▁여행자	-11.4814
딕	-11.4814
링턴	-11.4815
▁주립	-11.4816
▁산업이	-11.4816
탐	-11.4816
▁곳곳에서	-11.4817
풀	-11.4817
▁목표물	-11.4818
▁승려	-11.4819
▁단계적	-11.4819
▁비중	-11.482
▁딴	-11.482
▁접어들	-11.4821
밴드	-11.4822
투쟁	-11.4822
책임자	-11.4822
▁Mon	-11.4822
▁국제법	-11.4824
분쟁	-11.4824
▁않으려	-11.4824
▁본부장	-11.4825
▁영해	-11.4826
배우	-11.4828
io	-11.4829
▁쓰지	-11.4829
▁연결하	-11.4831
▁날에	-11.4832
▁시사했다	-11.4834
▁사건에서	-11.4835
▁가계	-11.4835
▁남부지역에서	-11.4837
모양	-11.4837
▁발표하면서	-11.4837
▁희생자들이	-11.4839
요금	-11.4843
▁후속	-11.4843
▁의류	-11.4844
▁기간이	-11.4845
▁경호원들	-11.4846
▁그럴	-11.4847
체계	-11.4847
해줬다	-11.4849
▁주목할	-11.485
▁당선됐다	-11.485
▁아크	-11.4851
통제	-11.4852
▁베이징에	-11.4853
▁기르	-11.4855
▁이유에	-11.4855
리야	-11.4857
▁템	-11.4857
▁움직이는	-11.4861
▁란	-11.4861
▁매케인에	-11.4862
▁law	-11.4862
▁한국계	-11.4863
▁갇혀있	-11.4864
▁결혼했다	-11.4868
▁툴	-11.4868
▁제시할	-11.4869
▁경제학자	-11.4869
▁관여한	-11.4871
▁배상	-11.4873
리코	-11.4875
었는데	-11.4875
▁일삼	-11.4879
바인	-11.488
▁나온다	-11.4884
▁전반에	-11.4886
▁확인하지	-11.4886
리드	-11.4887
▁해결에	-11.4888
티아	-11.4888
실적	-11.4889
▁박스	-11.489
▁담당하	-11.4891
▁소행	-11.4893
▁되면서	-11.4898
▁인터넷에서	-11.4899
▁떠나지	-11.4903
▁설립된	-11.4903
▁반군들	-11.4904
▁담겨	-11.4905
▁자신만	-11.4907
▁숨지	-11.491
▁노력했다	-11.491
▁하퍼	-11.4913
▁공화당원들	-11.4914
▁간호사	-11.4915
웃으	-11.4919
길에	-11.492
CA	-11.4922
▁하스	-11.4925
리카	-11.4928
▁이용자	-11.493
▁올림픽에	-11.4931
▁추산했	-11.4933
▁교통부	-11.4933
ful	-11.4936
▁토론회에서	-11.4936
▁노출되	-11.4937
▁바람에	-11.494
▁계속됐다	-11.4948
▁완화하기	-11.4952
▁aid	-11.4954
케르	-11.4955
▁프로젝트에	-11.4958
tive	-11.496
▁알바	-11.4965
▁군의	-11.4968
▁결심했다	-11.4969
▁폭락했다	-11.497
▁압수했다	-11.4974
▁아나	-11.4976
▁방송이	-11.4977
▁악화된	-11.4979
▁목록에	-11.4981
▁중단시키	-11.4981
▁재료	-11.4982
▁신자	-11.4984
▁투자가	-11.4988
▁주도하	-11.4989
▁결정하기	-11.4989
▁FA	-11.499
▁잔인	-11.4996
▁이스트	-11.4997
카르	-11.4999
▁팔리	-11.5001
▁고리	-11.5004
▁않았을	-11.5006
▁파키스탄과	-11.5006
▁신체적	-11.5008
▁내부에	-11.5009
▁한반도에	-11.5009
▁타이거	-11.5012
▁지원했다	-11.5013
▁가정에서	-11.5022
▁퇴원했다	-11.5023
▁세르	-11.5024
▁지아	-11.5026
▁참가국	-11.5026
▁법에	-11.5027
▁국제적으로	-11.5027
평가	-11.5027
▁진도	-11.5031
▁이혼했다	-11.5044
▁한국측	-11.5046
▁작가들	-11.5048
▁나사	-11.5057
▁저지하	-11.5057
▁하에서	-11.5058
▁Sun	-11.5063
▁일하고	-11.5073
▁개월이	-11.5074
▁선정했다	-11.5075
일까	-11.5077
▁레인	-11.5078
▁철학	-11.5082
▁부인이	-11.5082
▁앉아있	-11.5082
회장	-11.5084
레시	-11.5086
▁홍콩에서	-11.5087
▁부분에	-11.5088
▁레바논에서	-11.5089
▁방문하고	-11.5095
▁유대인들	-11.5096
▁수행하는	-11.5096
▁경찰관들	-11.5097
▁그곳	-11.5097
▁지명에	-11.5097
▁여인	-11.5099
ef	-11.51
ull	-11.5101
▁캘리포니아에서	-11.5105
▁뒤지	-11.5111
▁집회에서	-11.5112
▁Se	-11.5112
생물학	-11.5112
▁교황이	-11.5113
other	-11.5113
vo	-11.5114
▁직원과	-11.5117
▁젊은이들이	-11.5119
▁미얀마에서	-11.5122
▁방안에	-11.5122
▁항의했다	-11.5122
▁시점에	-11.5123
▁차지하	-11.5133
▁지냈	-11.5137
▁되어야	-11.5149
▁차에	-11.5152
부장	-11.5159
▁잡혀	-11.5164
▁찾았	-11.5164
▁일조	-11.5166
▁걱정하	-11.5168
▁소방대원	-11.5169
▁일정에	-11.5172
▁나타냈	-11.5176
▁치열	-11.5177
▁실종됐다	-11.5179
시민	-11.5182
▁실험에	-11.5185
▁근본	-11.5186
▁불행	-11.5197
용품	-11.5198
▁집이	-11.5198
▁당이	-11.52
▁감행한	-11.5202
인구가	-11.5204
빠	-11.5205
▁석방에	-11.5205
▁하사	-11.5209
▁테러범이	-11.5214
▁사람으로	-11.5216
▁protest	-11.5216
▁Car	-11.5217
▁미네소타	-11.5217
▁중력	-11.5217
▁미주리	-11.5221
▁촉구하고	-11.5221
끔	-11.5222
흥	-11.5223
마라	-11.5224
▁make	-11.5225
셋	-11.5226
▁얼룩	-11.5227
벡	-11.5227
▁NYMEX	-11.5227
▁Russia	-11.5227
▁Street	-11.5227
▁Week	-11.5227
▁White	-11.5227
▁minister	-11.5227
▁official	-11.5227
▁peace	-11.5227
▁가로질러	-11.5227
▁그랜드슬램	-11.5227
▁라스무센	-11.5227
▁레드삭스	-11.5227
▁맞교환	-11.5227
▁매릴랜드	-11.5227
▁불필요	-11.5227
▁빈라덴	-11.5227
▁생태계	-11.5227
▁소렌스탐	-11.5227
▁스콜세지	-11.5227
▁스탤론	-11.5227
▁식이요법	-11.5227
▁신용경색	-11.5227
▁싫어하	-11.5227
▁얼어붙	-11.5227
▁와지리스탄	-11.5227
▁유네스코	-11.5227
▁제너럴	-11.5227
▁주미대사	-11.5227
▁질렀다	-11.5227
▁코네티컷	-11.5227
▁팽팽	-11.5227
▁펌프	-11.5227
▁포틀랜드	-11.5227
▁푸에르타	-11.5227
덟	-11.5227
▁비아그라	-11.5227
▁아메드	-11.5227
▁알자지라	-11.5227
▁ECB	-11.5227
▁마터호른	-11.5227
▁국가정보원	-11.5227
▁가이트너	-11.5227
▁고마움	-11.5227
▁로드맵	-11.5227
▁만델라	-11.5227
▁투탕카멘	-11.5227
▁헝가리	-11.5228
▁남동쪽	-11.5228
▁텔레콤	-11.5228
▁밀리밴드	-11.5228
▁Work	-11.5228
▁본거지	-11.5228
▁파이프라인	-11.5228
▁이뤄져야	-11.5228
▁핑크	-11.5228
▁외딴	-11.5228
▁FAA	-11.5228
▁거세지	-11.5228
▁아로요	-11.5228
▁블레이크	-11.5228
▁납북	-11.5228
▁버클리	-11.5228
▁WTI	-11.5229
▁투옥	-11.5229
▁불러일으키	-11.5229
▁몬테	-11.5229
▁완승	-11.5229
▁want	-11.5229
life	-11.5229
▁재처리	-11.523
▁우호적	-11.523
▁JP	-11.523
▁음란물	-11.523
▁신분증	-11.523
▁보험금	-11.5231
▁청색	-11.5231
▁점유율	-11.5231
▁철강	-11.5231
▁More	-11.5231
▁정황	-11.5231
▁나이로비	-11.5232
▁러브	-11.5232
▁로얄	-11.5232
▁사절단	-11.5232
amp	-11.5233
▁정확하게	-11.5233
▁증권거래소	-11.5233
▁함정	-11.5233
메모리얼	-11.5233
▁버려진	-11.5233
▁잠재력	-11.5234
▁그래함	-11.5234
▁사촌	-11.5234
▁투병	-11.5234
▁생물학적	-11.5235
어드	-11.5235
▁바이든	-11.5235
▁위안화	-11.5235
▁부착	-11.5235
▁첫째	-11.5235
▁절단	-11.5235
▁유머	-11.5236
▁통역	-11.5237
▁진심	-11.5237
▁붙였다	-11.5237
▁사탕	-11.5237
▁유언	-11.5237
▁화물선	-11.5238
▁경색	-11.5238
▁전인대	-11.5238
▁긴장감	-11.5238
▁노엘	-11.5239
▁봅	-11.5239
ks	-11.524
▁인준	-11.5241
▁앞서있다	-11.5242
▁육상	-11.5242
▁있느냐	-11.5243
▁파타당	-11.5243
국가대표팀	-11.5243
▁은폐	-11.5244
▁창고	-11.5244
▁대표와	-11.5244
▁Prim	-11.5245
▁마샤	-11.5245
▁대통령궁	-11.5246
▁경찰관이	-11.5246
▁가이드	-11.5246
▁판결문	-11.5247
▁시청률	-11.5247
form	-11.5248
▁정당화	-11.5249
▁애정	-11.525
▁엔화	-11.525
▁줄리아	-11.525
eat	-11.525
▁달렸다	-11.525
▁육성	-11.5251
▁자바	-11.5251
▁쿠즈	-11.5251
메스	-11.5252
▁자체적으로	-11.5252
▁박차	-11.5255
▁분배	-11.5255
▁공공장소에서	-11.5257
▁장점	-11.5257
▁금융계	-11.5258
▁위헌	-11.5258
▁대열	-11.5259
▁루즈	-11.5259
▁치우	-11.526
▁장애물	-11.526
▁교실	-11.526
내기	-11.5262
▁취업	-11.5264
▁Wi	-11.5264
▁금주	-11.5265
▁내달	-11.5266
▁감수	-11.5268
나마	-11.5268
▁잃어	-11.5268
NP	-11.5269
▁합법적으로	-11.527
▁높았다	-11.527
▁전념	-11.527
닐	-11.527
▁발명	-11.5271
▁팔아	-11.5271
▁치료법	-11.5272
▁치아	-11.5276
▁금연법	-11.5278
▁펜실베이니아주	-11.528
▁투하	-11.5281
▁동상	-11.5281
▁서울대	-11.5283
▁제공하	-11.5283
▁의존하고	-11.5284
▁가나	-11.5284
▁매력적	-11.5288
▁신선	-11.5288
▁합법적인	-11.5288
▁들어왔다	-11.529
▁남부지역	-11.5292
▁들소	-11.5292
▁북한군	-11.5293
▁or	-11.5295
▁격돌한	-11.5295
실에서	-11.5296
훈련	-11.5296
노스	-11.5298
▁수영장	-11.5302
▁요청했으	-11.5304
▁이사장	-11.5305
▁사우	-11.5307
▁인종차별	-11.5307
▁양곤에서	-11.531
하기위해	-11.531
▁예상치	-11.5311
▁문어	-11.5311
▁왕국	-11.5312
▁사단	-11.5313
첸	-11.5313
▁강화하	-11.5313
▁출판사	-11.5314
▁견디	-11.5314
▁투표소	-11.5315
사무소	-11.5316
▁라파	-11.5318
▁교착상태에	-11.5318
▁대통령으로서	-11.5319
▁다운	-11.532
▁세웠	-11.5321
▁올드	-11.5322
핵	-11.5322
▁크라우	-11.5323
▁비티	-11.5324
▁닉	-11.5324
금융	-11.5324
▁국가와	-11.5324
▁이행할	-11.5325
▁조화	-11.5325
음악	-11.5326
민족	-11.5326
▁측면에서	-11.5326
▁납치범	-11.5327
▁목에	-11.533
▁착용한	-11.533
▁주심	-11.5333
▁블리	-11.5334
▁전용기	-11.5335
▁실질적으로	-11.5336
머니	-11.5337
▁포기한	-11.5343
▁다치	-11.5344
▁분리주의자들	-11.5345
▁영화관	-11.5345
부족	-11.5346
FC	-11.5346
▁우주센터	-11.5347
이라크	-11.5347
단체인	-11.5348
▁손상된	-11.535
▁음와	-11.535
신고서	-11.5351
▁혼인	-11.5357
ship	-11.536
▁back	-11.5363
▁이슬라마바드에서	-11.5364
▁돌아왔	-11.5364
▁만회	-11.5365
▁오르기	-11.5372
▁전사들	-11.5373
▁호주군	-11.5376
▁토레	-11.5377
▁심리학	-11.5377
▁이라크인들	-11.5378
상품	-11.5378
▁변수	-11.5382
공원	-11.5382
▁카불에서	-11.5383
▁측근들	-11.5384
▁등정	-11.5386
▁이끌어내	-11.5388
ling	-11.5389
arly	-11.5391
▁공동성명	-11.5392
▁명만	-11.5393
▁붕괴되	-11.5396
▁확보에	-11.5396
▁임명했다	-11.5397
▁작전이	-11.5399
▁모델로	-11.5399
▁지어	-11.5403
▁적게	-11.5403
▁조사팀	-11.5405
▁서명한	-11.5407
ix	-11.5408
감시	-11.5409
▁궤도에	-11.5409
▁등록된	-11.541
▁수용소에	-11.541
▁고고학자	-11.541
▁충돌해	-11.5416
▁확보해	-11.5416
▁친척들	-11.5418
▁집중적	-11.5428
▁PS	-11.543
▁제품이	-11.543
▁대응할	-11.5434
▁존재하	-11.5435
▁지원에	-11.5436
▁자식	-11.544
▁행정부에	-11.5445
▁바라보	-11.5445
▁폭발물이	-11.5451
SE	-11.5453
▁중위	-11.5456
▁강화된	-11.5457
▁시행되	-11.5458
▁프로그램에서	-11.546
▁이용했다	-11.5467
투자	-11.547
파크	-11.5472
▁들어있	-11.5473
▁엔지니어	-11.5475
▁결의안이	-11.548
▁더미	-11.5484
▁유전적	-11.5487
▁입히	-11.5488
▁지적하	-11.5496
▁프로그램들	-11.5502
▁사고기	-11.5506
va	-11.5506
▁발효	-11.5509
드레	-11.5511
화와	-11.5511
▁나이에	-11.5513
▁우려해	-11.5516
▁돼있다	-11.5517
▁의문이	-11.5529
ile	-11.5533
▁제조업	-11.5539
▁올림픽에서	-11.5545
▁회복하고	-11.5546
▁고등	-11.5552
▁전비	-11.5554
▁일반인	-11.5564
ries	-11.5565
바드	-11.5566
▁처했다	-11.5566
now	-11.5568
AB	-11.5574
▁소행이라	-11.5576
▁충족	-11.5576
능력	-11.5577
▁운영되	-11.5578
▁교회에	-11.5581
하에	-11.5584
▁배우자	-11.5586
▁낙찰	-11.5586
▁대면	-11.559
▁팀에	-11.5593
▁랩	-11.5595
▁통과된	-11.5595
▁덕	-11.5599
▁일으켰	-11.5603
▁관계자와	-11.5604
▁트럭이	-11.5605
▁외계	-11.5606
▁벌여왔	-11.5607
▁요구한다	-11.5611
▁걸리는	-11.5614
르트	-11.5617
▁무장세력과	-11.5617
▁합법적	-11.5619
ash	-11.5621
▁안고	-11.5622
벨라	-11.5622
▁없었고	-11.5624
▁심리학자	-11.5625
▁공로	-11.5631
▁글로	-11.5634
▁제의	-11.5634
이상	-11.5635
▁위험하다	-11.5641
▁해법	-11.5641
▁노인들	-11.5642
▁마련해	-11.5645
▁격려	-11.5645
▁FC	-11.5647
▁기록됐다	-11.5655
▁타지	-11.5656
AT	-11.566
▁월말	-11.5662
어지고	-11.5662
판매	-11.5665
▁공산	-11.5667
▁서기	-11.5668
▁수단으로	-11.5675
▁호스	-11.5675
▁수준에	-11.5679
▁몰리	-11.568
▁체포됐	-11.5683
▁연구하는	-11.569
▁사령관이	-11.5692
컷	-11.5692
▁중앙정보	-11.5694
브리지	-11.5695
▁나이로	-11.5696
▁바다에	-11.5696
▁call	-11.5699
net	-11.5702
낸다	-11.5702
건설	-11.5704
▁만나고	-11.5705
란다	-11.5705
▁기업체	-11.5706
nger	-11.5707
▁공정하	-11.571
▁조세	-11.5712
▁밀집	-11.5712
▁해역	-11.5712
▁근본적	-11.5712
▁공개되	-11.5716
▁정규	-11.5716
▁드리	-11.5717
획	-11.5721
했었으	-11.5721
▁관리들과	-11.5721
렬	-11.5721
▁뒤따	-11.5724
메이어	-11.5726
▁Inter	-11.5727
▁fun	-11.5727
돔	-11.5727
펀	-11.5727
▁앵커	-11.5727
랫	-11.5727
▁RCTV	-11.5727
▁Service	-11.5727
▁UAE	-11.5727
▁UMP	-11.5727
▁갖췄다	-11.5727
▁갤러리	-11.5727
▁끊어	-11.5727
▁나이트클럽	-11.5727
▁네그로폰테	-11.5727
▁뉴욕상업거래소	-11.5727
▁뚜렷	-11.5727
▁매카트니	-11.5727
▁쓰러져	-11.5727
▁아흐마디네자드	-11.5727
▁영유권	-11.5727
▁와이오밍	-11.5727
▁즈보나레바	-11.5727
▁초콜릿	-11.5727
▁해안경비대	-11.5727
▁햇볕	-11.5727
▁현수막	-11.5727
▁흑자	-11.5727
뜯	-11.5727
팍	-11.5727
푼	-11.5727
▁start	-11.5727
▁신생아	-11.5727
▁자민당	-11.5727
▁중소기업	-11.5727
▁about	-11.5727
▁agree	-11.5727
▁아폴로	-11.5727
▁홈구장	-11.5727
▁피해여성	-11.5728
▁로날드	-11.5728
▁포츠머스	-11.5728
▁무자비	-11.5728
▁딜런	-11.5728
▁몰아넣	-11.5728
▁프리츨	-11.5728
▁갱단	-11.5728
▁마리화나	-11.5728
▁함부르크	-11.5728
▁게놈	-11.5728
▁Society	-11.5728
▁아이다호	-11.5728
▁강원도	-11.5728
▁휴이트	-11.5728
▁마스리	-11.5728
▁발자국	-11.5728
▁해들리	-11.5728
▁연못	-11.5728
▁under	-11.5728
▁독특	-11.5728
▁봉착	-11.5728
▁다이앤	-11.5728
▁scr	-11.5728
▁오스만	-11.5728
▁에어웨이	-11.5728
▁흘리	-11.5728
▁가르시아	-11.5728
▁벨리	-11.5728
▁룰라	-11.5728
▁출항	-11.5729
indow	-11.5729
ism	-11.5729
▁도미니카	-11.5729
버거	-11.5729
▁창업자	-11.5729
▁test	-11.5729
▁메모리	-11.5729
▁순결	-11.5729
▁혼잡	-11.5729
▁잡혔다	-11.5729
▁웰스	-11.5729
▁눈보라	-11.5729
▁잠비아	-11.5729
▁복사	-11.573
▁라싸	-11.573
▁크로스	-11.573
▁막으려	-11.573
▁혜성	-11.573
▁매도프	-11.573
▁척추	-11.573
▁지방법원	-11.573
▁사무국장	-11.5731
▁내놓았다	-11.5731
▁거슬러	-11.5731
▁민영	-11.5731
▁돌풍	-11.5731
▁제이슨	-11.5731
▁무하마	-11.5731
▁참의원	-11.5731
▁선고받았다	-11.5732
▁로비스트	-11.5732
▁바랍	-11.5732
▁파이프	-11.5732
▁야외	-11.5732
▁묻혀	-11.5733
▁다행	-11.5733
▁혐의와	-11.5733
▁인질극	-11.5733
▁기원전	-11.5733
▁단언	-11.5733
▁훔쳐	-11.5734
▁도와	-11.5734
▁금융기관	-11.5735
▁법령	-11.5736
▁취소하	-11.5736
▁인텔	-11.5736
▁독립국가	-11.5736
▁재앙	-11.5737
▁막았다	-11.5737
▁가야	-11.5737
▁투여	-11.5737
▁악마	-11.5737
▁사라질	-11.5738
▁조사결과	-11.5738
▁걸음	-11.5738
▁초드리	-11.5738
▁해리슨	-11.5739
▁비참	-11.5739
▁인수위원회	-11.574
old	-11.5741
▁농부들	-11.5741
▁죽였다	-11.5742
▁카이로	-11.5743
▁순수	-11.5743
▁조율	-11.5745
▁남긴	-11.5745
▁연구자들	-11.5745
▁태세	-11.5746
▁승진	-11.5748
▁도착하자	-11.5749
▁부양	-11.5749
▁살리기	-11.575
▁구두	-11.5751
▁케이스	-11.5751
▁조립	-11.5752
▁도피	-11.5753
▁번개	-11.5754
▁배역	-11.5754
▁힐러리경	-11.5755
▁아이오와주	-11.5756
▁편집장	-11.5756
▁가져왔다	-11.5757
▁별개	-11.5758
▁점심	-11.5759
▁따내	-11.5764
▁임상	-11.5764
▁랜	-11.5764
▁정박	-11.5764
▁서구	-11.5765
▁들려	-11.5767
▁목성	-11.5767
▁캐나다에서	-11.5767
▁기종	-11.5768
▁참석하는	-11.577
▁미얀마에	-11.577
▁예산안	-11.5772
▁레이드	-11.5772
▁버드	-11.5774
▁기술자들	-11.5776
▁불명	-11.5776
▁동거	-11.5777
▁동력	-11.5778
▁리우	-11.5779
바락	-11.5779
▁추종자들	-11.578
▁포즈	-11.5781
▁하우스	-11.5781
▁마시는	-11.5783
▁팔레스타인인	-11.5783
▁포크	-11.5784
베라	-11.5786
▁손길	-11.5787
▁토드	-11.5787
▁카디	-11.5789
pose	-11.5791
▁미션	-11.5795
▁따라잡	-11.5802
스프링스	-11.5803
▁멍	-11.5804
▁그래픽	-11.5805
▁센트럴	-11.5805
▁중태	-11.5806
▁관광객들에게	-11.5806
▁정해진	-11.5809
▁공개될	-11.5811
▁끌어내	-11.5811
▁제압하	-11.5816
▁생산된	-11.5817
▁개정된	-11.5818
▁적도	-11.5818
▁기용	-11.582
▁빨라	-11.582
▁기각했다	-11.5822
보면	-11.5822
▁티나	-11.5822
▁발표되지	-11.5823
▁추락해	-11.5826
▁본인	-11.5827
▁교사들	-11.5827
ack	-11.5829
▁구성원	-11.5832
▁지나간	-11.5833
▁지지했다	-11.5837
휘	-11.5837
▁되어있	-11.5837
▁무거	-11.5838
▁여왕이	-11.5839
▁이제까지	-11.584
▁공격해	-11.584
▁북해	-11.5842
▁연행됐다	-11.5843
▁중립	-11.5843
앞	-11.5844
데릭	-11.5846
앨	-11.5847
▁부분에서	-11.5848
전략	-11.5849
봤다	-11.5849
ID	-11.5853
▁주시하	-11.5854
▁집어	-11.5854
▁Agenc	-11.5858
관광	-11.586
▁노린	-11.5867
에너지	-11.5868
▁자랑하	-11.5869
▁띠	-11.587
▁두번째로	-11.587
연방	-11.5872
물리학	-11.5874
▁방침이	-11.5876
▁마주	-11.5877
▁본회의	-11.5879
▁길게	-11.5881
▁고려하	-11.5884
▁주석이	-11.5884
▁발견해	-11.5886
▁신뢰할	-11.589
▁쓰인	-11.5891
하트	-11.5892
▁하락했으	-11.5892
▁나타난다	-11.5892
▁슈퍼대의원	-11.5894
▁du	-11.5894
▁이집트에서	-11.5895
▁잘라	-11.5897
신원	-11.59
▁몰아내	-11.59
▁빌라	-11.59
▁숨어	-11.5903
여금	-11.5905
▁밀리	-11.5905
단지	-11.5906
적이라고	-11.5907
▁해일	-11.5912
▁구속했다	-11.5917
▁연맹	-11.5926
▁위협받	-11.5928
▁광장에서	-11.5929
▁주최한	-11.5933
워스	-11.5938
▁가져가	-11.5941
two	-11.5943
▁사나	-11.5944
비안	-11.5949
ama	-11.5955
마크	-11.5955
▁라드	-11.5956
▁무대에	-11.5956
마트	-11.5959
▁대상자	-11.596
▁조심	-11.5965
▁조사관	-11.5967
▁전경	-11.5968
▁지켜보고	-11.5969
▁기소되었	-11.597
▁pa	-11.5973
▁결정하지	-11.5975
▁건이	-11.5976
▁적들	-11.5982
▁해안가	-11.5988
▁경기장에서	-11.5988
전화	-11.5989
▁심리적	-11.5989
▁불만이	-11.5992
요원들	-11.5998
▁동물원에서	-11.6003
▁외곽에	-11.6004
모리	-11.6007
▁월스트리트에서	-11.601
▁월터	-11.6014
▁높이기	-11.6015
▁여당이	-11.6016
▁운항이	-11.6019
▁아서	-11.6024
▁않았기	-11.6033
▁연주자	-11.6034
▁차이나	-11.6037
▁동의한다	-11.6042
▁소녀들	-11.6044
▁다짐	-11.6045
▁상점들	-11.6048
▁Mi	-11.6049
▁샌프란시스코에서	-11.6049
▁구속됐다	-11.6058
루드	-11.6059
▁보내지	-11.6062
▁MP	-11.6063
▁조사하는	-11.6064
거래소	-11.6066
▁하드	-11.607
▁Cl	-11.6074
▁반박했	-11.6084
▁팔레스타인인들	-11.6088
▁반응이	-11.6088
▁움	-11.6091
제작	-11.6092
▁검	-11.6097
아갈	-11.6097
변화	-11.6101
▁잡을	-11.6102
▁북한측	-11.6113
▁시간만	-11.6117
▁가시	-11.612
▁내부에서	-11.6121
▁숨졌	-11.6122
▁미끄러	-11.6122
▁언론들	-11.6126
▁제국	-11.6129
▁All	-11.613
▁고속도로에서	-11.6131
▁주최하	-11.6131
▁임무에	-11.6131
▁방에서	-11.6134
타카	-11.6136
▁역할에	-11.6136
▁놓인	-11.6137
▁정신병	-11.6138
▁아사	-11.6141
적이었다	-11.6144
▁절반이	-11.6146
▁회사에서	-11.6148
uck	-11.6149
브레	-11.6153
▁마드리드에서	-11.6153
IA	-11.6159
▁수단이	-11.6162
▁가하는	-11.617
▁Un	-11.6173
표한다	-11.6174
▁전제	-11.6175
▁모가디슈	-11.6179
▁금요일에	-11.6184
▁나간	-11.6185
▁않았다면	-11.6187
▁대장	-11.619
▁효율	-11.6191
▁앗아	-11.6197
극장에서	-11.6199
▁스티	-11.6201
▁하루만	-11.6203
▁차장	-11.6204
▁하와	-11.6207
▁설립했다	-11.6211
할때	-11.6214
▁업무에	-11.6216
▁추측이	-11.6217
▁십년	-11.6218
▁버린	-11.6219
DA	-11.6226
▁원주민들	-11.6229
하느냐	-11.6229
▁아비	-11.6231
imp	-11.6231
▁물건들	-11.6238
▁방문한다	-11.624
▁year	-11.6242
븐	-11.6246
▁통과했다	-11.6246
첩	-11.6249
칙	-11.6249
깃	-11.6252
듬	-11.6252
▁혐오	-11.6252
▁첨단	-11.6254
뮤	-11.6254
▁Corp	-11.6254
▁Science	-11.6254
▁USGS	-11.6254
▁break	-11.6254
▁claim	-11.6254
▁economic	-11.6254
▁foreign	-11.6254
▁가솔린	-11.6254
▁꿀벌	-11.6254
▁끌었	-11.6254
▁낳았다	-11.6254
▁니스텔로이	-11.6254
▁동성결혼	-11.6254
▁디스플레이	-11.6254
▁르완다	-11.6254
▁리트비넨코	-11.6254
▁메르세데스	-11.6254
▁몸싸움	-11.6254
▁미항공우주국	-11.6254
▁박정희	-11.6254
▁방코델타아시아	-11.6254
▁버틀러	-11.6254
▁베를루스코니	-11.6254
▁북대서양	-11.6254
▁불매운동	-11.6254
▁성매매	-11.6254
▁아제르바이잔	-11.6254
▁앙카라	-11.6254
▁애틀랜티스호	-11.6254
▁요하네스버그	-11.6254
▁인공위성	-11.6254
▁자르카위	-11.6254
▁정권인수팀	-11.6254
▁조선일보	-11.6254
▁좋겠다	-11.6254
▁찍힌	-11.6254
▁칠면조	-11.6254
▁토튼햄	-11.6254
▁핸드폰	-11.6254
옌	-11.6254
콥	-11.6254
▁니제르	-11.6254
▁밀라노	-11.6254
▁선거유세	-11.6254
▁순이익	-11.6254
▁스즈키	-11.6254
▁영사관	-11.6254
▁잠수함	-11.6254
▁합법화	-11.6254
▁재규어	-11.6254
▁나뉘어	-11.6254
▁오사카	-11.6254
▁원자재	-11.6254
▁사직서	-11.6254
▁카펠로	-11.6254
▁비너스	-11.6254
▁와일드	-11.6254
▁핀란드	-11.6254
▁막바지	-11.6254
▁셰퍼드	-11.6254
▁옥스포드	-11.6254
▁반짝이	-11.6254
▁징조	-11.6254
▁사형선고	-11.6254
▁관절염	-11.6254
▁블랙워터	-11.6254
▁좌우	-11.6254
▁페라로	-11.6254
▁묵념	-11.6254
▁프라이스	-11.6254
▁참혹	-11.6254
▁반세기	-11.6254
▁심장질환	-11.6254
▁노숙자	-11.6254
▁즐거움	-11.6254
▁그리핀	-11.6254
▁대운하	-11.6254
▁하이킹	-11.6254
▁아이튠	-11.6254
▁체첸	-11.6254
▁역전승	-11.6254
▁키드먼	-11.6255
▁드라이브	-11.6255
▁파란색	-11.6255
▁음향	-11.6255
▁액션	-11.6255
▁휘말	-11.6255
▁인내심	-11.6255
▁번화가	-11.6255
▁Right	-11.6255
▁그린존	-11.6255
▁부유층	-11.6255
▁빠져나가	-11.6255
▁Park	-11.6255
▁부드러	-11.6255
▁크리스틴	-11.6255
▁People	-11.6255
▁군복무	-11.6255
▁재건축	-11.6255
▁곤경에	-11.6256
▁관례	-11.6256
▁휴먼	-11.6256
▁정회장	-11.6256
▁쏟아져	-11.6256
▁형벌	-11.6256
▁넘겼다	-11.6256
▁소방차	-11.6256
▁파라오	-11.6256
▁불빛	-11.6257
▁농부	-11.6257
▁바오로	-11.6257
▁노워크	-11.6257
▁가정집	-11.6257
▁오닐	-11.6257
▁꾸미	-11.6258
▁연봉	-11.6258
▁괴물	-11.6258
▁생물체	-11.6259
▁환급	-11.6259
▁쉽다	-11.6259
시킴	-11.6259
▁이송됐으	-11.6259
▁직무	-11.6259
▁연합통신	-11.626
▁요구사항	-11.626
▁아흐메드	-11.626
▁같아	-11.626
▁어디서	-11.626
▁마스크	-11.626
▁카타르	-11.626
▁난항	-11.626
▁리틀	-11.626
▁라이더	-11.626
▁부국장	-11.6261
▁제약회사	-11.6261
▁접종	-11.6261
▁과거사	-11.6261
▁숨져	-11.6262
▁샤리아	-11.6262
▁미주리주	-11.6262
▁가져오	-11.6262
▁카누	-11.6262
▁꼬리	-11.6263
▁표범	-11.6263
▁푸미	-11.6263
▁티모	-11.6264
▁사귀	-11.6264
카니	-11.6265
▁만들어졌다	-11.6265
▁난처	-11.6266
▁친분	-11.6266
▁반란군	-11.6266
▁비틀	-11.6266
▁속출	-11.6266
▁미시건주	-11.6266
▁기다렸다	-11.6267
▁휘트	-11.6267
▁사과문	-11.6268
▁유타주	-11.6268
▁경감	-11.6271
▁카렌	-11.6271
▁루이지애나주	-11.6272
▁타개	-11.6272
▁여론조사에	-11.6272
▁백만명	-11.6273
▁테디	-11.6274
▁각료회의	-11.6274
▁구제금융안	-11.6274
▁복도	-11.6275
▁그런데	-11.6275
▁그레이스	-11.6276
▁지켜봤다	-11.6276
▁조차	-11.6276
▁애리조나주	-11.6276
▁며칠간	-11.6276
▁시청자	-11.6276
▁김영	-11.6277
▁기준에	-11.6278
▁매설	-11.6279
▁여건	-11.6279
▁벤치	-11.6279
▁생길	-11.6279
▁센터에서	-11.6281
▁혈	-11.6282
▁질병에	-11.6282
▁표정	-11.6282
가렛	-11.6283
▁사립	-11.6283
▁우표	-11.6284
▁회복세	-11.6284
곳	-11.6284
▁해커	-11.6285
▁형량	-11.6285
뒀다	-11.6285
▁펜실베니아주	-11.6287
▁외신	-11.6287
바오	-11.6287
▁굽	-11.6289
▁치타	-11.629
▁정보원	-11.629
▁거행	-11.6291
▁민족주의	-11.6295
▁들렸다	-11.6297
▁블루스	-11.6298
▁인내	-11.63
▁해외로	-11.63
▁총력	-11.6302
▁반경	-11.6303
▁확정된	-11.6303
▁돌진	-11.6304
▁Su	-11.6305
▁카카	-11.6305
▁소원	-11.6305
▁연관성	-11.6305
▁구직	-11.6305
▁극적	-11.6308
▁지시한	-11.6308
▁이빨	-11.6309
▁날려	-11.6309
▁입원해	-11.6309
▁들어있다	-11.631
▁문명	-11.631
than	-11.6311
▁책상	-11.6313
▁보장하	-11.6313
▁루트	-11.6318
▁Nation	-11.6318
▁째	-11.6319
▁불행한	-11.6319
▁페어	-11.6319
▁보잉사	-11.6319
▁끝나기	-11.632
▁수송기	-11.6321
▁레비	-11.6324
▁예상한	-11.6326
ND	-11.6327
▁시작되었	-11.6327
▁Lo	-11.6329
▁우수	-11.633
▁놓치	-11.6331
former	-11.6331
▁잡았	-11.6332
▁가담한	-11.6333
▁국가적	-11.6333
▁나포	-11.6333
▁중단되	-11.6337
▁Ne	-11.6341
▁나노	-11.6342
▁의약	-11.6342
▁구속력	-11.6344
▁산책로	-11.6345
▁자질	-11.6346
빨	-11.6347
▁개체	-11.6347
▁명절	-11.6348
tions	-11.6349
드미	-11.6353
▁플로리다에	-11.6354
▁한창	-11.6356
정치	-11.6361
▁모색하고	-11.6364
▁주행	-11.6365
▁최다	-11.6365
▁movi	-11.6373
▁사원에	-11.6374
▁국경지역에서	-11.6378
▁쉴	-11.6378
▁추방된	-11.6381
▁건스	-11.6383
▁천국	-11.6384
▁벌인다	-11.6384
▁석유회사	-11.6385
밤	-11.6385
▁상징으로	-11.6385
▁합의했으	-11.6385
▁정서	-11.6388
ina	-11.6388
▁증상이	-11.6389
▁국가들에	-11.639
▁이재민들	-11.6391
자키	-11.6394
▁거래되	-11.6395
랩	-11.6396
▁은신	-11.6398
턱	-11.6401
▁단계로	-11.6401
붙	-11.6403
▁퓨	-11.6404
▁인사들과	-11.6404
시리즈	-11.6404
뒤	-11.6405
▁병장	-11.6405
최초	-11.6406
▁인종적	-11.6411
▁시위대에	-11.6413
▁남쪽에	-11.6413
진압	-11.6415
▁호전	-11.6417
있으	-11.642
▁진압하기	-11.6421
▁매도	-11.6422
arry	-11.6428
▁청문회에서	-11.643
▁법규	-11.6432
▁충돌하	-11.6435
▁후원자	-11.6436
▁고독	-11.6437
▁이겼다	-11.6438
화씨	-11.6439
▁권했다	-11.6439
▁실직자	-11.6444
▁저하	-11.645
▁다해	-11.6451
▁드러나	-11.6451
▁스트리트	-11.6451
▁얼굴에	-11.6452
▁클레이	-11.6453
방식	-11.6462
wi	-11.6462
▁기업에	-11.6465
▁희생됐다	-11.6468
▁조심스럽	-11.6469
▁행복한	-11.647
▁컬	-11.6475
▁환경에서	-11.6481
혔으	-11.6481
▁분주	-11.6482
▁프린	-11.6484
▁비난해	-11.6485
▁거부할	-11.6487
▁기기	-11.649
▁결혼한	-11.6493
▁위원회에	-11.6498
관리국	-11.6498
▁조치들	-11.6503
철도	-11.6516
▁시드니에서	-11.6517
▁보스	-11.6521
▁참여하고	-11.6521
▁크루	-11.6524
tory	-11.6525
▁교류	-11.6526
▁도발적	-11.6526
▁Sp	-11.6526
▁목적지	-11.6528
cer	-11.653
uk	-11.6532
물라	-11.6533
▁가로	-11.6534
▁들어왔	-11.6541
▁다닐	-11.6544
▁콜로	-11.6549
▁때보다	-11.655
▁Ya	-11.6554
▁지지해	-11.6555
action	-11.6556
▁조상	-11.6556
지역으로	-11.6557
▁세상에	-11.6558
▁자원봉사자들	-11.6558
orn	-11.6559
gu	-11.6559
▁주어진	-11.6563
▁임원들	-11.6563
심리	-11.6564
▁부각	-11.6565
DP	-11.6566
▁달했다	-11.6567
▁위원회에서	-11.6571
▁하는데	-11.6572
▁동원됐다	-11.6573
▁경고하	-11.6577
▁북쪽에	-11.6582
▁부문에	-11.6586
▁다리에	-11.6596
▁이어져	-11.6597
대학교	-11.6601
▁펼쳤	-11.6605
▁정상회담에	-11.6607
▁이르다	-11.6614
였음	-11.6614
▁고생	-11.6617
▁만들어지	-11.662
cy	-11.6622
▁국무장관과	-11.6625
주간	-11.6642
▁명이었다	-11.6647
▁미미	-11.6651
그램	-11.6658
▁힘들었	-11.6659
▁마티	-11.6661
▁모델이	-11.6662
▁어기	-11.6662
자산	-11.6663
클라	-11.6663
▁조사관들	-11.6665
▁아프간군	-11.6668
uit	-11.667
▁노출된	-11.6671
▁손실이	-11.6678
▁전해진	-11.6679
▁제작했다	-11.668
▁권장	-11.6684
▁차량과	-11.6685
▁사용된다	-11.6686
▁Red	-11.6696
▁기독교인	-11.6698
▁헌법에	-11.6707
ino	-11.6707
▁허용했다	-11.6709
▁시달리	-11.6716
▁발표되	-11.6719
▁전차	-11.6721
▁해결되	-11.6723
▁별장	-11.6733
▁상반	-11.6735
▁살아있	-11.6738
EC	-11.6743
▁촉진시키	-11.6746
▁단계에서	-11.6748
▁채워	-11.6752
맘	-11.6754
▁좋았	-11.6759
▁다할	-11.6764
▁금지했다	-11.677
▁느끼지	-11.6771
▁당선되	-11.6773
▁따르지	-11.6773
▁기사에	-11.6775
▁의거	-11.6786
▁밀매	-11.6787
▁사임한	-11.6788
▁극단주의	-11.6792
▁계열	-11.6793
▁독자적	-11.6794
▁죽고	-11.6799
▁바람직	-11.68
▁지었다	-11.6801
옹	-11.6806
▁신행정수도	-11.6807
eople	-11.6808
▁말레이시아에서	-11.6808
▁무효	-11.6808
랙	-11.6809
ress	-11.6809
▁힌두	-11.6809
▁살모넬라	-11.6809
궐	-11.6809
쯔	-11.6809
employ	-11.6809
▁California	-11.6809
▁EPL	-11.6809
▁High	-11.6809
▁Journal	-11.6809
▁NHC	-11.6809
▁UCI	-11.6809
▁securit	-11.6809
▁개성공단	-11.6809
▁걸림돌	-11.6809
▁경기후퇴	-11.6809
▁국제올림픽위원회	-11.6809
▁금강산	-11.6809
▁남우주연상	-11.6809
▁뉴잉글랜드	-11.6809
▁늦추	-11.6809
▁독극물	-11.6809
▁라크시미	-11.6809
▁부패혐의	-11.6809
▁불공정	-11.6809
▁상임이사국	-11.6809
▁새크라멘토	-11.6809
▁샌안토니오	-11.6809
▁서둘러	-11.6809
▁선거기부금	-11.6809
▁세골렌	-11.6809
▁아프카니스탄	-11.6809
▁악천후	-11.6809
▁애슐리	-11.6809
▁여러차례	-11.6809
▁옮겼다	-11.6809
▁유엔사무총장	-11.6809
▁이바노비치	-11.6809
▁재결합	-11.6809
▁제퍼슨	-11.6809
▁지켰다	-11.6809
▁췌장암	-11.6809
▁쿠즈넷소바	-11.6809
▁키티호크	-11.6809
▁하드웨어	-11.6809
▁헐리우드	-11.6809
▁홍석현	-11.6809
▁화성탐사	-11.6809
▁히스패닉	-11.6809
쥬	-11.6809
캇	-11.6809
▁Health	-11.6809
▁ISAF	-11.6809
▁석유수출	-11.6809
▁승부차기	-11.6809
▁깁슨	-11.6809
▁나타날	-11.6809
▁유동성	-11.6809
▁추기경	-11.6809
▁다둘라	-11.6809
▁대법관	-11.6809
▁산체스	-11.6809
▁스프레이	-11.6809
▁깁스	-11.6809
▁회교도	-11.6809
▁희귀	-11.6809
▁백과사전	-11.6809
▁하니야	-11.6809
▁즐겁	-11.6809
▁어쩔	-11.6809
▁개구리	-11.6809
▁바시르	-11.681
▁some	-11.681
▁욕구	-11.681
▁캐롤라인	-11.681
▁진짜	-11.681
▁Polic	-11.681
▁루카스	-11.681
▁진상조사	-11.681
▁어렸을	-11.681
HDA	-11.681
▁적혀있	-11.681
▁교도통신	-11.681
▁글로리아	-11.681
▁게이머	-11.681
▁탈퇴	-11.681
무늬	-11.681
ww	-11.681
▁바레인	-11.681
▁부모님	-11.681
▁즐겨	-11.681
▁기념행사	-11.681
▁꺼내	-11.681
▁항구도시	-11.6811
▁출현	-11.6811
▁궁금	-11.6811
▁진척	-11.6811
▁내보냈	-11.6811
▁잠자리	-11.6811
▁핵연료	-11.6811
▁그만두	-11.6812
▁오래전부터	-11.6812
▁세기에	-11.6812
▁플루	-11.6812
▁어워드	-11.6812
▁컬럼비아호	-11.6812
▁양육	-11.6812
▁쿠마르	-11.6812
▁잠겨	-11.6812
▁액체	-11.6813
▁hit	-11.6813
▁디젤	-11.6813
▁어윈	-11.6813
▁소방서	-11.6813
▁들어올	-11.6813
▁평화협정	-11.6813
▁빙산	-11.6813
▁호황	-11.6813
▁벌어질	-11.6813
▁대위	-11.6813
▁옮겨졌다	-11.6814
ific	-11.6814
▁무척	-11.6814
▁실망감	-11.6814
▁오디오	-11.6814
ition	-11.6814
▁야채	-11.6814
unt	-11.6815
▁루머	-11.6815
▁이어갔다	-11.6816
▁국제축구연맹	-11.6816
▁돌파구	-11.6816
▁항공편	-11.6816
▁오리건주	-11.6816
▁에밀리	-11.6817
▁attacks	-11.6817
▁기네스	-11.6818
▁찰리	-11.6818
▁중동평화회의	-11.6818
▁수익금	-11.6819
▁강철	-11.6819
▁변호사와	-11.682
▁충성	-11.682
▁번호	-11.682
▁누출	-11.682
▁표결에	-11.682
▁빅토	-11.682
▁변호인단	-11.682
▁이뤘	-11.6821
▁모여들었다	-11.6821
▁집결	-11.6821
▁왕조	-11.6822
▁탈선	-11.6822
▁진동	-11.6823
▁밝혀질	-11.6823
▁표본	-11.6824
▁현저	-11.6824
▁종사하	-11.6824
▁제왕	-11.6824
▁편에	-11.6824
▁출산율	-11.6824
▁훔	-11.6825
▁기대감	-11.6825
▁bet	-11.6825
▁의논	-11.6826
▁궁극적으로	-11.6826
▁사진기자	-11.6827
▁아담스	-11.6827
▁부의장	-11.6828
▁드물	-11.6828
▁어류	-11.6829
▁소유즈	-11.683
▁과속	-11.6831
문제에	-11.6832
▁로렌스	-11.6832
▁유학	-11.6832
▁비스타	-11.6833
▁통제권	-11.6833
▁만평	-11.6834
프랑	-11.6835
▁과감	-11.6835
▁코란	-11.6837
▁토티	-11.6837
▁지하실	-11.6838
▁안았다	-11.6838
▁감당	-11.684
▁난관	-11.684
▁않을까	-11.684
▁정복	-11.6841
▁조장하	-11.6841
▁친미	-11.6842
▁망치	-11.6842
▁사료	-11.6843
▁재계	-11.6844
▁적법	-11.6845
▁관람객	-11.6845
▁로렌	-11.6846
▁가져야	-11.6846
▁설명하지	-11.6847
▁성실	-11.6847
▁알아야	-11.6847
▁점유	-11.6847
▁수사팀	-11.6847
▁준결승전에서	-11.685
▁분개	-11.6851
▁옹호하	-11.6853
▁북극해	-11.6853
▁King	-11.6854
▁청와대에서	-11.6856
▁거울	-11.6857
▁극복하	-11.6857
▁불량	-11.6858
▁원형	-11.6859
▁되는데	-11.686
▁자재	-11.6862
▁운동화	-11.6862
dom	-11.6862
▁소비자들에게	-11.6863
▁한국어	-11.6865
▁그녀에게	-11.6865
▁스티븐스	-11.6867
▁야드	-11.6869
▁변하지	-11.6869
▁리마	-11.6869
▁벗어나기	-11.6871
▁바탕으로	-11.6872
▁해결하	-11.6872
▁이탈리아에서	-11.6875
DR	-11.6876
▁분리된	-11.6876
▁졸	-11.6877
▁지냈다	-11.6879
▁섭	-11.6879
▁확정됐다	-11.6881
▁제공되	-11.6882
상태에	-11.6883
▁눈으로	-11.6884
▁트럭에	-11.6885
▁새우	-11.6887
탈루	-11.689
▁썩	-11.6895
▁배우들	-11.6895
▁지질학	-11.6897
▁계약서	-11.6897
▁음식점	-11.6897
▁체스	-11.6898
▁주말까지	-11.6898
▁플로리다에서	-11.6901
▁명씩	-11.6901
▁덧붙였	-11.6904
▁군용	-11.6905
▁클라인	-11.6905
▁생명에	-11.691
▁내역	-11.6912
▁카라치에서	-11.6913
▁시신들	-11.6914
▁자국민	-11.6918
▁가루	-11.692
cl	-11.6923
롤라	-11.6924
▁자동차회사	-11.6924
▁삼바	-11.6925
▁선서	-11.6925
▁중심부에서	-11.6927
▁육지	-11.693
▁반대해	-11.6931
▁현대적	-11.6931
▁축하하기	-11.6933
▁선교	-11.6934
▁공약으로	-11.6947
▁위권	-11.695
▁통신원	-11.695
▁통제하는	-11.6951
▁나빠	-11.6952
▁바꾸기	-11.6956
▁철회할	-11.6956
▁계획이었다	-11.6957
데라	-11.6958
▁생사	-11.6959
▁발견되었	-11.6959
금치	-11.6961
▁후보였	-11.6962
oo	-11.697
타스	-11.6971
▁떠나기	-11.6973
죽	-11.6974
ler	-11.6975
▁주어지	-11.6976
▁대미	-11.6977
▁일부에서	-11.6982
▁주관	-11.6983
▁져야	-11.6984
▁농장에서	-11.6986
끄	-11.6986
▁거부하는	-11.6988
랭킹	-11.6992
▁농구	-11.6994
검찰	-11.6994
▁쿠폰	-11.6995
업무	-11.7001
▁허가했다	-11.7002
▁주식시장에서	-11.7005
집단	-11.7008
▁통과되	-11.701
라프	-11.7014
신청	-11.7016
▁다양성	-11.7018
▁타계했다	-11.7021
ness	-11.7026
▁우주국	-11.703
▁죽음이	-11.7032
▁화면에	-11.7033
▁신뢰도	-11.7035
▁생산성	-11.7038
▁동요	-11.7038
▁부위에	-11.704
시절	-11.7041
▁사라져	-11.7044
▁벌이다	-11.7044
중단	-11.7049
원장	-11.7052
▁베니스	-11.7059
▁관중들	-11.7059
▁살아있다	-11.706
▁예루살렘에서	-11.706
▁Ab	-11.7064
▁누구에게	-11.707
극적으로	-11.7072
▁달아	-11.7074
▁합류했다	-11.7082
▁자백	-11.7085
▁중심부에	-11.7087
보관소	-11.7094
▁추적하	-11.7099
USS	-11.7099
▁사무실에	-11.71
▁당사자들	-11.7101
▁흔적이	-11.7101
▁중단해야	-11.7107
▁회사측	-11.7113
▁외무장관이	-11.7113
밀리에	-11.7114
▁혁신적	-11.7116
▁참석자들	-11.7116
▁팀장	-11.7121
▁블로거	-11.7122
▁제한된	-11.7123
▁sur	-11.7126
▁PM	-11.7129
▁자백했다	-11.7129
운영	-11.713
▁라만	-11.713
▁흥분한	-11.713
▁취하기	-11.7132
▁파티에	-11.7133
▁협력해	-11.7144
OE	-11.7147
▁환자에게	-11.7152
ton	-11.7154
▁하락했	-11.7156
▁개별	-11.7157
▁딸들	-11.7158
▁다나	-11.7161
▁BE	-11.7167
▁사령부	-11.7167
▁거점	-11.7169
▁작동되	-11.7172
▁폭도	-11.7173
▁사회에서	-11.7173
▁시위대들	-11.7177
▁마련하고	-11.7177
▁이해하는	-11.7178
▁사자	-11.7184
▁거주자	-11.7184
스러워	-11.7186
GA	-11.7187
val	-11.7187
▁다녀	-11.7188
ron	-11.7189
▁센터에	-11.7189
▁출연할	-11.7189
▁urge	-11.7189
블라	-11.7191
▁마루	-11.7196
▁그외	-11.7197
ney	-11.7199
▁충격적	-11.7199
▁신자들	-11.7199
▁집권한	-11.7202
▁전화기	-11.7203
▁감소하고	-11.7206
▁정해	-11.7208
▁정부측	-11.7212
▁수학	-11.7227
ead	-11.7228
▁Go	-11.7232
▁경제학	-11.7239
▁존재하지	-11.7241
▁상황으로	-11.7243
LA	-11.7243
▁Or	-11.7244
▁도보	-11.725
▁생겼	-11.725
ents	-11.7251
▁일생	-11.7255
▁구사	-11.7259
▁올렸	-11.726
없	-11.726
▁압력에	-11.7269
▁발사됐다	-11.7269
▁넘었다	-11.7269
▁적었다	-11.7271
▁취하는	-11.7278
▁되자	-11.728
프레드	-11.7286
▁나토군이	-11.7287
▁wid	-11.7287
▁대중들	-11.7287
▁시작된다	-11.7292
▁간주하	-11.7303
호선	-11.7306
때로	-11.7313
▁대항하는	-11.7314
▁알았	-11.7316
emb	-11.7317
▁통과시키	-11.7317
▁해변에	-11.7317
▁루시	-11.7323
▁좋아하	-11.7326
▁유독	-11.7328
▁제기됐	-11.7329
▁차량에서	-11.7336
▁결정하는	-11.7339
▁거래에서	-11.7339
운동단체	-11.734
▁기지에	-11.7343
▁su	-11.7343
▁선보이	-11.7347
효	-11.7348
▁분리주의	-11.7349
사르	-11.735
▁장애인	-11.735
king	-11.7356
▁소실	-11.7361
▁자동차업체	-11.7364
▁pop	-11.7367
▁수개월	-11.7374
▁의대	-11.7377
시피	-11.738
▁국민과	-11.738
▁이슬람교도들	-11.7381
혁	-11.7383
▁메디컬	-11.7383
▁미시건	-11.7384
▁브랜	-11.7387
▁준결승	-11.7387
▁주차장	-11.7389
셉	-11.7394
둬	-11.7394
왓	-11.7396
륜	-11.7396
hief	-11.7396
놔	-11.7397
쿼	-11.7397
툰	-11.7398
▁Black	-11.7398
▁EADS	-11.7398
▁IRNA	-11.7398
▁IWC	-11.7398
▁Senate	-11.7398
▁Thai	-11.7398
▁UNHCR	-11.7398
▁strike	-11.7398
▁summit	-11.7398
▁고르바초프	-11.7398
▁공상과학	-11.7398
▁구소련	-11.7398
▁뇌졸중	-11.7398
▁더글라스	-11.7398
▁땅콩	-11.7398
▁리우데자네이루	-11.7398
▁메릴린치	-11.7398
▁몰랐다	-11.7398
▁미확인	-11.7398
▁민주노동당	-11.7398
▁바나프샤	-11.7398
▁볼티모어	-11.7398
▁블래터	-11.7398
▁빈민층	-11.7398
▁스필버그	-11.7398
▁시에라리온	-11.7398
▁식품의약국	-11.7398
▁신시내티	-11.7398
▁아디다스	-11.7398
▁암스테르담	-11.7398
▁에스트라다	-11.7398
▁예방접종	-11.7398
▁위태롭게	-11.7398
▁인신매매	-11.7398
▁정찰위성	-11.7398
▁조류독감	-11.7398
▁좁혀	-11.7398
▁준이치로	-11.7398
▁찍어	-11.7398
▁타이타닉	-11.7398
▁통합민주당	-11.7398
▁트러스트	-11.7398
▁트리폴리	-11.7398
▁포유류	-11.7398
▁햇빛	-11.7398
▁확립	-11.7398
▁흩어져	-11.7398
띤	-11.7398
텀	-11.7398
퐁	-11.7398
▁KBS	-11.7398
▁demand	-11.7398
▁마스터즈	-11.7398
▁자페타	-11.7398
▁항공모함	-11.7398
▁헤드폰	-11.7398
샨	-11.7398
▁다이어트	-11.7398
▁상무부	-11.7398
▁언젠가	-11.7398
▁여중생	-11.7398
▁영업이익	-11.7398
▁정보통신부	-11.7398
▁존엄성	-11.7398
▁Face	-11.7398
▁사이언스	-11.7398
▁낭독	-11.7398
▁노던록	-11.7398
▁메이도프	-11.7398
▁타디치	-11.7398
▁카펫	-11.7398
▁스틸러스	-11.7398
▁흥정	-11.7398
▁대성당	-11.7398
▁버나드	-11.7398
▁치뤄	-11.7398
▁놀이공원	-11.7398
▁버크헤드	-11.7398
▁쿼터백	-11.7398
▁강대국	-11.7398
▁고등학생	-11.7398
▁트랙	-11.7398
▁height	-11.7398
▁패트로스	-11.7398
▁사진작가	-11.7398
▁검정색	-11.7398
▁경수로	-11.7398
hurch	-11.7398
▁북아일랜드	-11.7398
▁슬픈	-11.7398
▁정착촌	-11.7398
▁고아원	-11.7398
▁작가조합	-11.7398
▁질병통제	-11.7398
▁show	-11.7398
▁국영언론	-11.7398
▁당뇨병	-11.7398
▁출혈	-11.7398
▁도망쳤다	-11.7398
▁씨앗	-11.7398
▁Union	-11.7398
▁블랙홀	-11.7398
▁휴전협정	-11.7399
▁클릭	-11.7399
▁GDP	-11.7399
▁식별	-11.7399
▁다저스	-11.7399
▁볼드윈	-11.7399
▁헬렌	-11.7399
▁검역	-11.7399
▁항의시위	-11.7399
▁리옹	-11.74
▁당직자	-11.74
▁체험	-11.74
▁유대교	-11.74
▁총파업	-11.74
▁십자가	-11.74
▁용감	-11.74
▁신흥	-11.74
▁출처	-11.74
▁MTV	-11.74
▁TSA	-11.74
▁키팅	-11.74
▁계승	-11.74
▁fund	-11.74
▁기지에서	-11.74
▁조세프	-11.7401
▁무효화	-11.7401
▁soldiers	-11.7401
▁크랜	-11.7401
▁축복	-11.7401
▁스페인에서	-11.7401
▁부활절	-11.7401
▁몰락	-11.7401
▁절망	-11.7402
▁탄원서	-11.7402
▁무장조직	-11.7402
▁살인사건	-11.7402
▁내륙	-11.7402
▁올라왔다	-11.7403
▁보건장관	-11.7403
▁who	-11.7403
▁머무르	-11.7404
▁제휴	-11.7404
▁특혜	-11.7404
▁작위	-11.7404
▁완구	-11.7404
▁엔론	-11.7404
▁프린트	-11.7404
▁최신작	-11.7405
▁쇼에서	-11.7405
▁deal	-11.7405
▁연립	-11.7405
▁야망	-11.7406
▁소년병	-11.7406
▁피켓	-11.7406
▁켄트	-11.7407
▁바다위	-11.7407
▁종목	-11.7407
▁청산	-11.7407
▁돌렸다	-11.7407
▁환경단체	-11.7407
▁로리언	-11.7408
▁상환	-11.7408
▁근방	-11.7408
▁최적	-11.7409
▁견제	-11.7409
▁물리학자	-11.7409
▁열광	-11.741
▁통신망	-11.741
▁오델	-11.741
▁넘긴	-11.741
▁최장	-11.741
▁Ira	-11.7411
▁할렘	-11.7411
▁폴락	-11.7412
▁흠	-11.7412
행해진	-11.7412
▁운용	-11.7413
▁강탈	-11.7413
▁건물들이	-11.7415
▁귀중	-11.7415
▁오찬	-11.7416
▁동점	-11.7416
▁차이점	-11.7416
▁공석	-11.7417
▁황소	-11.7418
▁절정	-11.7418
▁국무회의	-11.7419
FI	-11.742
▁다량	-11.742
▁악수	-11.742
▁타워	-11.7421
▁경찰국장	-11.7422
▁선호하	-11.7423
▁배출량	-11.7424
▁휴전선	-11.7424
▁밀크	-11.7424
▁죽어	-11.7424
▁테크	-11.7426
▁격전	-11.7426
▁Her	-11.7427
▁지상군	-11.7427
▁주의보	-11.7428
학술	-11.7429
▁파란	-11.743
군사훈련	-11.743
▁소포	-11.7431
▁결선	-11.7432
▁틸리	-11.7433
▁어조	-11.7433
▁경쟁자들	-11.7433
▁원석	-11.7434
▁진술서	-11.7434
▁정문	-11.7434
▁프레이	-11.7435
▁관용	-11.7437
▁끝이	-11.7438
투성이	-11.7438
▁캐시	-11.744
▁체력	-11.7441
▁부친	-11.7441
▁지휘자	-11.7442
▁기자실	-11.7442
▁의장직	-11.7442
▁중요하게	-11.7443
▁관점	-11.7443
▁실업자	-11.7443
▁베일	-11.7444
▁보내졌다	-11.7447
▁내외	-11.745
▁처사	-11.745
▁봤을	-11.745
▁찾아야	-11.7452
▁천원	-11.7452
▁희생된	-11.7454
▁고객들에게	-11.7455
▁수천만	-11.7455
▁숨어있	-11.7456
▁car	-11.7458
▁아마드	-11.7459
▁되도록	-11.746
▁실명	-11.7462
▁배아줄기세포	-11.7463
▁인터내셔널	-11.7463
▁마신	-11.7463
▁장군이	-11.7463
▁구조물	-11.7463
▁영하	-11.7464
▁패했다	-11.7464
▁평양에	-11.7465
▁사업체	-11.7466
▁Pro	-11.7467
▁마카	-11.7469
▁불법적으로	-11.7469
▁화성에	-11.747
▁넘쳐	-11.7472
▁Sup	-11.7474
▁유지될	-11.7476
▁시도했으	-11.7476
▁양식	-11.7477
▁재개했다	-11.7479
▁마오	-11.7479
▁부탁했다	-11.7479
▁소치	-11.7481
▁헌법상	-11.7483
▁장르	-11.7483
▁손잡	-11.7484
▁에너지부	-11.7484
담당자	-11.7491
▁이슬람교도	-11.7491
▁오르지	-11.7492
▁Pri	-11.7494
▁신청했다	-11.7494
▁교장	-11.7495
▁시급	-11.7496
▁집계됐다	-11.7499
▁반대파	-11.7501
▁범인들	-11.7502
▁빛나	-11.7502
▁급락했다	-11.7503
▁피지	-11.7505
▁상승했으	-11.7506
esearch	-11.7508
시안	-11.7512
대비	-11.7513
▁영화계	-11.7513
▁뻔	-11.7514
▁맞이했다	-11.7517
▁공동체	-11.752
▁미렌	-11.752
▁세울	-11.7523
▁증가했으	-11.7524
▁개통	-11.7528
▁않았었다	-11.7529
▁물자	-11.7531
베르트	-11.7532
▁왔었다	-11.7533
▁자카르타에서	-11.7533
▁수신	-11.7533
▁태워	-11.7534
▁총리실	-11.7535
ted	-11.7535
▁승리해야	-11.7537
▁살기	-11.7539
로윈	-11.754
▁노동조합	-11.7541
▁칭하	-11.7542
▁볼트	-11.7546
▁도드	-11.7546
▁정찰기	-11.7547
나단	-11.7551
▁홀리	-11.7552
▁후회	-11.7556
▁조니	-11.7557
▁당선이	-11.7558
▁묵인	-11.7559
▁문화원	-11.756
▁보석으로	-11.756
▁지역구	-11.7561
▁수출국	-11.7562
FA	-11.7564
▁향상시키	-11.7565
노동자당	-11.7565
▁대구	-11.7565
▁자진	-11.7569
▁트로	-11.757
▁비슷하다	-11.757
최	-11.7573
▁워싱턴주	-11.7574
▁해안지역	-11.7574
▁사망률	-11.7576
▁Com	-11.7576
▁말하자	-11.7576
▁대부	-11.7584
▁선정한	-11.7585
▁깨어	-11.7585
▁민주당원	-11.7589
▁사망할	-11.7591
냐고	-11.7592
▁조각들	-11.7592
사미	-11.7592
▁딱	-11.7593
▁수염	-11.7593
기만	-11.7594
▁한동안	-11.7596
▁개제	-11.7596
정지	-11.7598
▁크리	-11.7599
▁대응하기	-11.76
▁팬이	-11.7603
꾸	-11.7606
뷰	-11.7606
uch	-11.7607
틸	-11.7609
▁초기에	-11.761
time	-11.7613
눈	-11.7614
Z	-11.7614
프로그램	-11.7615
▁장착한	-11.7616
공화국	-11.7616
▁Am	-11.7617
냈으	-11.7617
▁갖지	-11.7618
잘	-11.7619
테니스	-11.7619
▁놈	-11.7619
반응	-11.762
차관보	-11.762
처분	-11.7621
▁목장	-11.7622
레이즈	-11.7623
브리	-11.7625
바라크	-11.7628
▁정했다	-11.7632
▁지도부와	-11.7634
공연	-11.7636
▁장군과	-11.7638
▁살해되	-11.764
방위	-11.7641
▁일축	-11.7644
▁work	-11.7645
재정	-11.7649
▁꼬	-11.7658
▁유가족들	-11.7659
▁대법원에	-11.766
ali	-11.7664
▁오프	-11.7666
▁흥미로	-11.7667
▁전후	-11.767
▁셈	-11.7672
▁생물학자	-11.7677
리프	-11.7682
▁하늘에서	-11.7684
▁모아이	-11.7685
해냈다	-11.7685
▁수니파와	-11.7686
▁월경	-11.7688
▁일으키고	-11.7693
▁터지	-11.7695
강한	-11.7695
▁초까지	-11.7698
▁파장	-11.7701
▁분쟁에	-11.7704
bal	-11.7704
▁당사자	-11.7705
▁억명	-11.7707
▁일치하	-11.7707
▁패배한	-11.771
▁구사하	-11.7712
▁보자	-11.7714
▁지불했다	-11.7717
▁아들에게	-11.7718
▁이민자	-11.7721
▁Br	-11.7723
▁경매에서	-11.7723
▁주도했다	-11.7726
▁없다면	-11.7727
▁올라와	-11.773
▁브라질에서	-11.7738
▁잠들	-11.7739
ung	-11.7746
we	-11.7747
ater	-11.7748
▁청년들	-11.7749
▁확산되는	-11.7756
▁줬	-11.7757
▁임명됐다	-11.7757
▁위력	-11.776
저널	-11.778
ube	-11.778
▁직면하	-11.7783
국적	-11.7785
▁실시하고	-11.7791
▁인용했다	-11.7793
▁대행	-11.7796
▁집행위원	-11.7799
됐음	-11.78
▁외국인들이	-11.7802
▁뷰	-11.7805
▁도와주	-11.7806
▁희망하	-11.781
▁토론회에	-11.7812
rop	-11.7813
▁베니	-11.7813
▁지원자들	-11.7816
▁실적이	-11.7818
▁시작됐	-11.7819
▁유튜브에	-11.7828
▁죽음으로	-11.783
▁타계	-11.7831
▁뒷받침	-11.7838
▁기여한	-11.7839
rd	-11.7843
▁강타했다	-11.7846
▁유명인사들	-11.7846
▁폭도들	-11.7853
교사	-11.7858
▁천장	-11.7858
▁급증했다	-11.786
▁주인공이	-11.7863
▁방영되	-11.7873
▁멕시코에서	-11.7873
▁분석한	-11.7873
▁보이기	-11.7876
▁바라지	-11.7878
▁사지	-11.7882
부장관	-11.7884
▁사유	-11.7885
▁체포되	-11.7887
▁교수들	-11.7889
▁올라갔	-11.7894
▁발견됐	-11.7909
▁비공식적	-11.7911
▁바커	-11.7917
공학	-11.792
▁사라졌	-11.7923
▁케냐에서	-11.7927
▁라벨	-11.7927
▁정당한	-11.7928
▁않겠	-11.793
▁BP	-11.7931
▁El	-11.7941
▁빠졌	-11.7947
▁변했다	-11.7948
▁태우	-11.795
▁지장	-11.7951
▁베트남전	-11.7964
▁베드	-11.7964
▁스타디움	-11.7964
▁달링	-11.7967
AP	-11.7968
▁형성하	-11.7969
ves	-11.7971
▁거뒀	-11.7973
▁분노한	-11.7974
▁생중계	-11.7976
▁라마	-11.7977
▁타마	-11.7979
▁모국	-11.7983
▁관람객들	-11.7983
받지	-11.7984
▁통상적	-11.7986
each	-11.7986
▁실망했다	-11.7988
▁공원에	-11.799
▁많았	-11.7993
융	-11.7995
▁사르	-11.7995
층에서	-11.7998
▁쥐들	-11.8
▁알렉산드	-11.8003
▁천문학	-11.8005
▁fire	-11.8008
▁nation	-11.8012
▁타임즈와	-11.8013
▁정치인들이	-11.8016
▁면역	-11.8017
▁메인	-11.8019
▁kill	-11.802
▁불러일으	-11.8021
▁우려했다	-11.8021
▁수마트라	-11.8022
overnment	-11.8022
톡	-11.8022
▁Christ	-11.8023
cademy	-11.8023
▁Arm	-11.8023
▁CES	-11.8023
▁Securit	-11.8023
▁candidate	-11.8023
▁group	-11.8023
▁market	-11.8023
▁support	-11.8023
▁갤론	-11.8023
▁건강검진	-11.8023
▁국가평의회	-11.8023
▁나미비아	-11.8023
▁나폴리타노	-11.8023
▁남동생	-11.8023
▁냉장고	-11.8023
▁대검찰청	-11.8023
▁디카프리오	-11.8023
▁떠올랐다	-11.8023
▁래드클리프	-11.8023
▁리투아니아	-11.8023
▁멜버른	-11.8023
▁멤피스	-11.8023
▁모레스모	-11.8023
▁바랐다	-11.8023
▁볼리비아	-11.8023
▁부동층	-11.8023
▁부총재	-11.8023
▁불균형	-11.8023
▁불러일으켰다	-11.8023
▁블록버스터	-11.8023
▁사무차장	-11.8023
▁사이언톨로지	-11.8023
▁알츠하이머	-11.8023
▁알카티리	-11.8023
▁옥수수	-11.8023
▁전자메일	-11.8023
▁찾으려	-11.8023
▁츠방기라이	-11.8023
▁카르발라	-11.8023
▁퀘벡	-11.8023
▁트레일러	-11.8023
▁파키스탄인민당	-11.8023
▁프랑크푸르트	-11.8023
▁플레이스테이션	-11.8023
▁혹등고래	-11.8023
▁휠체어	-11.8023
▁흡입	-11.8023
뚜	-11.8023
랏	-11.8023
벵	-11.8023
쑤	-11.8023
윅	-11.8023
팡	-11.8023
▁Heart	-11.8023
▁Islami	-11.8023
▁기울여야	-11.8023
▁매몰된	-11.8023
▁배트맨	-11.8023
▁헬만드	-11.8023
▁구속영장	-11.8023
▁비무장지대	-11.8023
▁옵션	-11.8023
▁인수제안	-11.8023
▁재경부	-11.8023
▁financ	-11.8023
▁tax	-11.8023
▁리브니	-11.8023
▁레코드	-11.8023
▁사로잡	-11.8023
▁산악지대	-11.8023
▁서두르	-11.8023
▁따돌렸	-11.8023
▁메케인	-11.8023
▁자위대	-11.8023
▁스콜스	-11.8023
▁중질유	-11.8023
▁원동력	-11.8023
▁냉각	-11.8023
▁로드아일랜드	-11.8023
▁불가사의	-11.8023
▁산시성	-11.8023
▁Africa	-11.8023
▁수수료	-11.8023
▁올림피	-11.8023
▁Genera	-11.8023
▁깨달았다	-11.8023
▁엘리엇	-11.8023
▁화학물질	-11.8023
▁희미	-11.8023
▁control	-11.8023
▁trial	-11.8023
▁압델	-11.8023
기동대	-11.8023
▁벗겨	-11.8023
▁철폐	-11.8023
▁Administration	-11.8024
▁교훈	-11.8024
▁도둑	-11.8024
▁국가안보회의	-11.8024
▁로빈슨	-11.8024
▁ABN	-11.8024
▁레빈슨	-11.8024
▁봉투	-11.8024
▁증파	-11.8024
▁추억	-11.8024
▁이스마일	-11.8024
ween	-11.8024
▁차량폭탄	-11.8024
▁도서관	-11.8024
▁불륜	-11.8024
었었다	-11.8025
▁부대변인	-11.8025
▁당첨	-11.8025
▁별칭	-11.8025
▁장례	-11.8025
▁마피아	-11.8025
▁숙박	-11.8025
▁멜론	-11.8025
▁놀라움	-11.8025
▁제국주의	-11.8025
▁그레그	-11.8025
▁슬림	-11.8025
▁그래미	-11.8025
▁게시물	-11.8025
▁입후보	-11.8025
▁스튜	-11.8026
▁축구선수	-11.8026
▁생애	-11.8026
▁우주여행	-11.8026
▁정몽	-11.8026
▁대리모	-11.8026
▁찾아냈다	-11.8026
▁증대	-11.8026
▁알라위	-11.8026
▁필름	-11.8026
▁six	-11.8027
▁나눈	-11.8027
▁케이프	-11.8027
▁벤처	-11.8027
▁대슐	-11.8028
▁청원서	-11.8028
▁집값	-11.8028
had	-11.8028
▁신기록	-11.8028
▁태생	-11.8028
▁생생	-11.8029
▁범죄행위	-11.8029
▁학계	-11.8029
▁붐비	-11.8029
▁우편물	-11.8029
▁누구인지	-11.803
▁단결	-11.803
▁절실	-11.803
▁단편	-11.803
▁홀더	-11.803
▁프로스트	-11.803
▁공공연	-11.8031
▁cont	-11.8031
▁지방정부	-11.8032
▁대피시켰다	-11.8032
▁불법행위	-11.8032
▁예상됩니다	-11.8032
▁출입국	-11.8032
▁코웰	-11.8032
▁레빈	-11.8032
▁언니	-11.8032
▁지명되기	-11.8032
▁자동차산업	-11.8032
▁오웬	-11.8033
▁법무상	-11.8033
▁심슨이	-11.8034
로프트	-11.8034
▁Prosecutor	-11.8034
▁조롱	-11.8035
▁공헌	-11.8035
▁아델	-11.8035
▁바꾼	-11.8035
▁골절	-11.8036
▁군사정부	-11.8036
▁생체	-11.8036
▁신랑	-11.8037
▁생계	-11.8037
▁허브	-11.8037
▁신년	-11.8037
▁자폭	-11.8037
▁팻	-11.8038
▁hy	-11.8038
▁팬더	-11.8038
▁부합	-11.8038
▁메인주	-11.8038
▁주연상	-11.8039
▁포탄	-11.8039
▁왕관	-11.8039
▁브라이언트	-11.8041
▁도출	-11.8042
▁건축물	-11.8042
▁조직위	-11.8042
▁루터	-11.8043
▁물러났다	-11.8043
▁찾아온	-11.8044
▁마술	-11.8044
▁설명할	-11.8045
▁해골	-11.8045
▁비축	-11.8045
▁놓여있다	-11.8046
▁무력화	-11.8047
▁호건	-11.8047
▁발판	-11.8049
▁우위	-11.8049
▁중단시켰다	-11.8049
머신	-11.805
▁거액	-11.805
▁풀려나	-11.8052
공유	-11.8052
▁부분적으로	-11.8053
▁유실	-11.8053
▁차지했으	-11.8053
▁부주의	-11.8053
▁변명	-11.8054
▁흉내	-11.8055
▁우정	-11.8055
▁인권문제	-11.8055
▁동의안	-11.8055
펠드	-11.8058
▁주일간	-11.8059
▁대사와	-11.8059
▁동의하	-11.8059
▁경미	-11.8059
▁깨진	-11.8061
▁반사	-11.8061
▁남북간	-11.8062
▁모방	-11.8062
▁궁지에	-11.8062
▁전해드	-11.8064
▁신씨	-11.8064
▁국회의장	-11.8066
▁아스	-11.8067
▁과오	-11.807
▁유로화	-11.807
▁궁전	-11.807
▁대피하	-11.8071
▁신차	-11.8071
▁당내	-11.8071
▁차분	-11.8071
EO	-11.8074
▁자리잡	-11.8074
▁관통	-11.8075
▁연구실	-11.8075
키마	-11.8077
▁유니버	-11.8078
▁천정	-11.8078
▁상속	-11.8079
▁벗기	-11.8079
▁있었는데	-11.808
▁섬에서	-11.8084
▁친부	-11.8085
▁이맘	-11.8086
▁단원	-11.8087
▁말해주	-11.8087
▁주범	-11.8088
▁요리사	-11.8088
UK	-11.8089
▁하나였다	-11.8089
▁박탈당	-11.809
▁유발할	-11.8093
▁연상	-11.8098
▁순교자	-11.8099
▁소매업	-11.8099
▁키트	-11.81
▁가속	-11.8101
▁유지해	-11.8103
▁등장한다	-11.8105
▁정세	-11.8105
NC	-11.8105
▁감사원	-11.8106
▁편리	-11.8107
▁대금	-11.8108
▁소방대원들	-11.8111
▁과시했	-11.8113
브론	-11.8114
▁좋아지	-11.8114
▁노르	-11.8115
▁대개	-11.8115
▁랜디	-11.8118
▁살레	-11.8119
▁표현한	-11.8119
▁thi	-11.8123
▁묘사한	-11.8124
▁종업원	-11.8124
▁꾸며	-11.8125
우트	-11.8126
▁경찰서로	-11.8128
▁합쳐	-11.8131
그너	-11.8134
▁개막식에	-11.8135
▁고백했	-11.8135
▁fe	-11.8143
▁밝혀져	-11.8143
EA	-11.8146
▁주립대학	-11.8146
▁다르지	-11.8147
▁비판하는	-11.8148
▁제출된	-11.8149
▁늘었다	-11.8149
▁이루어졌	-11.8151
▁교대	-11.8152
mb	-11.8153
분별	-11.8154
▁펼쳐지	-11.8157
▁테러리스트들이	-11.8157
▁부모에게	-11.8161
▁예외	-11.8163
hoo	-11.8165
▁요구했으	-11.8166
▁죽어가	-11.8168
ook	-11.8168
▁받아들이기	-11.8168
▁발표되었다	-11.8169
▁고민하	-11.817
▁ban	-11.8171
▁입소	-11.8173
저스	-11.8175
매장	-11.8177
키야	-11.8179
▁의사회	-11.818
▁직원들에게	-11.818
아래	-11.8181
▁애플사	-11.8181
▁주변국들	-11.8182
▁오바	-11.8182
TA	-11.8183
▁코드	-11.8184
▁간주되	-11.8187
렉스	-11.8191
▁해당한다	-11.8194
▁사이트에서	-11.8194
▁위함	-11.8195
▁정면	-11.8195
▁킴	-11.8203
▁결승에	-11.8204
늘	-11.8205
ague	-11.8209
▁목록에서	-11.821
▁보냈으	-11.8211
▁미세	-11.8214
▁영국으로부터	-11.8214
자본	-11.8216
▁착륙했다	-11.822
끈	-11.8221
▁구매자	-11.8226
▁당신들	-11.8234
▁유사하다	-11.8235
▁남동부에서	-11.8242
▁상대적	-11.8253
성분	-11.8253
▁전락	-11.8256
▁생산업체	-11.8261
▁초고속	-11.8262
▁알려왔	-11.8262
혹	-11.8264
▁축출된	-11.8265
▁장갑	-11.8265
있게	-11.8272
▁맺어	-11.8273
▁도와주는	-11.8273
사령부	-11.8274
페이스	-11.8278
칩	-11.8278
엠	-11.8279
글판	-11.828
키스	-11.828
쥐	-11.8283
▁안면	-11.8283
잠	-11.8284
▁축구팬들	-11.8285
▁정보통	-11.8288
▁거절하	-11.8289
km	-11.8289
조합	-11.8292
곰	-11.8292
▁에드로	-11.8295
▁내렸으	-11.8298
워터	-11.8299
쿠르	-11.8304
퍼트	-11.8317
▁케인	-11.8326
▁쓰여	-11.8326
▁특성	-11.8329
lbar	-11.8332
▁탐험가	-11.8332
▁인부	-11.8332
▁베티	-11.8334
▁파라	-11.8334
▁지칭	-11.8336
dition	-11.8339
행진	-11.8346
보르	-11.8348
▁영국인들	-11.8357
▁출발한	-11.8364
▁명중	-11.8364
▁나간다	-11.8364
▁대비하고	-11.8369
마사	-11.8369
▁감정적	-11.8371
▁확산됐다	-11.8374
▁제조업체들	-11.8375
▁죽인	-11.8375
▁회복할	-11.8385
▁so	-11.8393
▁연결된	-11.8394
연금	-11.8402
▁아타	-11.8403
▁인정한다	-11.841
ving	-11.8412
▁압박했다	-11.8412
노선	-11.8413
▁주마	-11.8414
▁폐쇄됐다	-11.8416
▁축구팬	-11.8417
해주기	-11.842
▁있냐	-11.8422
화학	-11.8425
▁월드컵에서	-11.843
▁추산되	-11.8438
▁발휘하	-11.8439
▁존재한다	-11.844
▁언론사	-11.8443
▁나쁘	-11.8457
▁두려워하	-11.8461
▁관계없	-11.8461
티브	-11.8462
gy	-11.8463
▁시도할	-11.847
▁삼아	-11.848
회사들	-11.8483
▁반기	-11.8486
▁페이지에	-11.8486
▁자살했다	-11.8487
▁전신	-11.8495
▁환호하	-11.8496
▁참석한다	-11.8497
▁딸에게	-11.8499
▁열정적	-11.8502
드먼	-11.8508
해준다	-11.8509
아리	-11.8513
▁실종됐	-11.8522
DM	-11.8533
▁관리하는	-11.8535
▁이외에	-11.8535
▁편으로	-11.8539
ator	-11.8542
ust	-11.8546
▁탈북자들	-11.8548
▁추진해	-11.8548
투스	-11.8549
▁Dai	-11.8553
AF	-11.8554
기남	-11.8557
▁폐쇄하기	-11.8558
ark	-11.8562
▁인도주의	-11.8565
해발	-11.8565
▁남성에게	-11.8566
▁공적	-11.8576
▁고통스러	-11.8576
트너	-11.8577
▁하락하고	-11.8578
▁Qu	-11.8583
▁무기들	-11.8583
▁매리	-11.8592
▁지나면	-11.8595
▁신문들	-11.8599
러진	-11.8599
side	-11.86
▁무시했다	-11.8609
▁저질렀	-11.861
▁슬로	-11.861
▁Tri	-11.8611
▁놓았	-11.8624
▁거머쥐었	-11.8626
well	-11.8631
객들	-11.8633
▁적합	-11.8634
▁순례	-11.864
▁입찰	-11.864
▁싶었	-11.8641
▁아파	-11.8657
gan	-11.8657
펙	-11.866
▁뒤진	-11.8661
▁카바	-11.8661
▁창립	-11.8662
ger	-11.8667
▁들지	-11.8668
▁생산되	-11.8673
셸	-11.8675
랍	-11.8678
▁종말	-11.8679
캣	-11.8682
얄	-11.8682
홉	-11.8685
▁디스커버리	-11.8686
▁콜롬	-11.8687
▁마텔	-11.8687
콕	-11.8687
▁도미니	-11.8687
갱	-11.8687
ontrol	-11.8689
궈	-11.8689
도날드	-11.8689
efense	-11.8689
갓	-11.8689
▁오피니언	-11.8689
▁AIDS	-11.8689
▁Earth	-11.8689
▁IUCN	-11.8689
▁Office	-11.8689
▁PETA	-11.8689
▁economy	-11.8689
▁grow	-11.8689
▁problem	-11.8689
▁국제영화제	-11.8689
▁남태평양	-11.8689
▁다비덴코	-11.8689
▁댓글	-11.8689
▁루고보이	-11.8689
▁만토바니	-11.8689
▁무기징역	-11.8689
▁미식축구	-11.8689
▁발렌시아	-11.8689
▁서유럽	-11.8689
▁세컨드라이프	-11.8689
▁슈퍼마켓	-11.8689
▁애틀랜틱	-11.8689
▁어소시에이션	-11.8689
▁유투브	-11.8689
▁잉그리드	-11.8689
▁출퇴근	-11.8689
▁칼데론	-11.8689
▁캠브리지	-11.8689
▁키프로스	-11.8689
▁타임스퀘어	-11.8689
▁티크리트	-11.8689
▁패터슨	-11.8689
▁프랑수아	-11.8689
▁하르툼	-11.8689
▁해밀턴	-11.8689
긍	-11.8689
엉	-11.8689
▁DAX	-11.8689
▁system	-11.8689
▁threaten	-11.8689
▁대배심	-11.8689
▁비정상적	-11.8689
▁빈센트	-11.8689
▁사우스웨스트	-11.8689
▁서포터	-11.8689
▁스타워즈	-11.8689
▁시트콤	-11.8689
▁아르메니아	-11.8689
▁전두환	-11.8689
▁파딜라	-11.8689
▁핵폐기	-11.8689
덱	-11.8689
▁견뎌	-11.8689
▁어리석	-11.8689
▁크라이튼	-11.8689
▁테러리즘	-11.8689
▁아메바	-11.8689
▁여기저기	-11.8689
▁즐긴다	-11.8689
▁제레미	-11.8689
▁돌려보내	-11.8689
▁보너스	-11.8689
▁CAC	-11.8689
▁home	-11.8689
▁바이에른	-11.8689
▁Commission	-11.8689
▁미생물	-11.8689
▁국가안보보좌관	-11.8689
house	-11.8689
▁은하계	-11.8689
▁무언가	-11.8689
▁전비법안	-11.8689
▁어쩌	-11.8689
▁부녀자	-11.869
▁뛰어넘	-11.869
▁아스카리	-11.869
▁구제금융법안	-11.869
▁말리부	-11.869
▁용도로	-11.869
▁금리인하	-11.869
▁세르게이	-11.869
▁갑작스럽	-11.869
▁선거인단	-11.869
▁알라스카	-11.869
▁벗어났다	-11.869
▁소비에트	-11.869
▁종지부	-11.869
▁어둠	-11.869
▁복음	-11.869
▁산업자원부	-11.869
▁얼룩말	-11.869
▁베이징올림픽	-11.869
▁마지드	-11.869
▁탈옥	-11.869
▁소방당국	-11.869
▁수감생활	-11.869
▁작별	-11.869
▁XP	-11.869
▁겨누	-11.869
▁report	-11.8691
▁군사행동	-11.8691
▁홈경기	-11.8691
▁미뤄	-11.8691
▁십먼	-11.8691
▁슈렉	-11.8691
▁East	-11.8691
▁Plan	-11.8691
▁층짜리	-11.8691
▁cut	-11.8691
▁북극광	-11.8691
▁약물검사	-11.8691
▁스마트	-11.8692
▁One	-11.8692
▁우발적	-11.8692
▁포털	-11.8692
▁killed	-11.8692
▁날카로	-11.8692
▁피난처	-11.8692
▁요한슨	-11.8692
▁디즈니랜드	-11.8692
▁압류	-11.8692
▁낫다	-11.8692
▁머독	-11.8692
▁업종	-11.8692
▁콜롬보	-11.8692
▁비밀요원	-11.8692
▁보험회사	-11.8692
▁봉급	-11.8692
▁드럼	-11.8692
▁부정행위	-11.8692
▁싸워	-11.8693
▁비웃	-11.8693
▁강렬	-11.8693
▁기관총	-11.8693
▁페드로	-11.8693
▁푸른	-11.8693
▁편견	-11.8693
▁필사적	-11.8694
▁축구스타	-11.8694
▁스노우	-11.8694
▁근절	-11.8694
▁알렉	-11.8694
▁형편	-11.8694
▁간접	-11.8694
▁교각	-11.8694
▁케이티	-11.8694
etro	-11.8694
▁가디언	-11.8694
▁윈터	-11.8694
night	-11.8694
▁결말	-11.8694
▁꺼리	-11.8695
▁루시디	-11.8695
▁애견	-11.8695
▁암살사건	-11.8695
▁폭발사고	-11.8696
▁짐작	-11.8696
▁로지스	-11.8696
▁사망원인	-11.8696
▁아프리카연합	-11.8696
▁반테러	-11.8696
▁합작	-11.8696
▁에베레스트산	-11.8696
▁계급	-11.8696
▁경합	-11.8696
▁애완용	-11.8696
▁자치권	-11.8697
▁듀크	-11.8697
▁선례	-11.8698
▁속편	-11.8698
▁휴회	-11.8698
▁상향	-11.8698
▁소도시	-11.8699
▁용량	-11.8699
▁난입	-11.8699
▁주택시장	-11.8699
▁연합정부	-11.87
▁무례	-11.87
▁폭력배	-11.87
▁안타깝게	-11.87
▁하렐	-11.87
▁설전	-11.87
▁실천	-11.87
▁대국민	-11.8701
▁놀란	-11.8701
▁보스톤	-11.8701
▁발머	-11.8701
▁부시대통령	-11.8701
▁해산시키기	-11.8701
▁변함없	-11.8702
▁플래시	-11.8703
▁투자은행	-11.8703
▁설비	-11.8704
▁투명성	-11.8704
▁years	-11.8705
▁평온	-11.8705
▁들어설	-11.8706
▁헝	-11.8706
▁야유	-11.8706
▁버몬트주	-11.8706
▁무레이	-11.8707
▁결단	-11.8707
▁상업용	-11.8707
스쿨	-11.8707
▁출동했다	-11.8707
▁조엘	-11.8708
▁메모	-11.8708
▁음료수	-11.8708
mas	-11.8709
▁용납하지	-11.8709
▁매료	-11.8709
▁일기장	-11.8709
▁입건	-11.8709
▁자비	-11.8709
▁김양	-11.8709
▁다쳤으	-11.871
▁국세청장	-11.871
▁출마하	-11.871
▁종교단체	-11.871
▁가장자리	-11.8711
dy	-11.8711
▁속력	-11.8714
▁공금	-11.8714
▁당부	-11.8715
▁아샤	-11.8715
▁근본주의자들	-11.8716
▁펼쳐진	-11.8717
▁난방	-11.8717
▁사망자들	-11.8718
▁입원했으	-11.8718
▁유영	-11.8718
정규직	-11.8719
▁골드만	-11.872
▁위독	-11.8721
▁요크	-11.8721
▁천여	-11.8721
▁토레스	-11.8721
▁매복	-11.8722
▁담요	-11.8722
▁군사위원회	-11.8722
▁토미	-11.8722
▁검찰청	-11.8723
▁왕비	-11.8723
▁원정	-11.8724
▁아쉬	-11.8725
▁연구소에서	-11.8725
▁서점	-11.8726
▁불확실성	-11.8728
▁리츠	-11.8729
▁거품	-11.8731
▁호스트	-11.8731
먼트	-11.8733
▁로빈	-11.8734
▁매직	-11.8735
▁소모	-11.8736
▁af	-11.8736
▁정치국	-11.8737
▁경계선	-11.8737
▁싶었다	-11.8737
▁요구했었다	-11.8738
▁나누어	-11.8739
▁인권단체들	-11.8739
▁지불한	-11.8739
▁나오기	-11.874
▁동부지역	-11.874
▁은둔	-11.8741
▁심각성	-11.8743
▁페니	-11.8743
▁뉴햄프셔주	-11.8744
▁번복	-11.8744
▁관장	-11.8745
란드	-11.8749
▁것인데	-11.8749
▁보물	-11.875
▁설사	-11.875
▁끝내기	-11.8752
▁오버	-11.8752
▁용지	-11.8752
▁거론되	-11.8752
▁시립	-11.8753
▁유출된	-11.8754
▁구성원들	-11.8755
▁함대	-11.8757
▁기울이지	-11.8757
▁거기에	-11.8758
▁국어	-11.8759
▁간직	-11.8759
▁성범죄자	-11.876
▁잠재	-11.8762
▁소실됐다	-11.8762
▁기자단	-11.8762
▁커뮤니케이션	-11.8763
▁다크	-11.8766
▁해역에서	-11.8767
▁출발했다	-11.8767
▁맛봤	-11.8768
▁로케	-11.8769
▁전반전	-11.8771
▁office	-11.8775
▁원내	-11.8776
▁교리	-11.8777
▁속해	-11.8777
▁지원국	-11.8779
▁웨스	-11.878
▁지형	-11.878
▁인류학	-11.8783
▁엄청나	-11.8783
▁이윤	-11.8784
▁확인했으	-11.8784
▁주의회	-11.8785
▁체포했으	-11.8785
▁알바로	-11.8786
▁기미	-11.8788
▁청장	-11.879
▁보수주의	-11.8792
▁불안해	-11.8797
▁분단	-11.8798
AS	-11.8799
▁기숙사에서	-11.8799
▁가문	-11.8799
셰르	-11.8804
▁외화	-11.8806
▁키니	-11.8808
▁이루기	-11.8809
lu	-11.8812
▁구멍이	-11.8813
hat	-11.8813
▁수혈	-11.8813
▁야스	-11.8821
gra	-11.8823
▁채용	-11.8827
▁안정화	-11.8831
▁사육사들	-11.8831
▁고심하	-11.8832
▁자료들	-11.8832
▁안정성	-11.8841
▁등반	-11.8842
▁중지하	-11.8844
▁크레인	-11.8847
evi	-11.8851
▁활동가들	-11.8851
▁환경적	-11.886
봤	-11.886
▁비난했으	-11.8864
▁시차	-11.8865
▁유니	-11.8868
rk	-11.8871
▁친구들이	-11.8874
▁org	-11.8874
연일	-11.8875
코트	-11.8875
▁도하	-11.8879
그리	-11.8879
▁각료들	-11.8881
▁김만	-11.8882
▁저서	-11.8883
▁거론	-11.8884
▁제출해야	-11.8885
▁촬영하	-11.889
▁거주민	-11.8892
▁선수들에게	-11.8892
▁여자친구와	-11.8893
▁유나이티드와	-11.8896
▁팔린	-11.8898
외교	-11.8901
▁상하이에서	-11.8902
▁유서	-11.8903
▁인물들	-11.8908
▁납세자들	-11.8915
ony	-11.8916
▁적용할	-11.8919
▁접어	-11.892
▁만부	-11.8921
▁철회하	-11.8936
▁경제팀	-11.8937
▁건강상	-11.8939
▁선출됐다	-11.8941
▁떨어졌으	-11.8942
▁중단하겠다	-11.8943
▁더위	-11.8945
▁피난민	-11.8951
▁표현할	-11.8952
▁ask	-11.8953
▁구리	-11.8954
▁거절한	-11.8958
▁레스토랑에서	-11.8959
줬으	-11.8965
랜스	-11.8965
▁초소	-11.8967
▁게르	-11.897
▁부패와	-11.8974
▁주위에	-11.8975
잡지	-11.8986
▁작품들	-11.8986
봐	-11.8988
▁심해	-11.8989
▁계획안	-11.8994
폭탄	-11.8996
타그	-11.8996
잇	-11.8998
월드컵	-11.8998
▁표하고	-11.8999
▁취소되	-11.9001
▁해결하고	-11.9002
스러웠	-11.9003
큰	-11.9003
▁나일	-11.9005
▁투표자	-11.9006
모델	-11.9007
환자	-11.9011
제조	-11.9014
열차	-11.9015
▁일쯤	-11.9016
계약	-11.9017
나이트	-11.9018
장애	-11.9018
소득	-11.9019
대결	-11.9027
▁끝나면	-11.9028
모건	-11.9028
▁근대	-11.9029
▁월급	-11.9029
소니	-11.9033
시마	-11.9036
tan	-11.9036
▁풀리	-11.9036
▁장악했다	-11.9039
나갔다	-11.904
▁특파원들	-11.9046
집회	-11.9049
▁이하로	-11.9049
▁경쟁사	-11.9056
▁메카	-11.9058
일본	-11.9063
▁무능	-11.9064
▁이때	-11.9067
▁요인들	-11.9067
▁공직자	-11.9075
▁도발	-11.9077
히코	-11.908
▁제소	-11.9083
nois	-11.9086
▁발견하고	-11.9087
▁축하하	-11.9092
▁우려된다	-11.9095
▁발전기	-11.9097
nel	-11.9097
담당관	-11.91
▁약화시키	-11.9103
▁점령한	-11.9104
▁치료하는	-11.9108
▁안전성	-11.9117
▁Cur	-11.9123
▁미대사	-11.9125
▁비난한다	-11.9127
▁인도적	-11.9131
▁가능해	-11.9135
lum	-11.9136
lan	-11.9139
▁한계	-11.9145
▁돌아보	-11.9146
▁구매자들	-11.9146
▁본부에서	-11.9148
AI	-11.9148
▁석방되	-11.9149
식품	-11.9153
▁보리	-11.9153
▁상징인	-11.9156
▁생각되는	-11.9159
▁같지	-11.9162
▁가방에	-11.9166
▁개최국	-11.9173
▁거론하	-11.9179
▁죽었	-11.9179
▁성대	-11.9182
▁매장에서	-11.9187
자격	-11.9198
▁후원하	-11.9201
일간	-11.9204
▁행해졌	-11.9208
▁회복되	-11.9214
주민들	-11.9216
▁자행한	-11.9217
▁싶어하지	-11.922
▁스캔들에	-11.9227
▁막지	-11.9227
▁제압	-11.9229
▁Live	-11.9236
▁We	-11.9236
▁피랍됐	-11.9237
▁미성년	-11.9239
ju	-11.9239
테드	-11.9241
▁전장에	-11.9244
▁확보하고	-11.9247
▁모기	-11.9249
▁당혹	-11.9251
▁한국전	-11.9254
▁검사들	-11.9258
▁버려	-11.926
▁모욕적	-11.9262
▁참여하기	-11.9264
광장	-11.9287
▁성교	-11.9296
▁작용하	-11.9297
요리	-11.93
▁수감돼	-11.9304
▁나타낸	-11.9304
▁Sa	-11.9314
악한	-11.9315
▁재기	-11.9317
▁시설들	-11.9321
▁무차별	-11.9325
▁무시한	-11.9329
▁전사자	-11.933
▁높았	-11.9339
▁후보간	-11.9339
▁표지	-11.9344
▁느낌이	-11.9349
▁힘들어	-11.935
▁유명해	-11.9358
토프	-11.9362
wn	-11.9368
쿨	-11.9371
▁제시하지	-11.9378
▁벌어	-11.938
리포트	-11.9386
ous	-11.9388
eav	-11.9391
▁참모총장	-11.9391
▁안타깝	-11.9392
▁곤란	-11.9394
▁터무니	-11.9396
슐	-11.9398
슬라브	-11.9399
둑	-11.9399
▁프란시스	-11.9401
▁경기부양	-11.9403
q	-11.9403
mission	-11.9403
▁Georg	-11.9403
팽	-11.9403
place	-11.9404
▁만파운드	-11.9404
▁발렌타인	-11.9404
▁사우스다코타	-11.9404
▁솔로몬	-11.9404
▁아쿠아리움	-11.9404
▁울프위츠	-11.9404
▁컨소시엄	-11.9404
▁클랩튼	-11.9404
뚱	-11.9404
륭	-11.9404
멕	-11.9404
ampaign	-11.9404
ready	-11.9404
▁Change	-11.9404
▁ESTA	-11.9404
▁Europe	-11.9404
▁Green	-11.9404
▁Group	-11.9404
▁John	-11.9404
▁KKK	-11.9404
▁Microsoft	-11.9404
▁RBS	-11.9404
▁SNCF	-11.9404
▁Watch	-11.9404
▁envoy	-11.9404
▁general	-11.9404
▁police	-11.9404
▁return	-11.9404
▁고혈압	-11.9404
▁나스랄라	-11.9404
▁네브라스카	-11.9404
▁뉴욕타임즈	-11.9404
▁다녔다	-11.9404
▁다빈치	-11.9404
▁대기오염	-11.9404
▁대선예비후보	-11.9404
▁델라웨어	-11.9404
▁독립선언	-11.9404
▁뒷좌석	-11.9404
▁드림라이너	-11.9404
▁레오나르도	-11.9404
▁루프트한	-11.9404
▁마르세유	-11.9404
▁머물렀다	-11.9404
▁메탄가스	-11.9404
▁믿어지	-11.9404
▁바예스테로스	-11.9404
▁박스오피스	-11.9404
▁북방한계선	-11.9404
▁분리독립	-11.9404
▁비디오테이프	-11.9404
▁스릴러	-11.9404
▁스머프	-11.9404
▁스테로이드	-11.9404
▁스프린트	-11.9404
▁시니오라	-11.9404
▁시베리아	-11.9404
▁아름답	-11.9404
▁아리조나	-11.9404
▁애국전선	-11.9404
▁에메랄드	-11.9404
▁엔터프라이즈	-11.9404
▁오마이뉴스	-11.9404
▁와코비아	-11.9404
▁워싱턴포스트	-11.9404
▁인공심장	-11.9404
▁자와히리	-11.9404
▁조기총선	-11.9404
▁최연소	-11.9404
▁카메룬	-11.9404
▁카스파로프	-11.9404
▁펠릭스	-11.9404
▁폴란스키	-11.9404
▁현충일	-11.9404
▁홀로코스트	-11.9404
▁히말라야	-11.9404
프로농구	-11.9404
▁withdraw	-11.9404
▁공청회	-11.9404
▁극단적인	-11.9404
▁알레르기	-11.9404
▁외할머니	-11.9404
▁허덕이	-11.9404
어느때보다	-11.9404
▁라말라	-11.9404
▁모토로라	-11.9404
▁산티아고	-11.9404
▁에버튼	-11.9404
▁카제미	-11.9404
▁크로포드	-11.9404
▁클리닉	-11.9404
▁현기증	-11.9404
▁목걸이	-11.9404
▁아세안	-11.9404
▁우체국	-11.9404
▁카우치	-11.9404
▁분화구	-11.9404
▁빔보	-11.9404
▁김일성	-11.9404
▁알메이다	-11.9404
▁엘비스	-11.9404
▁임상실험	-11.9404
▁트레이드	-11.9404
▁삼성전자	-11.9404
▁불도저	-11.9404
▁퇴근	-11.9404
▁오피스	-11.9404
동식물	-11.9404
▁아침식사	-11.9404
▁퇴출	-11.9404
참전용사	-11.9404
▁민주변화	-11.9404
▁스프링스틴	-11.9404
▁메세지	-11.9404
▁트레이시	-11.9404
▁공동기자회견에	-11.9404
▁떠다니	-11.9404
▁세비르	-11.9404
▁가오리	-11.9404
▁행정명령	-11.9404
revent	-11.9404
▁추도식	-11.9404
▁니가타	-11.9404
▁듀프레	-11.9404
▁Centr	-11.9404
▁버핏	-11.9404
▁Miss	-11.9404
▁쓰러진	-11.9404
▁리프트	-11.9404
▁민주변화운동	-11.9404
▁월경작전	-11.9404
▁탐지기	-11.9404
▁불상사	-11.9404
▁디아즈	-11.9404
▁적임자	-11.9404
▁종합병원	-11.9404
▁히트곡	-11.9404
▁rul	-11.9404
▁결론지었다	-11.9404
▁빠져나갔다	-11.9404
▁consumer	-11.9404
▁재가동	-11.9404
▁슬램	-11.9404
▁헐값	-11.9404
▁용암	-11.9404
▁슬럼	-11.9404
▁출몰	-11.9404
▁move	-11.9404
▁구급차	-11.9404
▁홍보담당자	-11.9404
▁골드버그	-11.9404
▁건강보험	-11.9404
▁블랙베리	-11.9404
▁데이비스컵	-11.9405
▁쥐스틴	-11.9405
▁히잡	-11.9405
▁완패	-11.9405
▁바꿨	-11.9405
▁아름다움	-11.9405
▁강제진압	-11.9405
▁fail	-11.9405
▁올라간다	-11.9405
▁천수이	-11.9405
▁사기꾼	-11.9405
▁겸손	-11.9405
▁놀이기구	-11.9405
▁감기약	-11.9405
▁동북	-11.9405
▁Ill	-11.9405
▁베풀	-11.9405
▁run	-11.9405
▁선거운동본부	-11.9405
▁스페이스	-11.9405
▁패션쇼	-11.9406
▁청취	-11.9406
▁ATP	-11.9406
▁목욕	-11.9406
홍색	-11.9406
▁노골적	-11.9406
▁갈망하	-11.9406
▁비겁	-11.9406
▁press	-11.9406
▁출근	-11.9406
▁남아시아	-11.9406
▁유니티	-11.9406
▁수세기	-11.9406
▁금전적	-11.9406
▁WTA	-11.9407
▁폭염	-11.9407
▁달려있다	-11.9407
▁사형제도	-11.9407
▁검은색	-11.9407
▁관습	-11.9408
▁육류	-11.9408
▁가져온	-11.9408
▁베이커	-11.9408
▁숙박비	-11.9408
▁뉴먼	-11.9408
IJ	-11.9408
▁에릭슨	-11.9408
▁입혔다	-11.9409
▁상무위원	-11.9409
▁올리버	-11.9409
▁축구협회	-11.941
▁실용적	-11.941
cial	-11.941
▁잠입	-11.941
▁마샬	-11.941
▁옐로	-11.941
▁채굴	-11.941
▁산업지수	-11.941
▁USB	-11.941
▁유명해졌다	-11.941
▁주모자	-11.941
프로축구	-11.941
▁담합	-11.9411
▁중국어	-11.9411
▁성폭행범	-11.9411
▁아이콘	-11.9411
▁임시정부	-11.9411
▁처방전	-11.9412
▁검시	-11.9412
▁청원	-11.9412
▁터졌다	-11.9412
uel	-11.9412
▁자궁	-11.9413
▁화산재	-11.9413
▁라디오뉴스	-11.9414
▁신랄	-11.9414
▁모스크	-11.9414
▁사무국	-11.9415
▁회생	-11.9415
▁어두	-11.9415
▁소득세	-11.9415
▁교신	-11.9415
▁비관적	-11.9417
▁담았다	-11.9417
▁수상작	-11.9417
▁정치활동	-11.9417
▁과열	-11.9417
▁진학	-11.9417
▁구슬	-11.9418
▁사죄	-11.9418
디언	-11.9418
▁변종	-11.9418
▁잠복	-11.9418
▁양빈	-11.9418
▁털어	-11.9418
▁떼어	-11.9418
▁도매	-11.9419
▁응급실	-11.9419
▁하향	-11.9419
▁장시간	-11.9419
▁즉석	-11.942
▁모빌	-11.942
▁성취	-11.942
▁통치권	-11.942
▁감형	-11.9421
▁보고됐다	-11.9421
▁독려	-11.9421
▁완강	-11.9421
▁친교	-11.9422
▁축적	-11.9422
▁거칠	-11.9423
▁계절	-11.9423
▁행보	-11.9424
툴라	-11.9424
▁초보	-11.9425
▁상인들	-11.9425
▁친지들	-11.9425
▁추위	-11.9425
▁간격	-11.9425
▁표출	-11.9425
▁혼자서	-11.9426
했어야	-11.9426
▁응용	-11.9426
▁칼리드	-11.9426
▁않음	-11.9426
▁파탄	-11.9428
▁경영자들	-11.9428
▁경고문	-11.9429
▁월터스	-11.9429
▁아예	-11.9429
▁동조	-11.9429
▁기자였	-11.943
▁도와준	-11.943
▁석권	-11.943
▁돌발	-11.943
▁패트	-11.943
▁자율	-11.943
▁만들어낸	-11.943
▁단단	-11.9433
▁없어질	-11.9433
▁극우	-11.9434
▁카본	-11.9434
▁인출	-11.9435
▁인도양	-11.9435
▁증명서	-11.9436
▁도슨	-11.9436
▁실체	-11.9436
▁달아나	-11.9437
▁보수주의자들	-11.9438
▁조종사들	-11.9438
▁의향	-11.9439
▁재연	-11.9439
▁모친	-11.944
▁그렇지만	-11.944
▁의문사	-11.944
▁나빠지	-11.944
▁영구적	-11.9441
▁국정원장	-11.9441
▁형법	-11.9441
▁세월	-11.9442
▁위스콘신주	-11.9443
▁유형	-11.9443
▁상류	-11.9444
▁주거지	-11.9445
▁납치됐	-11.9445
▁환경부	-11.9446
▁벗어나지	-11.9446
▁쓰러졌다	-11.9447
▁영국항공	-11.9448
ision	-11.9448
▁도착했으	-11.9449
▁공단	-11.9449
ave	-11.945
▁사본	-11.945
▁그라이브	-11.9451
▁저지대	-11.9451
▁소중	-11.9451
▁피력	-11.9452
▁동화	-11.9452
▁별명	-11.9453
▁건전	-11.9453
▁아론	-11.9453
▁원정경기에서	-11.9455
▁올림픽위원회	-11.9455
▁농성	-11.9456
▁병원측	-11.9456
▁저조	-11.9456
▁특권	-11.9456
▁Hy	-11.9457
▁시작하자	-11.9457
▁연비	-11.9458
▁카나리	-11.946
▁이민국	-11.9461
▁아래서	-11.9462
▁배신	-11.9463
▁설치했다	-11.9465
▁제마	-11.9466
거래소에서	-11.9466
▁통과시킨	-11.9467
▁중학교	-11.9468
퍼드	-11.947
▁India	-11.947
▁푸드	-11.9472
▁불타	-11.9478
▁동부지역에서	-11.9479
▁강행할	-11.948
▁부호	-11.948
▁보장받	-11.9481
▁감독관	-11.9485
▁폰다	-11.9485
▁기법	-11.9487
▁취급하	-11.9488
우먼	-11.9489
▁실시간	-11.9489
▁최소화	-11.9489
▁받아들여지	-11.949
▁공급하기	-11.9493
▁만족할	-11.9493
▁소비량	-11.9494
▁오노	-11.9496
▁선진	-11.9496
▁뉴욕시장	-11.9496
▁얻어야	-11.9497
▁관찰하	-11.9499
▁제거하는	-11.95
▁호르	-11.95
▁피랍됐다	-11.9502
그라	-11.9502
▁투입되	-11.9503
▁나타낸다	-11.9504
▁맞서기	-11.9505
▁정당성	-11.9506
▁모가디슈에서	-11.9507
▁가설	-11.9508
웃	-11.951
▁마시지	-11.951
▁마우	-11.9513
▁입성	-11.9515
▁거미	-11.9518
▁거주지역	-11.952
rug	-11.9523
▁잡히	-11.9523
▁확보하기	-11.9523
of	-11.9523
▁가파	-11.9528
▁이루어지지	-11.9529
▁시에나	-11.953
▁중단했으	-11.953
▁제외됐다	-11.9533
▁가든	-11.9534
▁도서	-11.9536
▁평화롭	-11.9536
▁개종	-11.954
▁로키	-11.9542
▁충분하다	-11.9543
▁분산	-11.9544
▁프라하	-11.9546
PR	-11.9548
▁무성	-11.9548
▁can	-11.955
플랜	-11.9555
테오	-11.9555
▁멜로	-11.9556
▁제조업자	-11.9557
ray	-11.956
▁안치	-11.9565
▁취지	-11.9565
▁들어간다	-11.9566
▁조언했다	-11.9567
▁케네	-11.957
▁얻었으	-11.9571
▁스키장	-11.9572
▁발사해	-11.9574
▁정하지	-11.9577
▁납치되었	-11.9577
▁Fi	-11.9578
▁정해졌	-11.9578
▁나와있	-11.9579
신형	-11.9584
▁모술에서	-11.9588
▁발견하게	-11.9588
▁그러면	-11.959
▁보여주었다	-11.9592
▁노력해야	-11.9593
▁사망하기	-11.9593
슈아	-11.9593
▁보았	-11.9596
▁세워졌	-11.9599
▁사랑한다	-11.96
ng	-11.9602
▁비명	-11.9602
ump	-11.9602
▁페러	-11.9605
오차	-11.9606
▁봉인	-11.9606
코트에서	-11.9607
▁샤리	-11.9608
▁전해왔	-11.9608
▁구성했다	-11.9614
▁신청자	-11.9614
▁살았다	-11.9615
▁싸우고	-11.9616
▁갑작스러	-11.9617
재산권	-11.962
▁입게	-11.9627
▁War	-11.9628
▁고소했다	-11.9629
▁개헌안에	-11.963
▁고려해야	-11.9635
▁작성했다	-11.9643
어지는	-11.9655
술라	-11.9656
▁벤와	-11.9662
▁열악	-11.967
▁철로	-11.9674
▁배치된	-11.968
▁연안에서	-11.9681
▁구역에서	-11.9698
치오	-11.9705
▁디나	-11.9708
워졌	-11.9709
▁필리	-11.9721
▁배심원들	-11.9728
▁사퇴했다	-11.973
▁알레	-11.9733
▁어부들	-11.9735
▁재정비	-11.9736
▁인하했다	-11.9738
▁무장괴한들	-11.974
▁변기	-11.9741
▁적기	-11.9742
▁Jon	-11.9746
활	-11.9749
▁물려	-11.9753
큐	-11.9754
보좌관	-11.9757
싸	-11.9757
켄	-11.976
젤리	-11.9761
듀	-11.9762
▁분파	-11.9762
낙	-11.9762
▁보행	-11.9764
행동	-11.9764
기상청	-11.9765
포르	-11.9765
빅	-11.9767
▁배치되어	-11.9768
리서치	-11.9768
평균	-11.9768
미사일	-11.9769
SL	-11.9772
포인트	-11.9774
축구	-11.9776
등록	-11.9779
▁차트	-11.978
▁실감	-11.978
▁지상에서	-11.9781
결정	-11.9783
▁디지	-11.9786
▁돌아가기	-11.9786
평화	-11.9786
보낼	-11.9787
소송	-11.9787
조각	-11.9788
▁기소장	-11.9792
▁주간지	-11.9805
세워	-11.9812
TS	-11.9815
증세	-11.9818
다닐	-11.9819
▁노스캐롤라이나에서	-11.9824
불안	-11.9825
▁포착했다	-11.983
수익	-11.9833
▁연행했다	-11.9835
▁봉쇄했다	-11.9836
▁부정했다	-11.984
▁가린	-11.9842
▁추측되	-11.9851
▁수행하기	-11.9852
ten	-11.9858
▁제거했다	-11.9862
▁vi	-11.9864
▁일본측	-11.9866
▁표준시	-11.9878
무대	-11.9879
▁알프레	-11.9881
▁sen	-11.9882
론자	-11.9887
com	-11.9891
▁확정했다	-11.9895
대장	-11.9895
▁구입했다	-11.9905
▁보안국	-11.9907
▁슈퍼대의원들	-11.9919
▁Ban	-11.9921
노브	-11.9941
▁CH	-11.9941
공간	-11.9953
▁인기있	-11.9958
▁제작됐다	-11.9959
▁지휘관들	-11.9963
▁부족해	-11.9966
▁둔화되	-11.9967
▁심기	-11.998
▁포로로	-11.9984
▁다투	-11.9986
오브	-12.0003
▁붕괴됐다	-12.0006
▁행성들	-12.0011
▁원만	-12.0014
▁안전하다	-12.002
▁멀어	-12.0023
드윈	-12.0028
쳐야	-12.0034
▁부과했다	-12.0046
▁전달하기	-12.0059
소식	-12.0077
타이거	-12.0082
▁저항하	-12.0093
▁서적	-12.0093
▁끝났	-12.0094
▁fr	-12.0099
▁묘사하	-12.0103
▁확보하는	-12.0108
▁여행객들이	-12.0111
전문가들	-12.0119
▁청구했다	-12.0125
▁준결승전	-12.0129
▁정당들	-12.0134
▁윌리암	-12.0136
▁배치했다	-12.0139
▁빠뜨	-12.0146
▁떨어뜨	-12.0152
▁늘려	-12.0164
▁반영하	-12.0165
옐	-12.0166
▁절대적	-12.0168
▁이용되	-12.0168
▁알래스카주	-12.0169
▁구조했다	-12.017
리포터	-12.017
뇨	-12.0171
▁lead	-12.0172
뭉	-12.0172
onsumer	-12.0172
벳	-12.0172
▁Council	-12.0173
▁Depart	-12.0173
▁French	-12.0173
▁Institute	-12.0173
▁Israel	-12.0173
▁NHK	-12.0173
▁SARS	-12.0173
▁SNL	-12.0173
▁UCLA	-12.0173
▁expresse	-12.0173
▁job	-12.0173
▁missile	-12.0173
▁politic	-12.0173
▁가깝다	-12.0173
▁광저우	-12.0173
▁국제통화기금	-12.0173
▁나뭇가지	-12.0173
▁노스다코타	-12.0173
▁닫았	-12.0173
▁대북제재	-12.0173
▁댕기열	-12.0173
▁데이터베이스	-12.0173
▁동아시아	-12.0173
▁롤러코스터	-12.0173
▁만배럴	-12.0173
▁맨하탄	-12.0173
▁무사콸라	-12.0173
▁무작위	-12.0173
▁밀워키	-12.0173
▁보궐선거	-12.0173
▁불공평	-12.0173
▁브래들리	-12.0173
▁비무장	-12.0173
▁사파테로	-12.0173
▁선글라스	-12.0173
▁선덜랜드	-12.0173
▁세계경제포럼	-12.0173
▁스폰서	-12.0173
▁아틀레티코	-12.0173
▁애국심	-12.0173
▁에두아르	-12.0173
▁여우주연상	-12.0173
▁유럽중앙은행	-12.0173
▁융통성	-12.0173
▁이슬라미야	-12.0173
▁인수합병	-12.0173
▁족자카르타	-12.0173
▁쫓아내	-12.0173
▁차이나데일리	-12.0173
▁츠요시	-12.0173
▁캄푸쉬	-12.0173
▁캐시미르	-12.0173
▁코리아타임즈	-12.0173
▁코뿔소	-12.0173
▁코펜하겐	-12.0173
▁콴타스	-12.0173
▁클래식	-12.0173
▁클리브랜드	-12.0173
▁통합러시아당	-12.0173
▁트랜스포머	-12.0173
▁트럼프	-12.0173
▁파라마운트	-12.0173
▁파르베즈	-12.0173
▁프리미엄	-12.0173
▁확고히	-12.0173
▁휘두르	-12.0173
▁흘렀	-12.0173
퀘	-12.0173
텔레그래프	-12.0173
▁Auto	-12.0173
▁Washington	-12.0173
▁capital	-12.0173
▁노란색	-12.0173
▁성폭력	-12.0173
▁주일미군	-12.0173
간담회에서	-12.0173
축구대표팀	-12.0173
▁change	-12.0173
▁배기가스	-12.0173
▁복부비만	-12.0173
▁심사숙고	-12.0173
▁천안문	-12.0173
▁친인척	-12.0173
▁poll	-12.0173
▁냉소적	-12.0173
▁레예스	-12.0173
▁유니폼	-12.0173
▁의사소통	-12.0173
▁카밀라	-12.0173
▁나르기스	-12.0173
▁마들렌	-12.0173
▁스펙터	-12.0173
▁쓰러지	-12.0173
▁조연상	-12.0173
▁트레이너	-12.0173
▁짐바브웨아프리카민족	-12.0173
▁클래스	-12.0173
▁고프섬	-12.0173
▁백만장자	-12.0173
▁끼치지	-12.0173
▁안테나	-12.0173
▁왓슨	-12.0173
▁헬멧	-12.0173
▁좌초	-12.0173
▁구덩이	-12.0173
프로야구	-12.0173
▁에볼라	-12.0173
▁그랜트	-12.0173
▁relation	-12.0173
▁Glob	-12.0173
▁Music	-12.0173
▁만수르	-12.0173
▁서부텍사스산	-12.0173
▁이스트우드	-12.0173
▁경신했다	-12.0173
▁리스본	-12.0173
▁장래에	-12.0173
▁클라우디	-12.0173
▁트루먼	-12.0173
▁발리우드	-12.0173
▁선두주자	-12.0173
무차관	-12.0173
▁물고문	-12.0173
▁현존하	-12.0173
▁혈압	-12.0173
▁욕실	-12.0173
▁트래	-12.0173
▁에어컨	-12.0173
▁내보내	-12.0173
▁폭죽	-12.0173
▁휘둘	-12.0173
ould	-12.0173
▁스트립	-12.0173
▁악몽	-12.0173
▁Rock	-12.0173
▁컨트리	-12.0173
▁집주인	-12.0174
▁bill	-12.0174
▁MLS	-12.0174
▁곤봉	-12.0174
▁다이빙	-12.0174
▁제주도	-12.0174
▁징수	-12.0174
▁깨뜨	-12.0174
▁펠트	-12.0174
▁압축	-12.0174
▁give	-12.0174
▁혈통	-12.0174
▁free	-12.0174
NSC	-12.0174
wood	-12.0174
▁장병들	-12.0174
▁전자제품	-12.0175
▁차량폭탄테러	-12.0175
▁착각	-12.0175
▁브랜슨	-12.0175
▁경범죄	-12.0175
▁과격단체	-12.0175
▁세계무역센터	-12.0175
▁언더파	-12.0175
▁니켈	-12.0175
▁추락사고	-12.0175
▁학습	-12.0175
▁Free	-12.0175
ility	-12.0176
▁행정장관	-12.0176
▁바이올	-12.0176
▁타깃	-12.0176
▁로하스	-12.0176
▁권좌	-12.0176
▁글로브	-12.0176
▁음란	-12.0176
▁라마디	-12.0176
▁움직여	-12.0176
▁웬디	-12.0176
▁출품	-12.0176
gle	-12.0176
▁toward	-12.0176
▁보호구역	-12.0176
▁클로버	-12.0176
▁기반시설	-12.0176
▁심각해지	-12.0176
▁Out	-12.0177
▁지켜볼	-12.0177
첸코	-12.0177
▁상여금	-12.0177
▁행해지	-12.0177
▁독살	-12.0177
▁dur	-12.0177
▁교도관	-12.0177
▁충실	-12.0177
reme	-12.0177
닥친	-12.0177
▁미시시피강	-12.0177
▁부흥	-12.0177
▁가리키	-12.0178
▁도킹	-12.0178
▁스몰	-12.0178
▁주가지수	-12.0178
den	-12.0178
▁신탁	-12.0178
▁관절	-12.0178
▁붉은색	-12.0179
▁자금지원	-12.0179
▁특별검사	-12.0179
▁Big	-12.0179
▁치욕	-12.0179
▁헬러	-12.0179
▁한계선	-12.0179
▁유로스타	-12.018
▁특검	-12.018
▁휩쓸려	-12.018
▁낙타	-12.018
▁set	-12.018
▁왕립	-12.018
▁사흘	-12.018
▁평화회담	-12.018
▁출구	-12.018
▁올라있다	-12.018
▁떠올리	-12.0181
▁소멸	-12.0181
▁계란	-12.0181
▁니콜슨	-12.0181
▁적합하지	-12.0182
▁대선결과	-12.0182
▁피해규모	-12.0182
▁삼판	-12.0182
water	-12.0183
▁아시안	-12.0183
▁소방서장	-12.0183
▁쏘아	-12.0183
▁선거결과	-12.0183
▁항목	-12.0184
▁목재	-12.0184
▁채팅	-12.0184
▁영공	-12.0184
▁메릴랜드주	-12.0185
▁도망치	-12.0185
▁테너	-12.0185
▁변함	-12.0185
▁양봉	-12.0186
less	-12.0186
▁종족	-12.0186
▁조별	-12.0186
▁소변	-12.0186
▁구입하는	-12.0187
▁오존	-12.0187
느린	-12.0187
▁태형	-12.0187
▁신변	-12.0187
▁갈색	-12.0187
▁Op	-12.0188
▁솔라나	-12.0188
▁온건	-12.0188
▁친근	-12.0188
▁드물게	-12.0189
▁천만원	-12.0189
▁길거리	-12.0189
▁로이드	-12.0189
▁세르비아계	-12.0189
gen	-12.0189
▁파열	-12.019
▁무관	-12.0192
▁커져	-12.0192
▁다수당	-12.0192
▁쇼핑센터	-12.0192
▁외교위원회	-12.0193
▁열망	-12.0194
▁전국위원회	-12.0194
▁능가	-12.0195
▁집행위원회	-12.0195
▁우울	-12.0196
▁앉아서	-12.0197
▁기장	-12.0197
▁소탕하기	-12.0197
▁댄스	-12.0198
▁동계	-12.0198
▁성전환	-12.0199
예방센터	-12.02
▁버티	-12.02
▁바람직하다	-12.0201
▁치유	-12.0201
▁유래	-12.0201
▁테러사건	-12.0201
▁삭제하	-12.0202
▁청구서	-12.0202
▁내몰	-12.0202
▁우유	-12.0203
▁군당국	-12.0203
▁도처에	-12.0203
▁산출	-12.0204
▁클린트	-12.0205
▁실형	-12.0205
▁지낼	-12.0205
▁반입	-12.0205
▁철수시킬	-12.0206
▁석방하라	-12.0206
▁가르쳐	-12.0207
▁파병군	-12.0208
▁특유	-12.0208
▁붙어	-12.0208
▁추측된다	-12.0209
▁가수들	-12.0209
▁시설물	-12.021
▁모터스	-12.021
▁합성	-12.0211
▁총탄	-12.0211
▁국교	-12.0211
▁방중	-12.0211
▁것일까	-12.0211
큐리	-12.0211
▁뒷받침할	-12.0211
▁원료	-12.0211
▁명확하지	-12.0213
▁헤비	-12.0213
▁싸운	-12.0214
▁천체	-12.0214
▁버니	-12.0216
▁원작	-12.0218
▁우선시	-12.022
▁담보	-12.0222
▁논리	-12.0222
▁미끄러지	-12.0222
▁불신	-12.0224
▁질문들	-12.0226
▁돌봐	-12.0226
▁모리스	-12.0228
omen	-12.0228
▁인신	-12.0231
▁날조	-12.0231
▁탄력	-12.0231
▁여신	-12.0232
▁기뻐했다	-12.0233
▁건국	-12.0233
▁끝냈	-12.0237
▁백명	-12.0238
▁안경	-12.0238
▁유린	-12.0239
▁마련됐다	-12.0239
▁개입하지	-12.024
▁전망된다	-12.0242
▁검찰관	-12.0243
▁반발하	-12.0244
▁드러냈	-12.0244
▁온스	-12.0244
▁마리오	-12.0248
▁선거위원회	-12.0249
▁보내야	-12.025
▁밝혀내지	-12.025
▁실험실	-12.0251
▁흥미롭	-12.0251
▁vote	-12.0252
▁기조	-12.0252
▁원더	-12.0252
▁함자	-12.0253
▁실시하는	-12.0253
▁게재했다	-12.0254
▁추측했다	-12.0255
친화적	-12.0258
▁찬스	-12.0258
▁알약	-12.0259
▁훔쳤	-12.0261
▁카라다	-12.0264
▁화학적	-12.0269
▁외곽지역	-12.0271
▁발생했었다	-12.0274
▁방일	-12.0275
▁예측하기	-12.0275
▁후송됐다	-12.0276
▁풀기	-12.0277
▁기본스	-12.0279
▁기여했다	-12.028
▁공보	-12.028
▁중부지역	-12.0281
▁상징하	-12.0283
▁인디애나주	-12.0286
드리스	-12.0287
▁기상학자	-12.0289
▁쏟아지	-12.0289
▁회복하기	-12.0289
달아	-12.029
▁살펴보	-12.0296
▁농지	-12.0297
▁주장하면서	-12.0297
▁마디	-12.0299
▁방법이라고	-12.03
첼로	-12.0302
▁중추	-12.0305
▁만두	-12.0308
▁현재로서	-12.031
▁보고타	-12.0311
pt	-12.0312
▁맞았으	-12.0312
▁사바	-12.0313
▁사회자	-12.0319
▁솔로	-12.0319
iden	-12.0322
MR	-12.0323
▁맥스	-12.0324
▁걸렸	-12.0325
▁중단한다	-12.0326
▁코스타	-12.0328
▁용이하	-12.0329
▁바꾸어	-12.0329
▁드러	-12.0333
▁확실시되	-12.0335
▁생산국	-12.0345
▁Good	-12.0348
▁공제	-12.0349
▁묘사하고	-12.035
폴리스	-12.035
▁shar	-12.0351
▁선사	-12.0353
▁넘치	-12.0355
▁타오	-12.0362
▁이둘	-12.0365
▁통근자들	-12.0365
uff	-12.0366
▁검문소에서	-12.0367
▁성당에서	-12.0367
▁지적한	-12.037
▁오크	-12.0372
▁가담했다	-12.0373
▁공판에서	-12.0374
▁오래전	-12.0375
▁막사	-12.0381
▁촉발됐다	-12.0382
▁달성하기	-12.0383
라이츠	-12.0389
▁경제학자인	-12.0393
▁Che	-12.0394
▁말하면	-12.0396
▁잠정적	-12.0401
하듯	-12.0404
▁제명	-12.0405
▁사람이었다	-12.0407
▁오염된	-12.041
▁바보	-12.0419
▁골프장	-12.042
▁기뻐	-12.0421
▁조야	-12.0427
▁승리했으	-12.0429
▁만들려	-12.0431
▁치르기	-12.0432
▁기관사	-12.0438
▁국제공항에서	-12.0442
▁실장	-12.0442
스버그	-12.0444
▁연결되	-12.0447
▁나쁘지	-12.045
▁피살됐다	-12.0453
LB	-12.0454
▁팔기	-12.046
▁주중	-12.0461
▁피랍자	-12.0467
▁마린	-12.0468
▁지불해야	-12.0475
▁환경운동	-12.0477
▁개발도상국들	-12.0484
▁다카	-12.0484
▁출두했다	-12.049
▁전면적	-12.0492
▁존중하	-12.0492
통계국	-12.0496
over	-12.0497
HP	-12.0498
come	-12.0499
▁취했	-12.0501
추어	-12.0505
▁제안했	-12.0505
▁훈련시키	-12.0507
▁회기	-12.0509
▁이끌어냈	-12.0509
▁허락했다	-12.0513
▁선생님	-12.0521
▁발효된	-12.0526
▁개별적	-12.0528
▁학부모	-12.0529
▁마니	-12.053
▁강화해	-12.0532
▁남았	-12.0533
▁hel	-12.0545
▁블로거들	-12.0549
▁혁신	-12.0557
▁엔지니어들	-12.0559
클라라	-12.0564
▁올리기	-12.0567
▁사과한다	-12.0567
▁학교측	-12.0573
▁소비자에게	-12.0574
▁감시하	-12.0578
▁지정했다	-12.0581
▁대항해	-12.0584
따	-12.0595
아버지	-12.0596
헬	-12.0597
덜	-12.0597
▁중독자	-12.0598
쓸	-12.0598
끝	-12.06
딸	-12.06
싸움	-12.06
박물관	-12.0601
오바마	-12.0602
검색	-12.0603
▁차단하	-12.0605
보험	-12.0607
▁자랑스럽	-12.0607
교류	-12.0611
▁Tru	-12.0611
질환	-12.0614
라디오	-12.0615
분석	-12.0617
성향	-12.062
예산	-12.0621
명령	-12.0625
쉽게	-12.0625
공개	-12.0626
▁순찰차	-12.063
▁도착하기	-12.0631
출신	-12.0632
파업	-12.0634
▁세무	-12.0637
▁낙관	-12.0638
▁돌려받	-12.064
▁그것들	-12.0643
대변인	-12.0643
방문	-12.0643
▁환영하	-12.0646
▁조합원들	-12.0652
▁토리	-12.0658
효과	-12.0659
▁보고되	-12.066
수입	-12.068
og	-12.0682
국제	-12.069
▁피난민들	-12.069
▁장갑차	-12.0697
▁증명했다	-12.0698
▁납치하려	-12.0698
▁노렸	-12.07
▁간호사들	-12.0708
▁트랜	-12.0714
카노	-12.0716
맞추기	-12.0725
▁서머	-12.0726
▁복귀했다	-12.0733
▁예일대	-12.0735
▁선출되	-12.0736
▁문화부	-12.0737
▁타자	-12.0737
▁Ho	-12.074
▁취하겠다	-12.0742
▁청중들	-12.0751
▁살고있	-12.0771
▁이슬람인들	-12.0772
dle	-12.0772
▁대답한	-12.0775
▁개발자들	-12.0782
▁잠정	-12.0787
▁연결시키	-12.0791
▁회피	-12.0794
▁장면들	-12.0796
▁대변하는	-12.0805
▁스파	-12.0821
▁인물이라	-12.0825
▁흑인들	-12.0829
▁시민단체들	-12.0829
▁제거하고	-12.0837
▁동의하지	-12.0844
▁순례객	-12.0857
▁태어났	-12.0862
▁도착한다	-12.0864
▁복귀하	-12.0864
▁스캔	-12.087
범들	-12.0873
ound	-12.0876
▁수행한다	-12.0881
[...]
